#version: 0.2 - Trained by `huggingface/tokenizers`
Ã °
Ġ Ã
Ġ s
a r
i n
a Ã°
e r
u m
Ġ h
Ġ v
a n
Ġ f
i Ã°
ĠÃ ¾
Ã ¡
u r
i r
Ġ o
Ã ³
s t
ĠÃ ¡
Ã Ń
Ã ¦
Ġ m
Ġ aÃ°
Ġ e
Ġo g
ĠÃ Ń
Ã ¶
i l
Ġ t
u n
Ġ l
Ġ er
t t
a l
e g
Ġ b
in n
a f
in g
Ã º
e m
e n
Ġ g
a m
Ã ©
Ġ k
Ġ n
k k
a g
e i
y r
Ġs em
Ġs t
an d
Ġ um
Ġt il
an n
s k
j Ã³
o r
e f
e Ã°
Ġs k
Ġv iÃ°
s s
Ã ½
r e
Ã° a
r i
r a
s l
Ġv er
Ġf yr
e l
ĠÃ¾ e
n a
Ġf r
n d
Ġ S
i g
Ã° i
t a
Ġm eÃ°
l a
j a
Ġ r
v ÃŃ
Ġ af
Ġfyr ir
Ã¡ l
n i
p p
v er
Ġ H
t i
Ġ d
in s
l u
n ar
Ġe n
l eg
Ã¶ g
a u
kk i
Ã© r
Ġv ar
Ġ 1
un d
Ġs am
Ġ al
ĠÃ ŀ
Ġ B
Ġ E
l i
Ã¶ r
ĠÃ º
a t
Ġe kki
n um
â Ģ
Ã° ur
ing ar
e t
Ġ u
Ġe f
k a
and i
ĠÃ¾ vÃŃ
i s
Ġ 2
ĠÃ¾e ss
Ġs v
. .
o m
Ã¦ r
ĠÃ¾ aÃ°
en d
ar f
Ġs ÃŃ
Ġu pp
ei m
n u
e y
j Ã¡
in u
Ġh af
Ġh ef
Ã° u
l l
Ġer u
Ġ M
l d
Ġ A
t ir
en n
st a
Ġ V
u g
o n
i k
l ag
Ã ¾
re y
Ġ F
al d
ĠÃ į
r Ã¦
Ġfr Ã¡
Ã³ l
ĠÃ ©
Ã° ar
ÃŃ k
ĠÃ ¶
e iÃ°
Ġfr am
n ing
tt a
ĠÃ ³
an g
r Ã¡
Ġ p
Ġ G
Ġe Ã°a
Ġe in
k v
leg a
y nd
g g
Ġ (
Ġhef ur
j ar
i st
o f
en g
st u
Ã¦ k
Ġ L
inn i
ĠÃ¡ r
Ġ Å
i p
i t
ĠÃ¾ Ã¡
0 0
er Ã°
Ġ K
Ġk om
v ar
s ins
ei k
Ã© tt
r Ã³
eg ar
j Ã¶
Ġef tir
Ġs Ã©r
ĠÃ© g
e st
Ġal l
ĠÃº t
Ã³ k
o t
ĠÃ¾e ir
Ġh ann
ar a
jÃ³ r
Ãº n
y gg
Ġ R
Ã¦ Ã°
u Ã°
il d
Ġ âĢ
m a
s m
ĠÃ¾ ar
Ã© lag
l aÃ°
e ir
a st
n ir
Ã¦ g
- -
f ir
Ãº s
Ġhaf a
j Ã¡l
ann a
Ġg er
Ġl ÃŃ
Ġ y
Ġ at
Ġh v
sl u
aÃ° ur
Ġ T
Ġsv o
Ġo kk
e k
Ġh eim
Ġver iÃ°
Ġ inn
Ġ N
ing u
.. .
Ã¶ f
y n
Ã³ r
Ã ŀ
Ġ au
aÃ° i
in a
in d
Â Ń
Ã¶ n
ĠÃį sl
l Ã½
Ġst aÃ°
Ġn Ã½
r um
t ur
s ÃŃ
Ġs Ã©
ĠÃº r
un ar
Ġf l
a k
Ã¦ m
Ġl Ã¶g
s am
Ã¡ Ã°
e s
Ġh ver
Ġe ig
ei t
i tt
Ġd ag
Ġs p
o kk
Ã¦ Ã°i
Ġ J
el d
b er
Ġb rey
Ġt ÃŃ
and s
j u
Ġm Ã¡
or g
Ġver a
Ġm ik
an s
Ġ2 0
un um
Ġl ag
jÃ³ Ã°
Ã¶ k
Ġst arf
ĠÃ ģ
Ġ Ä
Ġn Ã¡
o Ã°
Ġ j
Ã¦ tt
Ġy fir
Ġ und
Ã į
Ã¦ ti
Ġf or
af n
Ã³ t
il eg
un a
Ã³ tt
ar k
il l
lÃ½ s
Ġm Ã¡l
Ġv eg
et ur
Ġ -
ri f
un g
Ġ 3
ĠÃ¾ Ãº
jÃ¡l f
Ã³l k
t u
j um
ĠÃ¾ egar
Ġ D
Ġh lu
Ã° um
ĠÃ ¦
f i
Ġh e
Ġbrey t
Ġs eg
un ni
Ġg r
Ġn Ãº
Ġver Ã°ur
re in
r am
Ġ P
j Ã¶r
o l
re iÃ°
ing um
Ġm ynd
âĢ ľ
ĠS t
Ġo r
Ġ20 1
Ġv el
inn a
Ġ ann
o k
jÃ³r n
end ur
t ar
b Ãº
t ÃŃ
r Ãº
ĠÃ¾ eim
Ġe nd
jÃ¡ r
sk a
Ġs ig
h ver
e in
ĠÃ¾e tta
sk ip
Ġv or
Ġh jÃ¡
var p
Ġall t
t Ã¦k
al l
a v
ĠÃ¡ h
ÃŃ s
g u
Ġ I
ar i
ī g
Ġn ot
n aÃ°
ĠÃŀ aÃ°
Ã½ r
Ġs l
Ġo f
ing a
s v
d d
Ã¡ tt
Ġh Ã©r
Ġokk ar
Ġsk ip
Ġe ins
an a
Ġl eiÃ°
y l
ĠÃ¾eir ra
in um
er k
j Ãº
u ll
s h
m i
Ã³ Ã°
Ġ 4
Ġsk il
Ġe inn
ir k
Ġ1 9
sÃŃ Ã°a
l ÃŃ
kv Ã¦m
Ġs Ã¦ti
Ġk r
jÃ¶ l
Ġund ir
ss on
r ygg
m enn
Ġl and
Ġt ek
d ag
r u
Ġf Ã¡
Ġh ald
ĠlÃ¶g um
Ã¶ l
-- --
Ġh ug
st of
un n
ĠÃ ½
e tt
ĠB laÃ°
Ġlag a
ĠâĢ ŀ
ar g
Ã³ n
iÃ° ur
Ġb r
Ã¶ Ã°
ĠBlaÃ° sÃŃÃ°a
n un
Ġf er
r ÃŃ
jÃ³ nu
a ka
Ġk v
Ġ 5
Ã¦ ri
a s
Ġk o
r ar
or t
Ġl eik
lu g
inn ar
Ġm un
Ġveg na
Ġvor u
Ġh Ãºn
ei g
Ġ O
ur inn
s Ã³k
ef ni
Ġver k
eir a
b r
Ġr Ã©tt
Ġs um
u l
Ã¶ nd
Ã¦g t
Ġhaf i
Ġg e
Ġf Ã©lag
re k
f rÃ¦
Ġ U
f ram
s p
ĠÃ¡ kv
Ã° an
and a
o tt
f a
k om
t um
Ġr Ã¡Ã°
ĠÃįsl ands
Ã³ m
Ġs jÃ¡lf
sl en
Ġ C
Ġv ef
k ur
Ġokk ur
Ã© l
m Ã¡
ag n
Ġupp lÃ½s
Ġg etur
u st
Ġf Ã³lk
f l
g ja
ef nd
sk u
ĠV iÃ°
rÃ¡ Ã°
Ã ¸
ĠtÃŃ ma
p a
end a
sam t
i m
Ġs Ã½
r iÃ°
Ġf jÃ¡r
ĠâĢ ĵ
sta k
Ġh Ã¦
e ss
Ġt v
ar s
t iÃ°
f erÃ°
ĠÃŃ slen
Ã³ la
Ã¶ ld
Ġr ÃŃk
Ġh en
Ġl Ã¡
ÃŃ n
m iÃ°
Ġger a
Ġhv aÃ°
g i
e tta
ĠS k
e yr
Ġm iÃ°
Ġk yn
Ġn okk
Ġb Ãº
m Ã¡l
em ur
n ingar
y ld
Ġh Ã¶f
Ġsam an
Ã ģ
Ġn r
m ynd
Ġm Ã©r
Ã° ir
Ġe itt
e pp
ĠÄ Ľ
Ġ 6
Ġkom a
ei tt
inn u
un nar
h ug
rum varp
Ġb ar
Ġk l
n t
il li
Ġb Ã¦
ĠÃ¾ ann
Ġb l
ĠÃ¶ Ã°
leg t
ĠÃ¶ ll
d Ã³tt
Ġf jÃ¶l
Ġj afn
Ġst jÃ³rn
ĠÃ¡ samt
Ġh l
s u
Ġ 7
F rumvarp
i ss
Ġt aka
j Ã¶g
v eg
ĠÃ¾ arf
Ġs jÃ¡
Ġseg ir
l um
h er
l eiÃ°
st ur
il a
an um
s a
j ald
Ġ rey
e ild
Ġh Ã¡
ĠÃ¾ au
Ġm ann
Ġg rein
ĠE n
ĠlÃŃ f
ĠÃ īg
Ã° s
r Ã©tt
Ġm enn
g a
r o
Ã¦Ã° inu
Ġn iÃ°ur
Ġo k
st i
Ġf ull
s i
Ġg ef
y k
Ġs n
Ġ ra
ĠR ey
jÃ³nu stu
Ġn Ã¦
or Ã°
el l
Ã¶ Ã°u
ĠÃ¾ess u
Ġg eg
Ġv Ã¶r
Ġeinn ig
Ġver Ã°
Ġf ar
ĠsÃŃ Ã°ar
ĠÃ¾ Ã¦r
Ã¦ Ã°a
Ġs ag
f Ã©lag
Ġf ara
eld ur
Ġo p
Ġal d
Ġsk al
k ja
Ġb ara
v aÃ°
Ġv ir
jÃº k
e x
h Ãºs
ĠÃ¡ ra
t an
Ġh ans
Ã¶ lu
jÃ³ n
ĠÃ¾ Ã³
g ang
Ġver Ã°a
Ġm illi
li t
Ġv il
Ġt al
Ã³ p
aÃ° ar
b and
Ġn em
t l
f ar
t al
Ġor Ã°
Ġfyrir tÃ¦k
Ġm Ã¦
Ġ2 00
h ald
Ġh Ã¦gt
ĠÃ¡r iÃ°
ver k
ĠÃ ĵ
Ġm jÃ¶g
Ġl ÃŃk
Ġl jÃ³
Ġf Ã³r
Ġb ygg
Ġh el
Ġh Ãºs
ĠÅ ĳ
Ã¦tt i
i f
rÃ³ p
g ar
a p
u s
ileg a
Ġh o
ning u
er t
eir i
Ġm arg
e ins
Ġge ta
Ġ 8
en t
Ġau k
Ġend ur
Ġhe il
Ġd r
s f
y kk
Ãŀ aÃ°
ĠÃ¾ Ã©r
em ber
ĠÃ¡ tt
f is
ef n
v rÃ³p
Ġl ok
Ġ .
dÃ³tt ir
ĠÅ Ļ
sl a
Ġv Ã¦ri
Ġst of
ĠS am
Ġl ey
ĠH ann
Ã¡ r
Ġvar Ã°
Ġb er
ei ta
Ġein hver
Ġm ark
Ġf yl
Ġhald a
Ġf erÃ°
m s
ĠÃ¾ ur
Ġt eng
b oÃ°
1 9
n n
ĠÃ ĸ
Ġver Ã°i
yr ir
Ġ 9
v el
V iÃ°
Ã¶ m
Ġ1 0
Ã¶g u
Ġk emur
an ir
aÃ° a
lu t
ĠE f
Ġsv Ã¦Ã°inu
Ġen n
Ġhlu t
n ig
st arf
ĠÃ¾ess um
Ġsk u
Ġ "
an k
Ġsk rif
jÃ³r nar
Ġh eldur
Ġb ir
ĠÃ¡ n
Ġf und
Ġst Ã³r
m Ã¦
u t
ĠÃ¾Ã¡ tt
2 0
vÃŃ k
au p
ĠE vrÃ³p
Ġr eg
st jÃ³
Ġm inn
Ġmik il
g r
j al
Ġg Ã³
ĠupplÃ½s ingar
m ann
ĠsÃŃ Ã°an
) .
ĠÃ¡ Ã°ur
Ġau Ã°
p t
ĠG uÃ°
ĠstaÃ° num
k u
ĠaÃ° st
ĠÃŀ etta
o g
k un
ann sÃ³k
Ġhv ort
em m
o ta
ĠRey kja
Ġmik iÃ°
jÃ¶ ld
ĠÃįsl andi
ĠÃŃslen sk
ind i
er s
ei ka
Ġm eira
m anna
Ã¶n g
eg a
Ġsam Ã¾
kvÃ¦m t
i ta
Ġv ik
Ġb Ã³k
ĠÃ¶ll um
ĠÃ¶Ã° rum
Ġl iÃ°
l eik
Ġbreyt ingum
Ġs inni
Ġh r
s em
st ar
ĠmeÃ° al
Ġh ag
Ġg reiÃ°
o s
sk Ã³la
ĠsÃŃÃ°ar i
ri t
ĠS ig
ĠÃ¾ess a
ĠÃ¡ fram
Ġau g
Ġseg ja
ĠA l
Ġ ,
Ġho num
Ġf lug
Ã īg
c h
Ġt Ã¦k
Ġb org
Ġf Ã¦r
Ġv ÃŃs
Ġv ÃŃ
l end
ĠlÃŃ ka
Ġm at
Ġl ang
sk rÃ¡
ĠsÃŃ Ã°u
f iÃ°
ĠÃ¾ jÃ³Ã°
Ġs inn
l iÃ°
Ġaf tur
Ãº r
Ã¶r f
Ġl au
c om
Ã°a st
ĠÃ ¼
d eild
ta k
Ġb ÃŃ
Ġt Ã³k
Ġb e
Ġl eng
kk a
ĠrÃŃk is
h af
Ġg l
Ġ1 2
mÃ¡ la
Ġsv eit
l ar
Ġl Ã½
Ġsam a
Ġm ill
i sk
ĠA Ã°
s n
ĠÄ į
---- ----
ĠmÃ¡ nu
Ġhver nig
b yr
ĠaÃ° eins
2 00
ĠsÃŃ num
Ġv inn
Ġn ey
m aÃ°ur
en na
ver Ã°
Ġal la
Ġl eg
jÃ³ l
Ġh er
Ġund an
Ġef ni
Ã¶g um
ĠviÃ° skip
Ġsk yld
Ġe ld
Ġheim a
Ã¶ kk
Ġein stak
il i
Ġhaf Ã°i
Ġann aÃ°
ĠS v
Ġs Ã¡
Ġeig in
Ġm aÃ°ur
kk ert
Ã¶g n
ĠÃ¶ r
Ġs ett
ĠsÃŃ na
Ã¾ ing
b org
ĠÃ¾ann ig
ĠÃ¦ t
Ġ 0
Ġst und
h vaÃ°
Ġbreyt ingar
Ġv it
r ei
Ġkom iÃ°
al a
frÃ¦ Ã°i
f er
Ġinn an
b ur
Ġl Ã¦
un ey
Ġeig a
Ã¶n gu
in i
Ġn Ã³
kvÃ¦m d
kk ur
j an
frÃ¦ Ã°
s et
Ġf eng
ĠsamÃ¾ ykk
Ġsk rÃ¡
Ġt Ã¶l
Ġb yr
b Ã¦r
n g
e d
b rey
a x
ag a
Ġs et
t Ã¶k
Ġm ig
ĠÃ¾ess i
Ġg ang
v inn
Ã¶r Ã°
Ġ rek
ri g
ri st
nd ar
Ã³t el
at n
Ġm Ã¶r
ĠEvrÃ³p u
k yn
Ġf inna
Ġn ota
Ġsk emm
ild i
ĠN or
Ġs e
tÃŃ Ã°
ing ur
ĠÃ¾ ig
h eim
t il
ĠÃ¾ r
Ġst Ã¦r
Ġ1 1
her ra
Ġb Ã¦Ã°i
h ag
g ur
st Ã¶Ã°
ĠÃ¾ jÃ³nustu
Ġl it
Ã³ nu
g erÃ°
Ġk on
Ġen g
ĠÃ¡h ug
Ġeitt hvaÃ°
dag inn
and ar
Ġe kkert
org un
u lag
Ġg ist
sk Ã³l
o Ã°a
el s
r ÃŃk
Ġm a
v innu
Ġ1 5
ĠÃŀ ar
Ġb Ã¶r
Ġh ana
Ġ a
im m
Ã¡ m
t rÃº
o nar
b Ã¦
Ġt el
Ġf inn
ĠÃ¡kv eÃ°
hver fis
jÃ¶ f
Ġbreyt ingu
jÃ³ Ã°a
Ġ W
tt i
s Ã½
S t
Ġf Ã©
ĠÃ¡h rif
b ygg
f ang
e b
rÃ¦ Ã°i
ĠÃŀ Ã¡
Ġg Ã³Ã°
Ãº m
al la
Ġm Ã³
byr g
l of
Ġstarf sm
f t
eg i
h e
ĠU m
ĠnÃ¡ m
Ġg am
Ġger t
ĠÃ¾e kk
l Ã¡
Ġend a
sk yld
r eg
Ġ1 8
yr k
rÃ¦ Ã°
Ã°i st
f est
Ġfyr sta
Ġat hug
ef na
Ã¶nd um
Ġra un
ĠsÃŃÃ°u stu
Ġt rygg
Ġhen nar
Ġr annsÃ³k
Ġ and
Ġfyr st
Ġsam kvÃ¦mt
ĠÅ ¡
ja st
Ġm ÃŃn
am Ã¡l
leg um
ur nar
n unar
ĠA ll
ing s
Ġv innu
sk rif
Ġg eng
a tt
Ġtek iÃ°
Ġgeg n
Ġein k
Ġal menn
Ġ1 6
Ġg et
Ġ ung
ĠsÃ© u
j af
Ġt Ã³n
ĠÃ¡ st
Ġfr um
v iÃ°
Ġsl ÃŃk
Ġf Ã¦
Ġfram kvÃ¦md
v ik
Ġl es
k er
ess i
Ġu tan
Ġs Ãº
Ġp rÃ³
erk i
Ġn et
Ġh ins
Ġsp ur
Ġs m
ĠÃ¡ g
sk eiÃ°
kom andi
st jÃ³rn
ĠV est
ĠM eira
Ġeinstak l
Ġann ars
b rig
sem i
Ġd Ã¦m
ĠhÃ¦ kk
Ġ [
f Ã¦r
l Ã¶g
v al
Ġs jÃºk
Ãº t
r Ã½
Ġs end
na st
sÃŃ Ã°u
Ġg Ã¦r
Ġallt af
E f
ĠÅ ¾
ĠÃŃ bÃº
Ã¦ tl
Ġm ÃŃ
Ġv inna
ĠJ Ã³n
yr Ã°i
m ar
sl eg
Ġg agn
Ã¶ ll
Ġg ott
Ġhef Ã°i
Ã¶n num
Ġfar iÃ°
Ġv irk
Ġk ann
arf Ã©lag
f u
y f
Ġl a
Ġm is
Ġfl okk
sk i
v Ã¶r
Ġsk oÃ°
naÃ° ar
Ġum s
re ss
nn ur
j all
u p
Ġsag Ã°i
Ġmikil v
or f
Ġ1 4
Ġf imm
ĠsÃ©r stak
Ġh Ã¡tt
b Ãºn
ers Ã³nu
Ġh Ã³p
Ġum rÃ¦
Ġv egar
Ġhen ni
Ġ i
Ġ1 7
sk il
ÃŃ u
Ġt rÃº
ĠE inn
Ã¾ rÃ³
s dÃ³ttir
Ġann ar
la b
ĠÃ¡ byrg
Ġk rÃ³
ar t
Ã¦Ã° um
Ġfor s
c el
ĠÃ ļ
Ġnot kun
m ark
stjÃ³ ri
b l
Ġst Ã¶Ã°u
und ur
00 0
v it
Ġm Ã³t
v a
iÃ° i
Ãº ru
en ni
j andi
vÃŃ kur
Ġl of
Ġh Ã³tel
Ġh Ã¡l
Ġr af
ver t
Ã¾ jÃ³Ã°
ĠnÃ¡ tt
ind a
Ġ1 3
ileg t
ĠaÃ° al
ĠvÃ¶r um
o ok
ning a
Ġall ir
Ġfyr r
Ġ jar
Ġal veg
Ġn Ã¦r
âĢ ŀ
g er
Ġfl eiri
Ġs mÃ¡
am enn
Ġ iÃ°
li st
o st
b b
âĢ ¦
20 1
ar l
Ġl Ã©
Ã© f
sl um
b und
t ek
g um
19 9
Ġe inu
ta st
ĠÃ¡ ri
ĠbÃ¶r n
en nar
ĠÃŀ Ã³r
ĠM eÃ°
Ġr Ã¦Ã°a
ĠÃ¡r um
Ġm orgun
Ġl andi
l andi
Ġg jald
ĠH Ãºn
ar Ã°
ÃŃ f
Ġe y
Ġsum ar
end um
aÃ° ir
g eng
epp ni
M eÃ°
in ber
âĢ Ŀ
Ã¶k um
ar Ã¡Ã°
ĠÃ ī
Ġbar n
Ġs jÃ³
Ġt r
n b
ĠÃ¾ ÃŃ
av a
ar innar
ĠÃ¾ ing
Ġf el
n Ã¦Ã°i
Ġk enn
ĠO g
ĠÃ¾ yk
h Ã¦
ĠÃ¡hug a
sm ynd
o ll
Ġer um
Ġsvo na
Ġg est
Ġof t
Ġk Ã¦r
t un
Ġp ersÃ³nu
ĠSig ur
ĠReykja vÃŃk
jÃ¡l p
ĠT il
t Ã³
ĠH Ã©r
Ġf al
Ġg erÃ°
Ã¾ jÃ³nustu
ĠE in
Ġald rei
Ġsk Ã½r
Ġsk Ã³l
Ġf rek
ĠÃ¾ rÃ³
ĠEinn ig
ĠH Ã¡
Ġn or
Ġney slu
Ġb ein
Ġsam fÃ©lag
rÃ¡ tt
Ã¶ Ã°um
Ġnem a
y g
Ġs itt
Ġv eit
s g
Ġko st
Ġ unn
Ġeig i
ĠorÃ° iÃ°
yrir tÃ¦k
Ġhlu ti
n efnd
Ġl eit
sh Ãºs
ot els
j ur
Ġfram leiÃ°
ar ar
v i
ti st
st Ã¶Ã°u
ĠJ Ã³
ef nu
k i
v irk
. âĢľ
leg u
Ġv an
em d
Ġtek ur
Ġheim s
Ġt ak
Ġst uÃ°
Ġf jar
Ã¶k ur
Ġfyl g
sk ur
Ġer lend
Ã¶rÃ° un
Ġgeg num
Ġf ag
e kk
Ġsam band
lag a
3 0
l ur
b laÃ°
Ġsk Ã³la
Ġv in
Ġv ill
andar ÃŃk
d Ã³m
A Ã°
Ġhlu ta
o p
g Ã¡
v eld
Ġsam starf
vÃŃ s
u Ã°ur
eÃ° lab
ver Ã°s
Ġb ak
Ġv al
brig Ã°i
Ġheim il
Ġn au
ĠÃ¾ess ari
Ãº st
Ġe l
or n
Ġset ja
Ġm eiri
as emd
Ġ c
ĠE r
Ġall ar
Ġb or
l af
t rygg
ĠÃ¾ jÃ³
Ġein a
Ġst ig
Ġst endur
Ã¶f n
v ald
Ġd Ã³m
ĠsÃŃ n
Ġskemm t
Ġf Ã¶
e il
Ġfr Ã©tt
Ġm e
Ġef na
) ,
an ka
ef num
ĠsÃŃ Ã°a
und a
tÃŃ ma
Ġst jÃ³rnar
Ġv ald
ĠÃ¶ nnur
ĠtÃ¶l v
ĠmÃ³ ti
ĠÃ¾yk ir
ĠfÃ© kk
a kk
bÃº Ã°ir
ĠI cel
ĠsÃŃ Ã°
Ġsam ning
Ã©l Ã¶g
ing ast
Ġsku ld
st ri
Ġkv Ã¶ld
Ġg ild
Ġfor eld
Ġ3 0
ĠB andarÃŃk
un nu
Ġor lof
na s
Ġtil kyn
Ġvil ja
s b
ĠA r
leg ar
a c
af Ã©lag
Ġgef a
Ġl ist
Ġnokk ur
au st
l eika
a d
Ġ inni
Ġs ann
ĠÃ¾ Ã½
rÃ¦ n
ĠÃ¾ riÃ°
Ã¶n nun
Ġhver ju
tÃ³ ber
ĠviÃ° komandi
la st
r Ã©
Ġbar na
Ġs Ã¶lu
ĠviÃ°skip ta
Ã¦ Ã°ur
ĠmÃ¡l i
af l
ei dd
Ġ201 8
Ã¦ l
ĠK rist
eÃ° ur
f ur
ĠÃģ r
u Ã°u
Ġhug mynd
i c
ĠE kki
ar nir
und i
Ġhug s
ĠhvaÃ° a
Ġop inber
mÃ¦ li
g reiÃ°
Ġfl est
l ÃŃk
Ã¡ n
Ġb Ã½
enn an
ĠA ir
l lu
Ġm erk
Ġsam rÃ¦
Ġ2 5
Ġau ka
l Ã¦g
Ġvir ka
ĠE x
Ġb oÃ°
Ġein f
Ãºn ÃŃ
Ġg Ã¦
tt u
ĠÅ ¯
Ġb etur
Ġk aup
fl okk
v Ã¶ld
Ġneyslu verÃ°s
ĠbÃ¦ ta
Ġskyld i
Ġheima sÃŃÃ°u
Ġ jÃ³
o ss
Ġm et
i sta
Ġb Ã³
Ġleg gja
sÃ³k n
r un
Ġok tÃ³ber
Ġl ig
Ġ19 9
ĠnÃ½ ja
Ġfer Ã°a
Ġfinn st
ĠE y
Ġf ast
ĠH af
u pp
1 0
ĠÃ¡byrg Ã°
u k
Ãº ss
r ir
ĠS p
ĠfjÃ¶l skyld
Ġdag a
und ar
Ġf isk
Ġb et
Ġv af
Ãº l
Ġfyr stu
Ġaug lÃ½s
Ġsag t
ĠÃ¡r s
Ġbyr j
sm Ã¡l
ĠÃįsl and
sf Ã³lk
m un
Ġh Ã³
v ember
ĠaÃ° ra
n et
ĠÃ¶Ã° ru
sl ur
Ġv and
eg in
ĠfÃ©lag sins
d al
ning um
uney ti
Ġverk efni
ĠNor Ã°ur
Ã³ st
ĠÃŀ eir
ĠvÃ¶rum erki
Ġsum ir
Ġher ber
Ġk irk
Ġger ir
Ã¦tt u
ĠÃŀ egar
v in
Ġgr unn
Ġst u
b il
ild ar
ta ka
Ġorlof shÃºs
Ġb Ã¡
st jÃ³rnar
v Ã¦
ĠmeÃ° an
Ġf jÃ³r
ĠH el
Ġathug asemd
o Ã°i
la us
l jÃ³
Ãŀ etta
n aÃ°i
p ress
ĠÃ¾ ennan
ei tir
jÃ¶r n
al eg
h lu
ĠÅ ±
k r
Ġp en
Ã³ li
sam band
Ġl yf
Ġl eitt
Ġvik u
ĠmÃ¡nu Ã°i
ÃŃ bÃºÃ°ir
h lut
T il
Ġsl Ã¶kk
Ġ201 7
al t
stof nun
ĠlÃŃk am
, âĢľ
Ġgang a
S k
und ir
m u
ĠsÃ©rstak lega
ey p
Ã¸ r
aÃ° ila
ĠS ÃŃ
Ã¦Ã° iÃ°
ĠS eÃ°lab
re ina
Ġsp Ã¡
Ġf jÃ¶ld
Ġj ÃºnÃŃ
stjÃ³ ra
li f
la un
ĠnÃ½ r
ĠmÃ¦ l
l ands
Ġ Y
Ġst anda
ÃŃ l
ĠsÃŃÃ°a sta
ĠÃ¡h er
y ni
Ġhald iÃ°
ĠÃ¶ llu
ei f
ĠnÃ³ vember
Ġv atn
ĠG r
s ett
Ġh and
naÃ° a
ĠljÃ³ s
ing in
Ġs Ã¶gu
Ãŀ egar
Ġsveit arfÃ©lag
ĠnÃ¦ st
ska p
Ġsk oÃ°a
Ġkr Ã¶f
ĠlÃ¡ ta
skip ti
ĠâĢ ľ
Ã¦tl un
eyr i
ĠÃ¾ Ã³tt
U m
v ur
Ġb est
ĠnÃ¡tt Ãºru
ra ut
Ġ2 1
Ġn efnd
ĠBandarÃŃk j
Ġst y
st aÃ°
ĠÃ¾ Ãºs
Ġm inni
Ġmynd ir
Ġland sins
eÃ° a
lu kk
ĠnÃ¦ sta
Ġl eita
Ġst yrk
ĠÃ½ ms
ĠsÃŃ nu
o na
Ġum hverfis
ĠIcel and
Ġat h
ĠÃ³ sk
Ġs Ã¦
ĠI n
ĠaÃ° ila
Ã¦k ni
ĠÃ¡tt i
Ġf Ã³t
ĠfrÃ¡ bÃ¦r
N Ãº
t ug
stof u
Ã½ ra
af na
Ã¡ k
Ġv ita
Ġrey n
Ġ2 4
ĠÃŀ or
f or
sm enn
ĠÃ³ h
ĠReykja vÃŃkur
Ġv ax
. ,
Ġg Ã¦ti
Ġe Ã°
leg ur
Ġma ÃŃ
Ġfeng iÃ°
l ey
Ġh Ã¦tti
Ġ av
ĠbÃ¦ jar
Ġmikilv Ã¦g
ĠÃįsl end
Ġt aÃ°
uÃ° um
Ġjafn vel
ĠhÃ¶f uÃ°
Ġstof n
lut ning
Ġfyl gja
k Ã¶kur
s afn
ĠEx press
Ġs Ã³l
Ġ rit
Ġl ands
Ġn eÃ°
ĠH otels
al ega
ĠAir b
Ġf jal
ĠÃ¾ur fa
ĠÃŀ Ãº
Ġefna hag
b Ã³l
Ġnokk uÃ°
var t
Ã¶ p
f yl
Ġk af
d i
Ġm gr
ĠnÃ½ tt
Ġmark aÃ°
Ġ ap
Ã°s yn
ĠnÃ¦ stu
ĠN Ãº
brey tt
ank ans
Ġupp Ã¡
br Ã©f
y fir
t unar
ĠÃ¾eir ri
ĠhÃºs nÃ¦Ã°i
ĠÃŃslen sku
ĠtÃŃ m
au pa
leg ri
jar Ã°ar
ĠhÃ¶f um
e ti
Ã¶ x
ĠA kur
Ġv Ã¦
Ġsam t
ĠÃĵ laf
pt ember
Ġs enda
Ġstarf semi
Ã¡ la
ĠB jar
Ġfyr i
it ala
Ġhl jÃ³
ss onar
m Ã¶r
rÃŃ l
s st
Ġkv ik
Ġupp haf
rÃº ar
l and
h Ã¡
ĠÃ¾ess ar
S c
r aÃ°
Ã³l f
Ġer f
b Ã³k
Ġh vÃŃ
Ã ļ
Ġh or
ĠmÃ¡ naÃ°a
Ġko s
Ġk epp
y t
Ġall s
Ġb orÃ°
ĠÃº ti
Ġv on
al laÃ°
Ġn afn
ĠnÃ¡m skeiÃ°
Ã¶ t
o pp
Ã¶k u
Ġge ti
Ġh la
Ġr Ãºm
Ġhaf t
ĠfÃ³lk i
ti on
Ġall ra
ĠV er
Ġj an
Ġhl iÃ°
ĠfyrirtÃ¦k i
ĠAirb nb
Ġd es
Ġk lukk
Ãº ar
ĠÃ¾jÃ³ Ã°ar
Ġnau Ã°syn
Ġ /
Ġ |
Ġunn iÃ°
Ġmik lu
ei gu
j i
o ka
Ġof an
o gg
o d
ol t
ri pt
S B
ĠÃŀ vÃŃ
tÃŃ Ã°ar
Ġd eild
O kkur
Ġh jÃ¡lp
Ġver sl
1 1
Ġj Ãº
Ġv iss
Ġfr ÃŃ
t ing
Ġhlu tar
st Ã¦Ã°i
nd i
ver u
Ġv eiÃ°
Ġfrek ar
ĠtÃŃ Ã°
Ġse ptember
fer Ã°ar
y ll
ĠV ÃŃs
Ã¶g ul
Ġs Ã¶m
sk oÃ°
af ni
il la
dÃ³tt ur
ĠÃ¡g Ãºst
Ġjar Ã°
Ġk er
ĠmeÃ° ferÃ°
an t
n Ã½
l e
b Ã³t
ĠJ ava
Ġsk v
g jÃ¶r
e inn
ĠaÃ° gang
ĠsamÃ¾ykk ir
ĠA f
Sc ript
ĠnÃ½ ju
Ã ĵ
Ġr Ã¡
w w
ĠviÃ° ur
al ag
ĠF ram
1 5
ĠH ver
ĠJava Script
Ġk jÃ¶r
Ġsku lu
Ġv eita
Ġ ...
ĠsjÃ¡lf s
Ġheil brigÃ°i
k um
ang ur
ĠÃŀ essi
Ġmill jÃ³
ind um
fram t
n in
Ġs jÃ³n
an lega
f lug
ei ti
ĠL and
s on
S am
Ġhe yr
Ġv Ã©l
Ġlof t
ĠB r
Ã° in
Ġd e
ĠslÃ¶kk t
manna ey
ing i
nu Ã°
rÃ¡ r
Ġr eik
Ã¦k ja
au Ã°
e sta
ĠfyrirtÃ¦k ja
lÃŃ f
ĠstaÃ° fest
Ġfyr ri
ir nir
ir Ã°i
Ġs Ã¶g
Ġal Ã¾jÃ³Ã°
ĠfjÃ¡r m
Ġv eitt
Ì ģ
ei st
Ġ2 2
ĠA n
Ġk aupa
am m
Ġs el
v o
s rÃ¡Ã°
ĠlÃŃf eyr
Ġn Ã¡l
ver ndar
jÃ³nu st
ĠS n
ĠL ands
Ġap rÃŃl
ĠVest mannaey
f all
g t
Ġjan Ãºar
ĠtÃ¦k if
N V
Ġs o
Ġat vinn
ey m
est ur
Ġtrygg ja
f um
Ġ1 00
ĠÃŃ Ã¾rÃ³
Ġat vinnu
st r
ĠÃ½ m
am anna
sk ar
Ġp a
ĠnÃº na
Ġmark miÃ°
ĠF l
Ġm anna
i d
sÃŃ Ã°
1 8
Ġheim ild
Ġt Ã¶lu
Ġd Ã½r
Ġl Ã¶ndum
ĠbÃº iÃ°
Ġst Ã¶rf
Ġdes ember
c e
ex ti
ann ig
ĠÃ¶ rygg
Ġf lu
Ġf eb
Ġmarg ir
sv Ã¦Ã°i
li star
end i
ĠÃ¡r inu
ning i
sk um
Ġsk rÃ¡Ã°
Ġ5 0
Ġtil f
Ġfyr ra
Ġvaf ra
a b
Ġv ak
ĠbÃ½ Ã°ur
Ġkr af
ĠlÃŃ tiÃ°
Ġgist ik
Ġgistik rÃ¡r
ĠsamrÃ¦ mi
Ġh in
Ġfrum varp
Ġstarf sfÃ³lk
Ġfjar lÃ¦g
V NV
Ġlag i
ĠÃ¦ tti
Ġmun u
yg li
Ġskil a
sm iÃ°
Ġ19 8
ĠÃ¦t laÃ°
ĠÃºt gÃ¡
Ġnet inu
ĠÃ¡kv Ã¶rÃ°un
Ġ ri
au g
Ġathugasemd ir
ĠauÃ° veld
en ju
vit aÃ°
Ġskip ulag
Ġkvik mynd
k enn
is ins
Ġm ars
borg ar
Ġhver t
b ÃŃ
Ġall an
Ġnem endur
Ġannar ra
Ġkon ung
ĠprÃ³ f
rey f
h f
Ġkom u
Ġb jÃ³Ã°a
hald s
nd a
Ġvir Ã°ist
ĠB er
Ã© tta
h ann
k t
Ġ jÃ¡
i a
y s
jÃ¶r g
jÃ³ ta
ĠÃĸ ll
5 0
t Ã¶l
Ġer t
Ġ2 3
Ġp r
Ġf Ã¦Ã°
Ġhver s
sl ega
o w
Ġkann ski
f r
Ġgrein ingar
l ig
n an
Ġger Ã°i
h orf
ĠhÃ¶f Ã°u
Ġfeb rÃºar
v eit
ĠbÃº a
Ġlang t
ĠÃ¾ iÃ°
ĠsÃ½ na
E n
Ġtv eim
Ġsk or
v Ã©l
Ġy kkur
Ġp l
ĠGuÃ° m
ĠsÃ¶m u
Ġv ins
ĠlÃ¦ kk
ag na
ĠS uÃ°ur
Ġgr und
Ġmik la
eg gja
Ġla un
ĠdÃ¦m is
1 2
ĠÃŀ ess
ĠgÃ³ Ã°a
n aÃ°ur
Ġ yrÃ°i
all ar
il ar
Ġfr Ã¦Ã°
Ġfast eig
Ã³ ma
ĠÃ¾ jÃ¡lf
Ġhr ing
Ġnot ar
Ġgr ÃŃ
aÃ° u
ĠrÃ¡Ã° st
ĠAl Ã¾ing
ĠEvrÃ³pu samband
Ġf re
e c
t ingar
Ġf ann
ĠE SB
g jÃ¶f
Ġk jar
Ġhl jÃ³Ã°
sv eit
ĠsÃŃ Ã°ast
ĠH r
Ġr Ã¦
h r
ar b
Ġstarf a
-------- --------
jÃ¶ ll
uney tiÃ°
Ġm est
ĠbÃŃ l
Ġgam an
Ġlag t
ĠEf tir
rein ingar
Ġst ra
Ġhv or
kv Ã¦Ã°
Ġst r
Ã½ ri
Ã ĸ
m ur
Ġdr aga
ra un
lÃ½s ingar
Ġ7 0
Ġreg lu
Ã¦ p
Ġber a
Ġk ar
ÃŃ r
Ġmis mun
Ġbein t
ĠgreiÃ° slu
sÃ³k nar
Ġbe sta
ĠÃ¾ itt
ĠÄ ¾
f ell
ĠstaÃ° ar
ĠÃŀ annig
Ġh jar
V ÃŃs
ĠrÃŃkis ins
Ġsk ap
ver andi
Ġsv Ã¦Ã°i
Ġh aust
ĠmÃ¶r g
Ġg reina
Ġath ygli
Ġe hf
ĠmÃ¶r gum
Ġley ti
Ġkom in
Ġb laÃ°
Ġdag inn
s Ã¡
ĠÃŃslen ska
ĠaÃ°st oÃ°
Ã³ ta
Ġkv enna
ss a
ĠkrÃ³ na
tÃ¶k u
Ã¦ t
Ġe g
Ġhver jum
Ġtv Ã¶
Ġsv ar
lug erÃ°
Ġ2 8
Ġgef ur
. "
Ġum ferÃ°
Ġmynd i
Ġg ildi
ir nar
Ġb oÃ°i
Ġs y
Ãº Ã°
Ġ2 7
n e
Ġm egin
H Ã©r
Ġaf h
Ġk ennar
b ein
Ãŀ essi
d u
nd ur
Ã¦r u
Ġt eg
o v
. )
ĠumrÃ¦ Ã°u
ĠH eim
ĠF or
Ġkom ast
h Ã¦Ã°
Ġ2 6
Ġmenn ingar
Ġsv iÃ°i
ust ur
1 7
ĠtÃ¦kif Ã¦ri
Ġgist ist
Ġeng inn
Ġeftir lit
ĠÃ¦t la
ĠupplÃ½s ingum
m er
Ġstarf i
Ã³ ra
g jaf
ĠÃ¾ Ã¶rf
k eppni
jÃ³ s
hver fi
a kka
am aÃ°ur
h n
ĠBandarÃŃkj unum
ĠS jÃ¡lf
es i
Ġst Ã³Ã°
st Ã¦Ã°
e ta
ĠN Ã½
ĠstuÃ° ning
u lega
jÃ³nu sta
ĠfÃ³lk s
Ġrey na
ĠÃ¡kveÃ° iÃ°
re ind
ĠvarÃ° andi
Ġnokk rum
ĠgreiÃ° a
iss jÃ³Ã°
Ġhe ild
Ġeng in
Ġein um
af rÃ¦Ã°i
Ġfl jÃ³
Ġtveim ur
A t
ĠhÃ³ f
l ing
lif un
Ġer fiÃ°
Ġs jÃ³Ã°
stof a
Ġaf ar
Ġland inu
Ġles a
ĠjÃº lÃŃ
f Ã¶r
br Ã¶g
ef nun
Ġ201 6
ĠÃį s
ĠmÃ¡l efni
ÃŃ Ã°
Ġtal a
au s
Ġ <
Ġh lÃ½
Ãºn aÃ°ar
Ġeinf ald
Ġst Ã¶Ã°
ĠmÃ¡l iÃ°
Ġhver su
ĠÃ¡r sins
Ġhel stu
ark aÃ°i
greiÃ° slu
Ġstarfsm anna
ra u
d a
eld i
ĠframleiÃ° slu
ĠF Ã©lag
Ġleng i
Ġhlut verk
ĠaÃ° rir
af Ã³lk
Ġko nar
ĠSv o
Ġl i
st ig
Ġkon ur
ver nd
ĠhÃ¦kk aÃ°i
ĠÃ¾rÃ³ un
Ġsn Ãº
ĠG unnar
ĠH ag
ĠM ar
1 6
vel li
ĠneÃ° an
Ġs iÃ°
ĠC h
Ġreyn slu
ĠnÃ³ g
E S
Ġhv e
ook ing
Ġstof nun
ĠlÃ¡ n
Ġm Ã¶gul
VÃŃs itala
Ġskemmt ileg
il egar
Ġbet ri
o nd
ĠlÃ¶g reg
ef tir
Ġs inna
Ã¡ nar
ĠO r
skip ta
y kki
Ġk alla
s en
sv iÃ°
ĠfjÃ¶ld a
Ġkyn na
Ġ201 4
ĠlÃ© t
Ġfull trÃº
ĠnÃ¡ nar
Ġhe vur
am Ã³t
Ġraun veru
Ġal m
Ġs afn
Ġborg ar
st jÃ³r
ĠÃŀ jÃ³Ã°
r ef
Ġ re
kv Ã¦Ã°i
ĠH ar
Ġbr ot
on g
skrif t
Ġh inn
riÃ° i
ĠM enn
Ġlau gar
ĠfjÃ¡r mÃ¡l
la ug
sl it
Ġundan far
ĠaÃ° gerÃ°
Ġ4 0
ĠA t
ĠÃ¶r ug
.. ..
li ti
sk Ã½r
ĠP Ã¡l
st aÃ°a
Ġmann s
g rein
Ġh Ã¦g
Ġm inna
Ġs Ã³tt
Ġh jÃ³
la ust
Ġstund um
es a
Ġs it
ĠÃ¾ess ara
Ġerf itt
set ningu
Ġgef iÃ°
ĠB re
ĠsjÃ³n varp
a pp
ĠÃ¾ar na
jÃ³ smynd
t ingu
leg g
ĠÃ¡n Ã¦g
Ã¶ Ã°ur
efn iÃ°
ur Ã°u
re pp
Ġeinstakl inga
ann s
dd i
Ġheil su
ĠF yrir
Ġfor m
g Ã¶ngu
ĠE l
rÃ©tt ir
Ġnot aÃ°
ĠAll t
ĠEn g
eng i
ĠfÃ¶ stu
ĠvÃ¶r u
Ġs ex
ĠframkvÃ¦md ast
1 4
Ġsp yr
sam ning
ĠÅĻ ÃŃ
ĠÃ¾Ãºs und
ĠAkur eyri
ĠbÃ³ ka
Ã³ s
Ġkenn slu
Ã¶ tu
ĠaÃ° ferÃ°
ĠU pp
t s
ĠÃ½ms um
n iÃ°
b orÃ°
Ġteng d
ing una
ĠâĢ Ķ
ĠÃ³ s
Ġv eÃ°ur
k ar
ĠmÃŃn Ãº
ĠJÃ³ hann
reiningar deild
ĠD an
Ġfjal laÃ°
Ġt ung
N D
ĠÅ ½
Ã¦m i
ĠsjÃ¡ var
ber g
Ã³ g
Ġh und
Ġhag sm
f inu
ĠM ynd
Ġb Ãºn
er a
Ġt jÃ¡
Ġh Ã©
ĠauÃ° vitaÃ°
Ġsk att
r eik
ĠmiÃ° aÃ°
ĠHÃ¡ skÃ³la
Ã¶ng um
Ġstu tt
t or
Ġmismun andi
Ġdr eg
rÃŃk is
Ġr Ã¦k
j un
g ef
yrirtÃ¦k i
ĠÃ¶ ld
Ġ201 3
eig in
Ġeld ri
Ġmikilv Ã¦gt
ĠM Ã¡
Ġsv iÃ°
Ġfr jÃ¡l
k ost
sl ag
vik u
ĠbÃº in
ĠÃ¦ f
ĠÃ¾arf t
ag nar
ĠK aup
Ã³r u
Ġtv eggja
ĠH Ãºs
n ur
ĠÃ¡ v
ĠsjÃºk ra
Ġbl ogg
ingast efnun
Ġs br
Ġsp il
ĠlÃŃ fi
Ġundir bÃº
Ġsv ip
Ġge kk
efnd ar
h Ã³p
Ġst erk
Ġstarfsm enn
f jÃ¡r
Ġ201 5
tÃŃ m
n Ã¡m
Ġalmenn t
2 5
Ã° ung
ÃŃ na
Ġann an
b andi
ska tt
Ġhug a
b Ã½
k l
Ġfr em
ĠsÃ© Ã°
Ġh am
Ġb iÃ°
ra kk
Ġtil efni
4 0
Ġi kki
ĠÃ¡ra tug
s um
ĠÃ¡ fang
fir Ã°i
ĠleiÃ° ir
bÃºn aÃ°ar
ĠfjÃ¡r fest
Ġsk a
Ġs Ã¦kja
Ġ Â
ĠB org
o ld
âĢľ .
Ã¦ ra
Ġbrey tt
U pp
Ġg rÃ³
Ġmik ill
f ti
ĠtÃ¦k ni
ull trÃº
Ġfor maÃ°ur
ĠlÃ¡ g
ĠnÃ¡ gr
Ã Ĳ
Ġf jall
Ġh ar
Ġl Ã¦k
Ġtv Ã¦r
ri k
e p
Ġor ku
Ġjafn framt
ĠstaÃ° sett
Ã¶ld um
Ġ &
ĠmilljÃ³ nir
Ġn Ã³tt
A ll
Ã¡l yk
d eg
ĠlÃ½ s
ung is
l un
Ġs ak
v ist
Ġlig gur
Ġ2 9
o Ã°ar
Ġtek in
ker fi
Ġh iÃ°
1 3
ĠÃ¦ tt
au k
ĠrÃ¡Ã° herra
o u
em a
k aup
Ġgeng iÃ°
Ġ201 2
Ġ reiÃ°
Ã©l t
c k
< /
end ingar
ĠÃ¡her slu
ĠÃŃslensk ra
gg ja
Ġn Ã¡Ã°
ĠaÃ° geng
l inga
m an
r Ãºn
e w
ĠD ag
ĠÃ³ lÃŃk
M ynd
Ġst efnu
o kki
nd ir
Ġmun i
ĠÃ¡ l
b ol
v eiÃ°
kom u
Ġkr ef
I N
ei star
ag nir
Ġ jÃ³l
Ġm Ã¶gu
al iÃ°
Ġv enju
Ġsam h
ĠjÃ³ la
ĠÃ¾riÃ° ja
Ġb anka
Ġforeld ra
ni s
ĠfjÃ¶l miÃ°
Ġm iss
ĠÃ³ Ã¾
Ġvef sÃŃÃ°
af a
Ã½ s
ĠaÃ° rar
un i
yfir lÃ½s
Ġkr ingum
Ġskil yrÃ°i
ĠlÃ½ Ã°
Ġm ar
Ġl Ã¦r
Ġsp enn
un k
ĠupplÃ½s inga
sk Ã¶p
Ġkom inn
ĠV erk
Ġn afni
p u
sleg t
Ġ in
ning in
ark miÃ°
p i
Ã¶g num
Ġk m
Ã©tt ur
ÃŃ a
Ġb il
ĠeÃ° l
ĠstÃ¦r Ã°
Ġsveit ar
ĠH er
o y
ang i
Ġv eik
ĠsveitarfÃ©lag a
ĠB l
Ġhef st
Ġmynd a
Ġh inum
Ġ19 7
sm aÃ°ur
gang i
Ġn Ã©
Ġvef kÃ¶kur
ĠV ar
g an
la u
Ġl yk
Ġget um
ĠÃ¡kv Ã¦Ã°i
ĠstaÃ° iÃ°
Ã¡lyk tunar
Ġl eigu
Ġh eld
sl iÃ°
Ġeig n
Ġh rein
Ġtr ÃºnaÃ°ar
ĠB en
ĠboÃ° iÃ°
Ġv etur
Ġt he
Ġ201 1
o b
d ÃŃs
h Ã¶f
Ã¶m mu
eig andi
t ra
Ġs jÃ¶
Ġ, ,
Ġv Ã¦ru
ĠviÃ° horf
ĠA nd
Ġbrey ta
irk ju
st ÃŃ
m b
am ann
ĠF yr
Ġfund i
Ġh var
Ġ200 8
hug a
Ġs Ã¡l
jÃ¡ n
Ġeinhver n
ĠnÃ¡ ms
Ġs al
sl un
Ġv eÃ°
Ġstra x
Ã¾ Ã¡
Ġk allaÃ°
Ġkyn n
Ġfl eira
Ġtv o
Ġb ur
ĠRey k
b ar
ĠupplÃ½s ing
ĠfÃ³r u
r eng
Ġmarg t
Ġtal iÃ°
Ef tir
hlu ta
ĠH v
Ġbe stu
f lutning
Ã¦ Ã°u
tal i
ĠrÃ©tt indi
ĠSeÃ°lab ankans
ĠE g
sl an
l eitt
p ur
b ir
vÃŃ su
ĠljÃ³ st
und um
ĠM agn
ĠnÃ¡l g
Ġskip ti
stof nunar
ĠlÃŃk lega
el la
ag reiÃ°
Ġein ungis
Ġvar Ã°ar
Ġbygg ingar
ĠviÃ° bÃ³t
ynd i
Ġr Ã¶k
Ġums Ã¶gn
Ġskip ta
ĠÃ³ g
Ġupp bygg
st Ã¶Ã°ur
ĠljÃ³ smynd
Ġvel ja
ning ur
Ã¡l d
ĠdÃ¦m i
Ġheimil t
jar Ã°a
ĠgÃ³ Ã°u
Ġh Ã¶nd
t in
Ġleng ur
Ġh Ã©lt
ĠvÃ¦ nt
ĠsÃŃ ma
Ġv ildi
ĠsÃŃ Ã°ur
Ġsty Ã°
ss am
Ġsku li
ĠB ar
Ġsam eigin
Ġh Ã¦Ã°
Ġ w
N Ã½
ĠH vaÃ°
ang aÃ°
Ġh f
Ã¡tt u
Ġh ita
Ġm itt
el li
ĠB ir
Ġfimm tu
A l
E r
Ġh eiÃ°
Ġs unnu
ett v
er i
sk Ã³li
ĠM arg
al li
Ġb ank
ĠÃ¦ tl
Ġb jar
Ġal var
Ġl os
Ġtel ur
Ġstarf s
g ir
Ã¡ Ã¦tlun
ĠlÃ¶g Ã°
stÃ¶Ã° var
s jÃ³
jÃ¶ k
ĠÃŃÃ¾rÃ³ tt
ĠUm hverfis
j unni
e v
ĠmÃŃ num
sv Ã¦Ã°inu
ĠstjÃ³rn mÃ¡l
Ġrey ndar
er Ã°ar
rÃ³ f
Ġsk jÃ¡
st Ã¶Ã°um
Ġl if
yr kja
j unnar
Ġsk ref
sm anna
Ġk jÃ¶l
Ġupphaf i
Ġsp ila
Ġh re
d egi
ĠÃ¾riÃ° ju
ĠVestmannaey jum
Ġr Ã¶Ã°
ĠÃ¾ rÃŃ
ĠÃ³ trÃº
Ġh itt
hÃ¦ f
rÃ¡ s
Ġv et
ĠferÃ°a Ã¾jÃ³nustu
b or
far andi
Ġvinn um
ra um
ĠS el
ĠfÃ©lag s
d Ã½r
Ġveg um
Ġfann st
Ġ :
u stu
sk onar
na tt
ĠM iÃ°
aÃ°ur inn
h el
Ġeig um
eb ook
ĠfÃ¦Ã° ingar
ĠÃ Ĩ
Ġfr iÃ°
rÃŃ Ã°
Ġlok iÃ°
Ġgagn rÃ½
Ġtil tek
Ġreg lugerÃ°
Ġlau s
stof n
ik il
ĠSt jÃ³rn
Ġklukk an
ĠÃ¾ÃŃ na
al ld
erk iÃ°
n es
ĠsÃ½ nir
ĠhÃ¦kk un
afl okk
Ġhel g
yn g
ung ur
ĠÃ¡ k
ĠHaf nar
ings Ã¡lyktunar
ĠtÃŃma bil
ĠnÃ½ ta
ĠleiÃ° in
Ġ6 0
ĠaÃ°st Ã¦Ã°ur
Ġh n
A R
Ġb aka
g jald
il t
ĠVÃŃs ir
Ġt ex
an leg
Ġreg lur
Ġl oka
ĠÃįsl en
ĠÃ¾ rÃ¡tt
Ġv exti
Ġh Ã¦tt
ĠSt ef
Ġm Ã¦tti
aÃ° num
Ġskrif a
Ġgest um
Ġgeng ur
am ma
Ġaf sl
v Ã¶ll
vinn slu
ĠvÃŃ Ã°a
Ġv Ã¡
ĠtÃ³k u
ey jar
Ġbyr ja
ĠG ar
sk t
Ġb aÃ°
Ġ illa
liÃ° a
ĠheilbrigÃ°i s
ĠL eik
h Ã¶fn
ĠJ Ã¡
v ir
br ot
G reiningardeild
ĠtÃ¶lv up
sp ur
Ġhef Ã°
ra uÃ°
ĠtÃ³n list
Ġdag skrÃ¡
Ġh ava
ĠV al
un na
ac ebook
aÃ° ist
h v
ĠfÃ©lag a
ĠsÃŃ nar
Ġfram tÃŃÃ°
st ir
Ġgang i
ĠmÃ¦ ta
ĠsÃŃÃ° una
ss yni
Ġg af
Ġaf mÃ¦li
Ã©tt ar
or lof
Ġleit ar
Ġley fi
Ġh eitir
vÃ¶r u
Ġt Ã¦p
v il
skoÃ° un
ĠviÃ°skipta v
ĠJ es
Ġdag s
Ġvil t
j ir
bÃ½ li
t inn
Ġbr Ã©f
Ġma ti
Ġl ista
ĠÄ º
bÃ¦ jar
kk u
ĠD a
Ġfar Ã¾
gang ur
Ġh reyf
Ã¾ jÃ¡lf
ĠspÃ¡ um
h l
Ġsv Ã¶r
Ġnor Ã°ur
ro y
m at
Ġl Ã¦g
ĠhÃ¡l f
Ġtel ja
ĠÃ¡ skil
ĠÃ¾ angaÃ°
Ġn jÃ³ta
tal s
kk ar
ĠkjÃ¶l far
ĠmiÃ° viku
dd ur
Ġn Ã¦g
Ġvins Ã¦
or ku
en nd
ĠD r
kom ulag
ĠâĢ ¦
ĠÃįslend inga
Ġf ir
! !
2 2
rÃ¦ na
Ġd ug
f jÃ¶ll
Ġs Ã¶ng
aÃ° s
y Ã°
Ã¦ s
st rar
Ġgl eÃ°
Ġupp i
Ġfl yt
t r
Ġb Ã¦tt
l est
vald a
Ã¦k ur
ĠSt arf
Ġg Ã¶m
Ġg Ã¶gn
F or
ĠÃŀ au
l an
Ã°i s
ĠverÃ° bÃ³l
en Ã¦r
s dÃ³ttur
Ġleik ur
6 0
ĠB jÃ¶rn
stÃ¦Ã°i s
eÃ° iÃ°
ĠÃ¡ f
ĠhljÃ³ m
Ġbygg ja
Ġ201 0
at ni
ĠÃ¡r angur
ĠframkvÃ¦mdast jÃ³
Ġp Ã³st
at rygg
Ġtilf inn
f Ã¦ri
ĠtÃ³n listar
Ġe v
ing unni
Ġj afna
am iÃ°
e sk
ĠÃ¡kv aÃ°
Ġkar la
ĠÃºr skur
Ġsk amm
Ġsam vinnu
Ġtv eir
end ir
ĠÃŃslensk um
Ġsamstarf i
Ġsig ur
ĠrannsÃ³k n
kv Ã¶rÃ°un
ĠgÃ³ Ã°um
st efnu
Ġo lÃŃ
ĠsÃ©r frÃ¦Ã°
ÃŃ tal
in e
sp or
ar lega
ĠF rek
Ã³ na
Ġfull kom
Ã°ur inn
ĠT h
Ġteng slum
ĠF r
ĠI ng
s al
Ġtek ju
Ã³Ã° ir
ĠsÃŃÃ°ast liÃ°
Ã¦ ma
Ġt o
ĠsjÃ¡lf ur
ĠhÃ¦ f
ÃŃ Ã°a
F yrir
Ġvand amÃ¡l
Ġbl Ã³Ã°
um Ã¡l
Ġupp fÃ¦r
ik iÃ°
ĠÃ¡ tta
ĉ Ċ
ĠSk ip
J Ã¡
Ã¾ jÃ³Ã°a
sl i
Ġum hverfi
Ġvar nar
Ġh Ã¦ttu
ĠH ug
Ġfylgja st
v egar
Ġst af
s Ã¶gn
var a
a sta
a y
ĠfÃ©lag iÃ°
Ã¶n nu
Ã¡ st
ĠrannsÃ³k nir
Ġnokk rar
Ã¸ roy
ĠlÃ¦ ra
Ġt Ã¡
Ġh im
Ġg Ã¶ngu
l ind
ĠA ustur
ĠsamÃ¾ykk t
lu Ã°
Ġy ng
Ġt ey
ar d
ĠhÃ¦ tta
Ġflu tt
ĠH oll
2 4
af irÃ°i
ing ak
ĠÃ¾ÃŃ num
sta ka
ĠÃ¾ ri
Ġk ort
Ġs enn
ĠÃļ t
ĠvÃ¶r ur
Ġh eit
ĠL Ã¶g
eyr is
ĠÃ¾ or
Ġvor um
Ã¦ kk
Ã°u st
brÃ¶g Ã°
dag a
Ġ200 9
ĠslÃŃk t
ĠpersÃ³nu upp
k o
Ã¡tt Ãºru
ĠrannsÃ³k nar
j aÃ°
ĠL esa
f Ã³lk
Ġvil jum
Ġherber g
Ã¦ f
Ãº d
Ġkom i
Ġskil ja
hÃºs inu
ra ust
Ġgagn vart
st ein
Ġland iÃ°
bÃº Ã°
ĠÃŀ Ã³
ww w
Ġvinn slu
sk er
Ġleg gur
Ġbir t
ĠE ins
jÃ¶g ur
Ġd egi
Ġhel st
ĠskoÃ° aÃ°
ĠmÃ¦ li
Ġhen tar
ĠgÃ³ Ã°ur
o gi
ĠtÃŃma bund
ĠS jÃ¡
ĠbÃº inn
ĠH eil
Ġe ing
Ġh Ã¦r
Ġh jÃ¡l
Ãŀ Ã¡
Ġmarg ar
ĠfjÃ¡r hag
ĠFrek ari
Ãºm er
Ġk arl
Ġv est
ĠM o
un in
ĠÃ¾r emur
ÃŃ nu
S Ãį
Ġr Ãº
Ãºt veg
ĠT he
ĠÃ¾ ÃŃn
Ġeig enda
ĠÃ¡r in
on ur
ri p
Ġd re
ĠtÃŃ mi
ĠÃ ľ
At hug
Ã¡ ra
Ġme stu
f re
Ġhald inn
ĠsÃ©r st
Ã¶x tum
Ġd Ã¶gum
Ġe k
Ġf ang
ĠaÃ° ildar
ĠV il
l Ã¦ti
ĠÃ¾ jÃ³nust
l ingar
ĠF jÃ¶l
ur Ã°
Å Ļ
Ġg arÃ°
ĠN Ã¡nar
Ã° ingu
v atn
ĠGuÃ°m und
Ġg Ã¡
Ġtil bÃº
Ġfrek ari
Ġhjar ta
ĠS um
ag t
ĠS vÃŃ
sp yr
leg an
Ġst efn
Ġhef Ã°u
ber gi
ĠM at
il um
la t
a h
Ġfram tÃŃÃ°ar
Ġbet ra
Ġl jÃº
eng d
Ã¶g Ã°u
ĠAll ar
ĠÃ½ mi
b raut
Ġhug sa
Ã©l Ã¶gum
tÃ¦k i
ĠÃ³ v
Ġger Ã°ar
ÃŃ ka
Ġsam keppni
am b
ĠÃºtgÃ¡ fu
Ġheims vÃŃsu
Ġn eitt
ĠvefsÃŃÃ° unni
Ġnem enda
or k
en ti
Ġv ek
Ã¶n n
ĠEvrÃ³pusamband sins
Ġb re
ĠlÃŃ til
of t
e inu
Ġf Ã¶r
Ġef la
ĠL au
verk efni
Ġgild ir
H vaÃ°
ĠnÃ¡lg ast
ey fi
Ġeink um
lÃŃ n
Ġfram an
Ġsam bandi
Å ¾
Ġlig gja
ĠnÃ½ jum
2 6
Ġk ra
Ġmann i
Ġb rÃº
Ġein ka
ĠI nn
p ar
ĠE ES
hald i
s Ã¦
i ti
Ġborg inni
ĠrÃ¡ Ã°a
Ġk eppni
âĢ ĵ
Ġskip tir
ĠmÃŃnÃº tur
ĠfjÃ¶l breytt
ĠfrÃ©tt ir
Ġkr oss
Ġla una
Ġf alla
skip tum
m itt
Ġn efna
lu gg
Ġg rÃ¡
ĠstyÃ° ja
E ins
9 0
el ti
Ġdr eif
Ã³ ka
2 3
Ġeing Ã¶ngu
leg ra
Ġum boÃ°
Ã° ing
ol f
ĠmÃŃ nu
ĠÃ¾Ã¡tt tak
m um
ĠÃŀ Ã½
ĠhÃ©r na
ey ma
Ġbe kk
Ġv ettv
Ġdag ana
ĠlÃŃ nu
a ta
ef ur
Ġ3 5
Ġ X
Ġv ann
li s
Ġh orf
ĠfjÃ¶lskyld u
ang ri
ald ur
ek t
rÃ¦ Ã°ur
arÃ¡Ã° herra
ĠAlÃ¾ing i
Ġgrein ar
Ġsinn um
Ã³p av
Ġsend i
H ver
Ġums agnir
ss v
st um
Ġherber gi
Ġsv Ã¦Ã°iÃ°
ĠnÃ¡ nast
rÃŃ m
ĠF jÃ¡r
Ġgam la
Ġvax ta
Ġjar Ã°ar
t er
aleg t
ĠrÃŃk i
Ġf jÃ¶gur
Ġfund ar
Ġf ari
bygg Ã°
Ġlau sn
Ġrek stur
Ġb rÃ¡
ĠM Ã©r
ĠR Ã¡Ã°
Ã½ st
Ġhv enÃ¦r
Ġs ent
ĠleiÃ° bein
ĠbÃ¶r num
ĠO p
ĠfÃ¦ ra
Ġs Ã¡tt
ĠnÃ¡ kvÃ¦m
ld u
Ġgistist aÃ°num
ĠviÃ° bur
Ġp re
Ġ19 6
ing aÃ°
ĠÃ¾r jÃº
ĠEin ar
Ġfylg ir
mÃ¡l um
au Ã°a
ĠJ afn
Ġb Ã¡Ã°
ĠÃ¾ ung
ĠÄ Į
hÃºs i
sk al
ĠorÃ° in
ĠleiÃ° andi
Ã¶g g
Ġh est
Ġh anda
Ġ urÃ°u
stÃ¦Ã°is flokk
ĠG u
ĠfrÃ¦Ã° slu
ĠtrÃºnaÃ°ar yfirlÃ½s
Ġeig nar
ingastefnun efnd
4 5
ĠNorÃ°ur l
ĠÃ³ breytt
ĠÃ¾ akk
ĠfjÃ¡r mÃ¡la
Ġtil boÃ°
f el
Ġbyrj un
Ġspenn andi
Ġk rist
ĠH alld
Ġ Z
Ġh endi
E in
ĠlÃŃ ta
Ġh Ã¶nnun
eig nar
Ġsk yn
a ss
rÃ© tta
ĠaÃ° ild
Ġh jÃºk
Ġh endur
ĠvÃŃs ind
ĠÃŀ Ã¦r
Ġr Ã³
ĠAÃ° al
ĠSÃŃ Ã°an
eÃ° ferÃ°
ĠR ÃŃk
ĠÃ¦ ttu
Ġtil l
kvÃ¦Ã° agreiÃ°
g jandi
la s
T A
ĠAll ir
Ġv eitir
ĠtÃŃ mar
Ġf ell
Ġst Ã½ri
Ġ200 7
ĠÃºr val
Ġs jÃ¡l
Ġbir ti
Ã¡m skeiÃ°
m in
e ina
Ġmill jÃ³n
av Ã©l
hÃ¡ tÃŃÃ°
m Ã¶nnum
Ġhv et
ger Ã°ar
ĠstÃ¦r sta
ung u
Ġhaf iÃ°
ĠÃŀ ing
la una
Ġhald in
hÃºs iÃ°
Ġt vÃŃ
ĠVest ur
Ġg at
ĠV eg
Ġe mb
Ġvik ur
eiÃ° andi
Ġfeng u
sp ek
t inu
e stu
Ġg eym
ĠverÃ° lag
ĠSigur Ã°
A f
Ġald ur
mynd ir
r una
Ġhor fa
ĠK Ã³pav
2 7
ĠmÃ¶gul eika
Ġf ul
en num
jÃ³r Ã°ung
ĠhefÃ° bund
Ġraunveru legum
j Ã¸r
Ġf all
ĠÃ¾ur fi
Ġg rÃ¦n
2 1
Ġlau k
Ã³k nar
ĠstaÃ° inn
ĠÃ¶rygg i
Ã¶ tt
skip ulag
Ġsk o
ĠsÃŃ st
rÃ¡Ã° herra
ĠÃ¾ inn
ĠgrÃŃ Ã°ar
r af
Ġm iÃ°ur
ĠÃ³ k
ag Ã°
l s
c o
Ġum sÃ³kn
ĠF acebook
ĠÃ¾Ã½ Ã°ir
mÃ¦ l
mann s
ĠmÃ¡ la
St arf
Ġm en
ĠkrÃ¶f ur
ĠmÃ¡l um
Ġein mitt
Ġmat ar
Ġhe ildar
Ġm unum
ĠnauÃ°syn legt
b Ã¶nd
Ġme ta
Ġl Ã©tt
Ġs und
ĠhÃ¶fuÃ° borgar
raÃ° ra
Ġspur ning
am erkiÃ°
j anna
il s
ĠljÃ³ si
set ning
s jÃ¡
Ġr Ã¦tt
âĢ¦ ]
Ġ9 0
Ġal mann
ĠÃ¶rygg is
Ġr Ã½
ĠH ans
Ġal gjÃ¶r
ni st
nt er
ĠviÃ°ur kenn
ĠG ÃŃ
Ġg eÃ°
Ġerlend is
Ġhver ja
Ġheim ili
ĠmÃ¦ ld
hr ing
Ã³ Ã°a
rÃŃk i
ĠÃ¾ at
Ġver nd
Å ¡
Ġyfir leitt
Ġlang ar
Ġko sti
ĠL ÃŃf
ka st
rÃ¦ Ã°um
Ġt on
ag i
sk or
ĠverÃ° laun
ĠtÃŃ u
ĠhjÃ¡l pa
Ġst rÃ¡
fyl k
Ġflyt ja
ag erÃ°
ĠhÃ¡ r
bol ta
ĠsjÃ¡lfs Ã¶gÃ°u
ĠfÃ³t spor
Ġg uÃ°
Ã³ Ã°ur
ĠmÃŃ na
Ġeftir farandi
Ġney t
lÃŃ tiÃ°
Ġhel gi
m inn
ef la
hÃºs nÃ¦Ã°i
B ooking
ĠV erÃ°
ĠaÃ°st oÃ°ar
Ġ ak
Ġstund a
Ġb enda
Ġh ra
ĠÃ¾ yr
3 7
s aÃ°
v allar
200 3
ĠÃ³ vart
Ġreglu lega
Ġs uÃ°ur
Ġsv ara
d ar
Ġald raÃ°ra
vel t
eftir lit
ileg um
ĠM Ã¡l
Ġ3 1
m et
Ã¦ti srÃ¡Ã°
ĠÃ¡skil ur
Ġd Ã³tt
ĠÃ¶rug g
ĠrÃŃkis stjÃ³rn
ĠsjÃ³ nar
i b
n ot
ĠÃ¶ flug
ĠÅ¡ ÃŃ
ĠS l
Ġb Ã½r
ĠH Ã¦gt
ĠJ o
vÃŃs indi
ĠleiÃ° a
Ġsvo k
ĠaÃ°al f
% .
ĠÃ Ŀ
Ġst el
ĠA m
er Ã°a
eld u
Ġvel kom
v Ã¦g
on e
Ġskil yr
ĠbÃ¶rn in
Ġst ÃŃ
Ġska pa
Ã¾ Ã¡tt
Ġhe pp
ĠÃ¾ekk ingu
ĠfjÃ¡rm agn
Ġsk ot
2 8
sk ot
ĠÃ¾ri ggja
dd a
st Ã³l
ĠÃ¡fang ast
ĠSam kvÃ¦mt
ĠH Ã¶f
200 7
Ġnot uÃ°
Ġsk Ã¡k
Ġheim inum
Ġald ri
ĠF rÃ©ttir
ĠlÃ¡ tiÃ°
Ġflest ir
nu Ã°i
ĠS Ãº
ĠskoÃ° un
Ġn ei
Ġum fjÃ¶ll
ĠS m
m Ã³t
Ġvit um
ĠstjÃ³rn vÃ¶ld
jÃº p
m erk
ĠfyrirtÃ¦k iÃ°
Ġ[ âĢ¦]
H ann
stof unnar
rÃ©tt inda
val iÃ°
Ġt ap
d r
Ġfr Ã©tta
b ili
am Ã¡la
em ma
ĠkÃ¦r anda
Ġupp lifun
ĠferÃ° alag
Ã¶n nunar
sk ra
ĠÃ ¸
la k
L A
Ġfr emur
eiÃ° i
jÃ¶r nu
Ġskip a
ĠÃŃ s
ĠsamÃ¾ ykki
ĠÃįslend ingar
Ġmik lum
ĠH all
Ġfrem st
g ild
st einn
Ġeinfald lega
as on
Ġb eiÃ°
ĠgÃ¦ tu
ĠsÃ½ nt
n ef
gang na
ĠskÃ³l ans
samt Ã¶k
Ġg rÃ¦
Ã© tur
ĠG l
Ġbir tist
Ã¾ jÃ³nust
m agn
Ġkirk ju
ĠH lu
kv Ã¶ld
Ġk jÃ¶
Ġfors eta
ĠgÃ³ Ã°ar
ĠL P
ei ft
5 7
h eyr
is ini
an efnd
3 3
af Ã©lÃ¶g
ĠsÃ³l ar
Ġen gu
arg erÃ°
Ġmynd um
i es
Ġendur nÃ½
Ã° ingar
" .
S ÃŃ
sÃ½ slu
Ġf at
Ġgrund velli
ĠF rÃ¡
F yr
ĠniÃ°ur stÃ¶Ã°ur
on s
Ġh ingaÃ°
ĠA uk
lÃŃ Ã°
Ġof b
spyr nu
n ni
Ġvar a
ĠS mÃ¡
ĠlÃŃf s
ĠvÃŃ st
jÃ³ st
. -
o ga
Um hverfis
ĠfyrirtÃ¦k isins
Ġt rey
ed ik
ĠhÃ¡ tÃŃÃ°
Ġh jÃ³l
ond on
ĠnÃ¡tt Ãºr
sk ir
Ġjafn t
au ka
A n
Ġk eyp
ĠlÃ¶greg lu
ĠH ins
Ġhv etur
Ġfir m
Ġbarn iÃ°
Ġreg lum
al Ã¶g
frÃ¦Ã° ingur
fram leiÃ°
bb am
ĠskÃ½r slu
ĠnÃº verandi
ĠL jÃ³smynd
Ġsl Ã¡
Ġsp ar
q u
Ġv ist
Ġinn legg
Ġl eig
ĠSjÃ¡lf stÃ¦Ã°isflokk
af or
ĠStef Ã¡n
Ġeinhver ju
ĠÃ¡ Ã¦tlun
ĠKrist jÃ¡n
til laga
v Ã¶l
Ġhla up
o x
H otels
veg a
Ġger ast
Ġm Ã¶nnum
ĠauglÃ½s ingak
Ġ rif
ĠnÃ½ skÃ¶p
st und
Ġundan fÃ¶r
ĠviÃ°ur k
leg s
s var
lÃ½ st
u b
Ġse inni
menn t
ĠsÃ½ n
ĠnÃ¡gr enni
d e
verÃ° laun
ĠÃ¾ jÃ³nusta
ĠÃ¡r sf
if reiÃ°
Ġfirm amerkiÃ°
v e
ĠtrÃº ar
ro ss
Ġhvor ki
ĠauglÃ½singak Ã¶kum
n inni
d Ã¶gum
b ands
Ġsk Ã³
Ġles endur
ĠÃ¦tl ar
/ /
Ġst yrkja
ĠÃ¡ lag
ferÃ° ir
ĠÅ º
Ġsett i
mÃ¶r k
Ġf Ã¦ri
f esta
g Ã¶ng
ank inn
laÃ° i
t ill
ĠÃ¾ Ã¦tti
Ġm jÃ³l
Ġr ef
Ġat riÃ°i
vik um
Ġs Ã¶f
Ġst ill
ĠtÃ¶lv u
Ġtal s
ĠstÃ¶rf um
Ġland bÃºnaÃ°ar
Ġvinn ur
jar nan
ĠJÃ³n sson
ĠfljÃ³ t
Ġger ist
ur um
ĠkrÃ¶f u
au pp
ĠDa vÃŃ
ĠL ondon
Ġop na
skÃ³l ans
ot n
la pp
Ã¸ g
Ġfr Ã¦
ey pt
ĠÃ¾ur fti
skÃ³l anum
Ġm egi
p s
2 9
Ġb Ãºs
Ãº bb
til boÃ°
Ġskuld a
bÃºn aÃ°
Ġvan tar
ĠR Ãºss
Ġauk i
j unum
Ġm an
Ġd Ã½
Ġst efnum
ĠliÃ° iÃ°
u tt
rÃ¦ kt
en s
Ġsel ja
o c
ĠsÃ½ nd
Ġheyr a
ĠG Ã³Ã°
ĠsjÃ¡lf st
r unar
and inn
3 9
Ġbr eg
aÃ° an
eist ara
deild ar
ĠM a
ar inn
Ġs yn
Ġ8 0
Ã¦tt ir
Ġtil lÃ¶g
ĠÃ¡kv ar
Ġnot end
ĠnÃ½r ri
ul eik
Ġhelg ina
Ġskyld ur
ĠIn gi
ĠS Ã³l
S A
Ġflest um
Ġbor Ã°a
Ġrek strar
ĠfÃ¡ i
ĠBer g
O g
ĠkrÃ³ nur
ĠÃ¾aÃ° an
ĠrÃŃkis stjÃ³rnar
ĠB ygg
it y
Ġkaf fi
Ġhugmynd ir
Ġkaf la
am lega
brey t
y st
ĠÃŀÃ½ skal
199 7
ver slun
skrÃ¡ r
: //
Ġsl epp
Ġd vel
Ä į
Ġh Ã¶ndum
ĠÃĸ r
Ġbr ott
p h
dd u
or d
3 6
ra s
Ġham ing
Ġlok um
Ġn ef
ĠF riÃ°
200 8
Ġ3 8
ĠÃ¾ Ã¦g
Ġgest ir
ĠAlÃ¾ing is
ĠÃ¡r angri
er ni
Ġh i
sh af
jÃ³Ã° um
stof an
Ġminn sta
Ġafsl Ã¦tti
Ġt Ã¶f
Ġjafn an
Ġlit la
ĠÃ¾ Ã©tt
l ir
i z
Ġk Ã¶rf
Ġkyn ningar
ĠÃ¡tt u
Ġbyrj aÃ°i
ĠÃ³trÃº lega
Ġal geng
Ġnot um
Ãŀ ar
ĠstÃ¦r ri
ĠHalld Ã³r
Ġf lutning
Ġatvinn ur
ĠF inn
Ġh ÃºÃ°
ey si
Ġn ein
ĠvÃŃ Ã°
ĠÃŃÃ¾rÃ³ tta
Ġk em
Ġf ug
ĠÃ¡h ygg
Ġver ulega
af erÃ°
huga vert
Ġs etur
bÃ¦ tur
P en
ĠS Ã©r
her bergi
Ã¡ kvÃ¶rÃ°un
blaÃ° iÃ°
Ġst Ã³ra
Ã¾ ro
Ġfull orÃ°
Ġlit iÃ°
Ġbreyt ing
ĠmÃ³ Ã°ur
Ġfel ur
hald a
ĠmÃ¡l inu
Ġm ag
ĠM orgun
Ġhver n
ĠBen edik
Ġfor mi
Ġg jÃ¶r
h ol
Ġupp f
Ġt eir
Ġeinhver jum
ĠÃ¦ rum
Ġp ott
Ġkom st
Ġdag sins
Ġnot iÃ°
atrygg ingar
st er
Ġsv Ã¡
ĠsÃ½ ningar
Ġnokk ra
sku ld
ĠK r
Ġt ald
Ġ/ >
n Ã¡
ĠauÃ° velt
ĠÃ¾ ro
ĠtÃ¦k i
ĠaÃ°gerÃ° ir
ĠfjarlÃ¦g ja
Ġlag Ã°i
Ġj Ã¶rÃ°
eyp is
Ġgr eidd
Ġfl ott
sl unni
Ġel la
s Ã¶gu
Ã¶g ur
ĠKaup manna
ĠÃ¾jÃ³Ã°ar innar
7 0
ĠmÃ¡l efn
bur Ã°ar
3 5
Ġt eik
ĠlÃŃk t
Ġfer Ã°ast
ĠtÃ³n leik
ĠÃ³s Ã¦m
s jÃºk
Ġheim sÃ³kn
j iÃ°
ĠÃ¾ur ft
ĠÃ¦rum eiÃ°andi
Ġer tu
ĠÃ³h Ã¡Ã°
ĠÃ¡her sla
ey s
Ġfull t
Ġkyn nt
ĠÃŃbÃº Ã°
ĠnÃ¡ Ã°i
t h
ĠT rygg
ĠAkur eyr
al eik
an ta
am Ã¶nnum
ĠÃ¾Ã¡tt tÃ¶ku
Ġ3 6
Ġver u
Pen ingastefnunefnd
G uÃ°
E kki
Ġsveitar stjÃ³rnar
ĠsamÃ¾ykk ja
Ġr ang
ĠAr nar
Ġsit ja
sÃ½ n
arf Ã©lÃ¶g
ĠstaÃ° rey
ĠÃ¡huga ver
ĠP Ã©tur
ĠfrjÃ¡l s
ĠS em
Ġerlend ra
Ġe inni
Ġbl Ã¡
ĠgÃ³Ã° an
Ġsam skipti
ĠLands b
j una
3 8
Ġstof naÃ°
4 8
Ġk eyr
ĠsÃŃÃ° unni
ĠK efla
for m
Ġgild a
ĠEy jar
ĠÃ¾ur r
Ġverk efna
Ġvin stri
ĠlÃŃfeyr is
ĠhÃ¡ mark
jÃ³Ã° s
Ġv o
ĠVer iÃ°
ĠC o
ĠN Ã¡ttÃºru
all t
ig a
ug rein
Ã³ sti
Ġe isini
af rÃ¦Ã°
Ġ200 6
h orn
ĠBre tl
Ġen sku
Ġsk Ã¡ld
ĠrÃºm lega
Ġb endir
Ġaf leiÃ°
Ġer indi
Ġ4 5
la up
Ġsam tÃ¶k
ĠÃºr slit
Ġrey nd
ĠsjÃ¡lf um
nb sp
ĠN ew
g un
afÃ©lag s
ri s
Ġathug a
Ġal Ã¾ing
e ing
Ġs ek
201 0
m ir
Ã¾ jÃ³nusta
Ġg Ã¶gnum
ĠtÃ¶l ur
sk vÃ¶ld
S K
ĠÃ¡ lit
ĠviÃ°skip ti
br Ã©
Ġof tast
E R
jÃ¶r Ã°
ĠsÃ½ ning
li tiÃ°
fÃ©lag a
jal la
in t
ĠvÃŃs it
Ġuppbygg ingu
Ġaf la
ĠlÃŃ frÃ¦
Ġkennar a
bÃºn aÃ°ur
Ġaf greiÃ°slu
Ġt ann
gjaf ar
Ġger Ã°u
Ġum fram
ĠfÃ³lk iÃ°
Ġtak mark
Ġundir rit
Ġ am
i sku
Ġhel m
ker fiÃ°
Ġ ?
ĠstjÃ³rn valda
andar ÃŃ
Ġfasteig na
Ġg lugg
ingar innar
Ġmarg a
ĠÃºt lend
Ġl Ã¦kni
ĠReyk jan
Ġefni s
Ġsam ein
Ġyng ri
Ġt Ã³lf
Ã Ĩ
Ġkost naÃ°
Ġkjar a
a um
H ug
ĠfyrirtÃ¦k jum
ĠmÃ¡ naÃ°ar
Ġatvinnu lÃŃf
b Ã³ta
g reind
ĠrÃ©tt ar
ĠhÃ³f st
ĠnÃ½ jar
set ningar
Ġnet fang
Ġkl Ã¡r
ĠP r
Ġbygg ir
ĠpersÃ³nu verndar
Ġf yll
ild u
ĠÃ¡rsf jÃ³rÃ°ung
Ġvirk ni
Ġleik inn
Ġl Ãº
d Ã³ma
av e
Ġskrif aÃ°
ĠT ÃŃ
Ġsv efn
Ġkom ist
Ġleng ri
Ġeinstakl ingar
Ġfel st
h eldur
Ġra k
ĠMagn Ãºs
Ġlok nu
B A
Ġspur ningar
sk Ã¶nnun
Ġ Ð
Ġs Ã³
Ġsam gangna
Ġh eg
l ung
0 5
Ġsn jÃ³
Ġteng jast
ĠBjar na
dag ur
Ġvar Ã°a
ĠhÃ¦ fi
Ġum mÃ¦li
ell tu
re tt
ĠauÃ°veld lega
Ġp ÃŃ
ĠG o
Ġverk efnum
yl g
und u
bÃŃ ll
Ãŀ Ãº
Ġt Ã³m
jÃ³ nar
leg ir
f ara
ger Ã°a
ĠlÃŃfeyr iss
] (
5 5
ĠhÃ¦ kki
Ġhlut fall
ĠK arl
Ġd Ã¡
n s
rÃ¦ k
ĠBenedik t
Ġmenn tun
f oss
Ġmik inn
H eim
4 7
Ã³ stur
Ġkvikmynd a
lÃ¡ ss
Ġb ankans
ĠstuÃ° la
Ġh inu
ĠÃ³k eypis
Ġ ar
v en
jÃ¶r Ã°um
ĠlÃ½Ã° rÃ¦Ã°i
Ġ â
Ã¾ Ã³r
sm Ã¶nnum
Ġtill Ã¶gu
b oÃ°i
g Ã¦
gerÃ° ir
ĠSam fylk
ĠsjÃ¡var Ãºtveg
Ġhre ins
at kvÃ¦Ã°agreiÃ°
ĠÃ½ms ar
il inn
ĠG et
d am
Ġs ein
Ġversl un
afÃ³lk s
Ġvaxta Ã¡kvÃ¶rÃ°un
sv Ã¦Ã°iÃ°
v um
sk yn
Ã³li tÃŃ
eig n
ĠmÃ¶r k
Ġk enna
4 9
Ġhef ir
Ġfjal la
Ġein st
h am
ĠÃŃbÃº Ã°ar
au t
ĠlÃ½ st
vin t
Athug iÃ°
ĠlÃ¡g mark
ĠGuÃ° s
ÃŃk ur
Ġt oll
fis ins
ĠB ÃŃ
t rÃ©
ingsÃ¡lyktunar tillaga
dag skvÃ¶ld
ĠhjÃ¡lp ar
ĠB Ã¦
h Ãºss
Ġse inna
rÃ³ Ã°ur
ĠstÃ¶Ã°u g
m arg
Ġskip t
Ġgjald eyris
ĠSt of
ĠolÃŃ u
ĠHoll andi
ang a
ĠÃ¾ur fum
Ãģ hugavert
Ġl est
k irk
Ġn iÃ°
ĠÃ¾Ã³tt i
Ġst ein
Ġsn er
ĠbÃŃ Ã°a
ĠmÃ¡l sins
ĠL Ã¡
ĠviÃ°bÃ³t ar
ĠAn nar
Ãŀ ess
ĠhÃ¶fuÃ°borgar svÃ¦Ã°inu
Ġtung umÃ¡l
trygg ingar
ĠviÃ°horf skÃ¶nnun
rÃ¡Ã° uneyti
- ,
Ġtak i
p l
ĠÃĵlaf ur
ann i
Ġm eg
Ġeigin lega
r an
ĠlÃŃf iÃ°
n Ã¦g
sam taka
em endur
Ġs Ã¡r
ning s
heim ild
ĠF erÃ°
Ġhaming ju
ss et
ĠS Ã½
Ġvinnum arkaÃ°i
k unar
Ġh rÃ¡
Ġfram l
ĠbÃ¦jar mÃ¡la
jÃ³ Ã°i
Ġli fa
ĠS Ã¡
o ur
arf rÃ¦Ã°
Ã¶l um
ĠsÃ© st
Ġm Ã³tt
Ġrek stri
est i
Ãŀ ingsÃ¡lyktunartillaga
ĠR Ãº
Ġskil aÃ°
Ġend ilega
Ġfjall ar
l si
arÃ¡Ã° uneyti
Ġtil raun
Ġh rÃ¦
issjÃ³Ã° s
ĠÃ¾ akka
Ġk jÃ³
Ã³ ti
Ã³nu s
Ġst jÃ³r
Ġv ott
sÃ½ ni
ĠsjÃ³Ã° sins
aÃ° ili
Ġval iÃ°
Ġgl Ã¦s
ĠEn n
f f
ĠHel ga
ĠumrÃ¦ Ã°ur
Ġtex ta
ĠE itt
ĠÃºt hlut
ĠG er
Ġv ei
li k
deg is
4 6
. ]
ĠvarÃ° v
Ġg jÃ¶ld
ĠÃ¾ yng
ĠSt ein
ĠhliÃ° ar
Ãļ V
Ġversl unar
Ġv atni
k ennar
ĠvÃŃs itala
ĠumrÃ¦ Ã°a
ĠframkvÃ¦mdastjÃ³ ri
Ã³ mi
ĠSeÃ°lab anka
Ġrey nt
eld is
ĠaÃ° ilar
ĠnÃ½ tur
Ġeig u
er fi
ĠfjÃ¶ld i
Ġfram hald
Ġst Ãºl
Ġst rÃŃÃ°
ld ar
ĠÃ¡st Ã¦Ã°a
Ġnor Ã°an
F ram
Ãŀ eir
Ġupp skrift
Ġf org
Ġtal aÃ°
ĠK jar
S vo
Ġvef num
Ġbygg Ã°
ĠG eir
Ãģ r
Ġvafra kÃ¶kur
Ġt raust
Ġdvel ja
Ġd ans
ĠhÃ³tel tilboÃ°
Ġtil heyr
Ġr anns
ĠF isk
Ġ11 2
ĠÃ³ f
unn an
ĠviÃ° eigandi
d rÃ¡tt
ok tor
h Ã¶nd
f Ã©lÃ¶g
o la
Ġsam bÃ¦r
ĠgrÃ³ Ã°ur
natt spyrnu
Ġalmenn ings
epp nir
r y
Ãº la
Ġskrif stofu
Ġh tt
ĠhÃ¡ skÃ³la
Ġh Ãº
Ġlaugar daginn
ĠnÃ½ jan
Ġo n
ol lu
h rif
ĠR annsÃ³k
Ġt it
ĠS h
ex tir
Ġful lu
Ġ jÃ¶f
ĠsjÃ³nvarp s
ĠF lug
rÃ©tt i
Ġmill jarÃ°a
starf i
Ġeink unn
S T
Ġland sliÃ°
Ġklukk ust
Ġfl okki
Ġmynd inni
ĠÃŃbÃº a
skÃ³l inn
ver Ã°i
an legt
Ġk ol
Ġt opp
S jÃ¡lf
an ska
fell t
Ġhra tt
v ef
ĠfÃ©lag inu
ĠÃģ sg
Ġskil mÃ¡la
ĠÃ¡byrg Ã°ar
ĠÃ³breytt um
ĠB reiÃ°
Ġheil s
ĠauÃ° lind
Ġbl and
ild ur
Ġp unk
Ġleg g
Ġ3 7
ĠÃ¾r jÃ¡
l inum
Ġenn Ã¾Ã¡
ĠmÃ¶gul eik
Ġskemmt ilegt
ĠÃ¾ess ir
ĠLau gar
Ġde ila
> <
ĠnÃ¡ mi
Ġal Ã¾jÃ³Ã°a
ĠmÃ¡nu Ã°um
ĠjÃ¡ kv
ĠhÃºs iÃ°
ĠsÃŃn s
5 8
Ġst Ã¶Ã°um
Ġh ina
Ġey Ã°a
Ġk app
Ġtilkyn na
Ġherber gja
er ÃŃ
ĠSigur Ã°ar
ĠlÃŃ Ã°ur
Ġg ull
aupp lifun
ĠK at
rÃ©tt ur
ĠH Ã³l
Ġforeld rar
v u
fer Ã°i
ar iÃ°
ĠR agnar
blaÃ° inu
ĠF rakk
f jarÃ°ar
k ort
Ġv estur
Ġl eika
Ġt Ã¡k
Ġatvinnur ek
ĠfjÃ³r um
Ġskrif ar
l f
p iÃ°
Ġd eil
Ġvinn ust
st an
ĠsnÃº a
Ġri ta
ĠsjÃºk dÃ³m
ĠrÃ¡Ã° gjÃ¶f
Ġk unna
Ġp Ã¡
Ġtilkyn nt
Ġ ill
Ġverk um
st ra
ĠG rÃ¦n
Ã¾ing i
Ġgrunn skÃ³la
Ġk li
ing urinn
ĠM ark
ĠÃ¾ess arar
Ã¦k i
ĠniÃ°ur stÃ¶Ã°u
Ġget iÃ°
h t
ĠÃ¡st and
ĠE ld
ĠSn Ã¦
Ġsk Ã½
Ġsk jal
Ġger i
dd ir
ĠÃ¡kvar Ã°an
ĠL e
tur inn
Ġger st
ÃŃ Ã°i
ĠR ÃļV
F rÃ¡
fÃ©lag iÃ°
Ġst Ã³
Ã¶g unum
Ġfyrir vara
Ã© Ã°
Ã¶g nun
t aÃ°
Ġnotend aupplifun
Ġbak i
Ġd raum
Ġ #
ĠhÃ¦g ri
Ġk unnu
bir g
ĠFÃ©lag s
Ġfat laÃ°
ĠverÃ° trygg
Ġstarf sl
ĠvÃŃsit Ã¶lu
ĠviÃ° miÃ°
t ri
ileg ur
4 4
skyld u
bur Ã°i
m m
vÃ¶r um
af yrirtÃ¦ki
ĠDavÃŃ Ã°
Ġ arb
Ġhla ut
ĠhÃ³p i
rÃº m
Ġsend ir
su pp
Ã¦r Ã°
d Ã¦m
Ġvar la
Ġk Ãº
b jÃ¶rg
ĠM ann
Ã¡tt ar
Ã¶ll um
v ott
ĠmiÃ° a
Ġm org
ĠfÃ³r um
L ands
Ġleng ra
Ġsk Ã¡
Ġundanfar in
g l
al aust
ĠB ooking
ĠM arkmiÃ°
ĠlÃ¦ kka
ĠhÃ¦ kka
Ġko nu
smÃ¡l um
lit nir
Ġmat vÃ¦
5 00
j endur
Ġh it
Ġann ast
rein ar
sÃ³k nir
ĠÃ³sk aÃ°
Ġsann arlega
amlega st
ĠÃ¶rugg lega
lig a
sk ri
ĠÃ¶ f
ĠÃ¡ Ã¦t
ĠÃ¡ b
Ġgr eitt
ĠNor egi
ĠhÃ³p ur
Ġspyr ja
ĠJ Ãº
ra k
Ġd vÃ¶l
ĠF Ã¸roy
Ġ www
Ġmann esk
S ig
ĠumfjÃ¶ll un
Ġpen ing
Ã½ Ã°
tar i
Ġbir ta
Ġv ind
Ġhi tta
Ġtengd um
Ġpr ent
Ġs afna
ĠfÃ©lag ar
ĠmÃ¦l ti
n ina
p rÃ³f
ĠnÃº mer
rÃ¡Ã° uneytiÃ°
Ġvald iÃ°
arÃ¡Ã° uneytiÃ°
Ġver Ã°um
ĠBorg ar
fang s
Ġfyl gi
or e
yl t
ĠsÃŃ m
Ġko stur
haf a
Ġe it
tÃ¦k ni
Ġl Ã¶ngu
Ġf jÃ¶r
Ã¶kk um
ĠtÃ¶lvup Ã³st
Ġn efn
Ġ ja
Ġfors Ã¦tisrÃ¡Ã°
la ss
Ġleik skÃ³la
ĠE F
he il
Ã¶ sk
verÃ° bÃ³l
Ġvet rar
? ?
j afn
a ch
ĠnÃ¡nar i
Ġskrif aÃ°i
Ġteng ist
ĠE ir
Ġg Ã¦Ã°i
Ġv ÃŃn
ĠB Ãº
rum p
ĠÃ½m is
Ġf lÃ½
Ġkv eÃ°
Ġ200 0
200 2
v ak
Ġfram lag
Ġg jarnan
ĠÃŃ sl
ĠtÃŃmar it
bÃº a
Ġr Ã©tta
f undur
Ġhv at
199 9
ĠB jÃ¶rg
ĠÃ¾jÃ³Ã°ar atkvÃ¦Ã°agreiÃ°
mÃ¦ lum
St jÃ³rn
ĠV ildi
brey tingar
st Ã½r
Ġt Ãº
Ġfell ur
Ã¶ dd
L jÃ³smynd
p ÃŃtal
Ġhe ila
ĠSigur Ã°ur
Ġsumar iÃ°
ag er
ĠaÃ°al lega
Ġsl Ã¦m
Ã³ ll
st af
Ġfar in
Ġs Ã³knar
st unda
ĠstÃ³r u
ileg u
ans i
Ġspur ningum
nas on
ĠI I
Ġstund u
Ġskila boÃ°
reng ir
Ġfors eti
c es
end u
Ġb jÃ³
Ġg Ã¦Ã°a
ĠstÃ¦r stu
ĠR o
Ġlyk il
u ss
Ġ4 7
Ġtil gangi
ĠÃŃ mynd
Ġor Ã°um
Ġen ga
U R
Ġau stur
Ġaug ljÃ³
Ġopinber a
g v
un arf
Ġdreg iÃ°
i ch
Ġb olt
Ġkom andi
ĠHag stofunnar
Ġborg a
rÃ¦ nu
sl una
ĠV ik
r inum
Ġker fi
8 0
I R
sl Ã³Ã°
mÃ¶r ku
ook ies
ĠD al
Â °
p an
ĠleiÃ° inni
Ġsn iÃ°
Ġr enn
ĠtÃŃ mann
vÃ¶r ur
ĠHlu sta
h jÃ¡lp
ĠSigurÃ° sson
Ġteg undir
o ti
ĠF Ã³lk
ĠT aÃ°
ĠnÃ½ju stu
Ġf ÃŃn
Ġsk jÃ¡lf
ĠÃ½m su
Ġnefn ilega
Ġseg ist
Ã¡st ungur
ÃŃk ja
ĠÄ ı
rÃŃ Ã°ur
ĠF iÃ°
ĠM an
Ġr Ã¦Ã°
Upp Ã¡stungur
ingar nar
Ġheim i
f Ã¦ra
fer li
Ġstefn una
stofn anir
ĠrÃŃk issjÃ³Ã°s
Ġmarg ra
Ġel ska
ĠÃ¡nÃ¦g ju
ĠslÃŃk um
aÃ° ilar
virk ni
rÃŃ ms
est ir
Ã¾rÃ³ un
Ġb und
ĠbrÃ¡ Ã°a
o li
Ġs of
Ġhef ja
Ġy kkar
Ġaf l
en nu
Ġm erki
mann i
skÃ³l ann
ĠheilbrigÃ°is Ã¾jÃ³nustu
eiÃ° is
, "
af jarÃ°ar
ĠÃģ riÃ°
end ingu
Ġp Ã³litÃŃ
Ġh ygg
ĠlÃ¦kk aÃ°i
Ġp ar
ĠM Ã¶mmu
Ġupp fyl
Ġveit ingast
j ug
Ġm ein
ĠBandarÃŃkj anna
Ã¶ tum
E ng
Ġgeng i
on t
rÃ¡ Ã°i
ĠÃºt l
sh Ã³p
Ġvir Ã°ast
Ġflokk a
ĠÃ¾ekk ja
Ġb Ã¦kur
E inn
Ġnem endum
Ġbygg t
b ind
haf nar
... ]
Ġflu tti
ĠE ig
Ġminn st
Ġv anda
Ġ3 9
Ġfyrir spur
ĠbÃŃ la
ĠSt rengir
Ġsam skiptum
Ġm agn
ĠÃ¡v allt
lung inn
ĠÃ¾jÃ¡lf un
ĠV Ã³ru
Ġheimil is
eiÃ° ar
ĠhljÃ³m sveit
Ġko na
ĠS litnir
ĠtÃŃmabund iÃ°
ĠGet iÃ°i
ĠFiÃ° lunginn
ĠEvrÃ³p ska
S v
sp eg
ĠÃ¦t lum
Ġt Ãºl
ĠmarkaÃ° s
Ã° r
Ġley sa
Ġger Ã°ist
Ã¸ k
ald a
ĠstÃ³r t
Ġs unnan
ĠhÃ¦r ri
ĠS lÃŃk
ĠhjÃºk run
ĠB Ã³k
5 9
Ġbl Ã³m
Ġb jÃ³Ã°um
Ġh orn
Ġvek ja
Ġf it
Ġinni heldur
ĠtillÃ¶g ur
Ġupp li
l Ã¦k
Ġh rey
Ġaf stÃ¶Ã°u
ĠfljÃ³ tt
Ġvef sÃŃÃ°u
d ur
Ġfund iÃ°
aÃ° ri
ĠK ol
al i
ĠH Ã¦
Ġums Ã¦k
Ġveg g
sam ninga
Ġsam komulag
Ġsamstarf s
Ġb ifreiÃ°
leg gja
l Ã¶gum
ĠL i
ĠmÃ¡lefn alega
Ã¶r n
Ġverk efn
h olt
ĠuppfÃ¦r t
Ġfyrr verandi
ĠR eg
ĠmÃ¡l s
ĠHver nig
? âĢľ
Ġb andarÃŃ
ĠP ar
200 0
ĠVest f
Ġviss i
Ã¾ rey
ĠD V
ĠA ri
lÃ½s ingu
Ġd Ã½ra
ĠbÃ³k aÃ°
Ġg jÃ¸r
Ġe gg
ĠlÃ¦ tur
Ġof n
kom a
Ã³ Ã°um
ĠSvÃŃ Ã¾jÃ³Ã°
ĠlÃŃfeyriss jÃ³Ã°a
ĠÃ¡r unum
Ġerlend um
m is
sl eik
Ġvik unni
ĠhÃ© t
ĠalÃ¾ing is
Ġendur skoÃ°
Ġm ega
ĠÃ¾r jÃ¡r
; &
ĠÃ¾ekk t
leik ar
fÃ©lag s
nefnd ar
Ã¾ro ta
ĠÅ Ī
Ġskip u
ĠdÃ³tt ur
Ġsn emma
Ġdr eng
p er
ĠnÃ½ lega
5 6
en tar
v ell
vo tta
Ġloft slag
Ã©tt indi
er fiÃ°
3 4
ĠgÃ¦ ta
Ð ¾
bb a
ĠK l
c a
ĠReykjan es
Ġer l
j unar
Ġfram boÃ°
am a
Ġst ef
ur t
Ġveg a
h Ã³l
Ġ200 5
ĠstÃ³r um
h Ã¡l
ĠV el
tu st
Ġ !
Ġg agna
h jÃ¡
amÃ¡l um
ð Ł
Ġatvinn ul
Ġget aÃ°
Ġald ar
m eÃ°
Ġmet ra
R Ã¡Ã°
lu Ã°u
Ġsamh engi
Ġa pp
ĠD Ã³m
i x
Ġmiss a
ĠK ÃŃna
ĠT Ã³n
ess or
ĠhÃºs inu
gÃ¶ng ur
ĠAkureyr ar
ey ti
Ã¡ s
heim ili
ĠfjÃ¡r laga
b jÃ¶rn
Ġb ent
ĠaÃ°geng i
M Ã©r
âĢ Ļ
hn eig
Ġsv arar
V erÃ°
m eti
Ġstarf ar
ĠferÃ°alag i
und an
ĠnÃ½r ra
Ġsl ys
s ent
skrif tir
Ġstofn anir
Ġg jÃ¶f
t Ã¶lu
Ġk ÃŃl
Ġl eidd
ĠL ista
ĠtÃ³k st
Ġteg und
ĠfÃ¶stu daginn
ĠjÃ³l in
ĠpersÃ³nuupp lÃ½s
Ã° ra
u ld
ĠMÃ¡ nuÃ°i
Ġhagsm una
Ġsty tt
ja safn
ĠM Y
Ġhlu sta
ĠmÃ¡ tt
Ġeng an
Ġt Ã½
vÃŃ si
Ġd Ã¡l
Ġl Ã³Ã°
ag jald
Ġfram halds
Ġop iÃ°
ĠpersÃ³nuverndar stefnu
eild ar
Ġp last
lÃ¶g un
ĠhÃ¡l fu
Ġtil lit
Ġannar ri
ĠA uÃ°
ĠsÃº kku
at riÃ°i
l y
Ġeinf alt
r uÃ°
Ġat kvÃ¦Ã°i
hÃ¦ kk
Ġund er
ĠL ÃŃ
Ġbr agÃ°
ĠKÃ³pav og
Ġko star
Ġtaka st
ĠaÃ°st oÃ°a
b lÃ¡
ĠvÃŃs aÃ°
Ġd Ã¶gunum
âĢľ ,
s Ã¶lu
ĠÃ¶ ku
ĠfulltrÃº a
Ġgjald Ã¾rota
Ġef n
Ã¾ Ã½
Ġdag ar
yrirtÃ¦k ja
p r
Ġf Ã©lÃ¶g
Ġg jaf
Ġfimmtu daginn
st Ã¦Ã°ur
ĠÃ¡r lega
ileg ri
Ġutan rÃŃkis
ĠtÃ¦p lega
Ġfr Ã¦g
Ġefnahag ssv
Ġm yn
Ġho ll
Ġsp Ã¡r
Ġ12 5
rÃŃ mur
ĠDr ott
Ġkl eift
o ni
ĠÃ¡h Ã¦ttu
Ġmynd band
Ġbr Ã©
ĠviÃ° tal
ĠÃ¾rÃ³ unar
h repp
leik um
Ġkom nir
Ġb raut
Ġs Ã¶gn
ĠS Ã¦
ĠÃ¦tlaÃ° i
ĠmiÃ°viku daginn
Ġfyr sti
Sam kvÃ¦mt
ĠEng inn
Ġn k
ĠstjÃ³rn sÃ½slu
Ġsam mÃ¡la
Ġheil brig
Ġb rÃ¡Ã°
ĠL a
Ġv Ã¶xtum
hlu ti
ĠH am
ĠÃ³sÃ¦m ilegar
Ġfisk veiÃ°
ĠnÃ¦st komandi
ĠU ni
ĠfÃ¶ Ã°ur
ĠferÃ° ir
sm Ã¡la
jÃ³ t
l eif
ĠskÃ³l anum
Ġs at
ĠV in
ĠÃ¾jÃ³Ã°aratkvÃ¦Ã°agreiÃ° slu
ĠK om
Ġofb eldi
Ġraf magn
ein k
Ġsvok allaÃ°
ĠPÃ¡l l
sp Ã¡
k jÃ¶r
Ġko num
ĠP ro
l ingum
ĠbÃ¡ ru
pp ÃŃr
ĠVÃŃs ind
d Ã¦mi
jar n
Ġb rauÃ°
ĠÃ¾ ol
ĠstaÃ°rey nd
sl and
Ġley fa
sk Ã³
ĠhÃ¡ tÃŃÃ°ar
ĠGuÃ°m undur
ĠÃ¦ vint
bbam ein
ot kun
ĠMY ND
t org
Ġfl Ã³k
Ġst Ã½r
b jÃ³Ã°
jar nar
ĠB Ã³nus
ĠmÃ¡ tti
ĠÃ¡kv Ã¦Ã°um
am arkaÃ°i
Ġeig iÃ°
leik i
Ġvel ta
ĠauglÃ½s a
rÃ©tt indi
Ġlit lu
ĠtÃŃm um
ĠÃŃ tar
ĠRÃŃk is
Ġk nattspyrnu
jÃ³ Ã°ur
ĠK ann
ĠstaÃ° a
Ġr ei
ĠmÃ¡nu Ã°
u ka
ĠbÃ¡Ã° um
Ġs jald
O R
Ġemb Ã¦tt
Ã½s ing
ĠH Ã¶r
ĠtÃŃma bili
ĠrÃ¡Ã° uneyti
ĠÃ¡ Ã¦tl
ey ja
ĠiÃ° naÃ°ar
Ġ yr
ĠhÃ¶f undar
at Ã¦kni
Ġstarf aÃ°
Ġm una
starf semi
ÃŃ ma
Ġskip iÃ°
Ã¦Ã° ingar
ĠvÃŃs a
Ġkost naÃ°ar
ĠÃŀ org
ĠnÃ³ gu
ĠÃ¾ÃŃ nu
ĠD Ã½r
H Ã³tel
var nir
Ġh on
Ġheim spek
jÃ³n varp
ĠLands pÃŃtal
v is
Ġkv aÃ°
sk an
ĠÃ¡rs verÃ°bÃ³l
g jÃ¶ld
Ġbir tir
ver iÃ°
Ġh Ã¶r
ĠM att
Ġeink enni
3 1
Ã¾ing s
Ġsy kur
Ġsam tals
p um
S Ã½
sk Ã¡
201 7
Ġ12 9
am ynd
b ÃŃl
Ġeinstakl ing
eg g
ĠÃ¾ÃŃ nar
Ġg u
Ġk eypt
Ġtal in
Ã¾ Ã¦tti
Ã° un
Ġop nunar
el lum
kr an
Ġb ol
ber t
Ġsk aÃ°a
ĠÃļ r
Ġb a
Ġsk Ã¶p
9 9
Ġ4 8
Ã¶l luÃ°
ĠOr ku
Ġsk aÃ°
Ġr u
Ġvatn s
ĠS e
ĠÃ¾eir rar
ĠgÃ¶m lu
ĠrannsÃ³k na
Ġgreiningar aÃ°ila
Ġpen inga
o sa
Ġsvo lÃŃtiÃ°
b a
Ġl y
Ġvenju lega
Ġnafn iÃ°
nu Ã°u
ung ar
ĠDan mÃ¶rku
ĠT rump
ĠleiÃ° t
et u
Ġ6 6
Ġkynn ti
ĠN orÃ°
g aÃ°
h liÃ°a
rÃ¦ Ã°u
n al
b ak
Ġb ann
Ġh arÃ°
okk ur
b Ã¡
Ġst jÃ¶rnu
Ġskil mÃ¡l
reg lur
Ãŀ ann
Ġkos ningar
en ta
ĠorÃ° inn
ĠsamfÃ©lag i
ĠfjÃ¡rfest ingar
Ġm eistar
um st
Ġal vÃ¶ru
d ir
Ãģ riÃ°
ĠF re
kv Ã¦ma
ĠstÃ½ri v
st eins
Ġi P
Ġvef inn
rÃ©tt ar
Ġteng sl
Ã¾ ekk
Umhverfis stofnun
ĠeÃ° li
ĠundirbÃº ning
Ġfor y
ĠÃ¡rs reik
s etur
Ġalmann atryggingar
ett ur
gar Ã°
Ġnokkur n
ley si
am ark
li sta
staÃ° an
Ġst aÃ°i
Ġd yr
Ġstof nunar
s iÃ°
il iÃ°
i e
ĠSel foss
Ã¾ ykk
ster dam
ĠhÃ³ pa
ĠmÃ¦ la
og le
Ġleit aÃ°
Ġme sta
Ġh agn
ĠforsÃ¦tisrÃ¡Ã° herra
f inn
H v
ĠrÃ¡Ã°st af
ĠlÃ½ sa
agn rÃ½
Ġlag anna
Ġv Ã¶Ã°
o od
tak iÃ°
Ġk anna
Ġgrund vallar
Ġfyrir hug
Ġh ell
Ġfal lega
ĠGuÃ° jÃ³n
ĠAm sterdam
z t
Ġkr ing
ĠR e
Ġd rÃ³
Ġton n
Ġr Ã¦Ã°ur
br ag
ĠK yn
Ġvald a
t af
ĠÃ¡fram hald
Ġst Ã©tt
Ġmik lar
ĠV atn
h ygg
ĠvÃ¡ trygg
Ġfyrir lest
ĠÃŃ t
ĠJÃ³n s
Ġb reiÃ°
bÃºn aÃ°i
Ġmark aÃ°i
ĠveiÃ° i
Ġ5 00
h it
Ġl jÃ³Ã°
ĠnÃ¡kvÃ¦m lega
ĠB aug
ĠskoÃ° unar
ĠlÃŃk ur
f Ã©
ĠJes Ãº
Ġs Ã¦r
jÃ³ na
ag erÃ°ar
ĠlÃŃ Ã°a
fÃ©lag sins
p o
vÃ¦ nt
ĠbeiÃ° ni
Ġh Ã¡Ã°
Ġverk efniÃ°
Ġv en
Ġauk iÃ°
Ġbyr jar
ĠM ikil
Ġskal tu
ĠmeÃ° ferÃ°ar
Ġnot aÃ°ar
Ð °
ĠgleÃ° i
Ġm undir
ĠÃģ g
sm Ã³t
Ġtald i
et ra
Ġfor n
. âĢĿ
Ġt Ã¶kum
ĠprÃ³ fa
ĠsjÃ³nar miÃ°
ĠVestmannaey ja
Ġvald i
ĠfÃ³t bolta
ĠhvÃŃ t
Ġv Ã¶ldum
ĠH old
Ġh eiti
l in
Ã¸ v
r aÃ°i
fÃ©lag i
Ġsamning s
ĠV ig
ĠmÃ¦l t
ã ģ
ileg an
ĠbÃ¦ num
Ġb otn
ĠÃ¡kvarÃ°an ir
blaÃ° sins
Ġf eg
ĠfrÃ¡bÃ¦r t
ĠmjÃ³l kur
Ġh es
ĠfÃ¦ dd
ĠK v
ĠÅ ¥
lÃ¡ t
ĠH a
Ġhel sta
ĠlÃ½s ir
Ġfull nÃ¦g
mar ka
skÃ³l um
ĠI nd
Ġendur speg
m Ã¦ti
Ġfr Ã³Ã°
Ġvon andi
Ġm in
Ġm unn
Ġtil vikum
Ã¶ld u
Ġkirk junnar
ĠtÃ¶l um
Ġk Ã¦
eÃ° i
far iÃ°
Ġf ÃŃk
ĠbÃ³k hald
Ã¦kk un
einu Ã°u
Ġhr aÃ°
ĠstarfsfÃ³lk iÃ°
ur s
af ar
Ġ4 6
anda ir
Ġfull yr
Ġaug um
Ġspur Ã°i
st urinn
Ġb oÃ°a
ĠHafnar firÃ°i
ĠsjÃ¡lf an
lag i
veg i
Ġskemmt ilega
ĠÃģsg eir
Ġvirk ar
An nar
ĠvÃ¦ n
h jÃ¡l
Ġm ist
Ġb eitt
ti c
Ġhaf nar
Ġuppf yll
Ġbygg ingu
ĠrÃŃkisstjÃ³rnar innar
ank i
rygg ingu
Ġ: )
enn t
Ġb auÃ°
Ãĸ ll
ĠfjÃ¡r hÃ¦Ã°
ĠkjÃ³ sa
ĠV eÃ°ur
Ġkonung r
ĠS a
Ġfor stjÃ³ri
Ġsk eiÃ°
Ġ3 3
ĠG unn
jÃ¶k ul
y ss
ĠS ch
Ġgef in
Ġtil nefnd
Ġv ini
Ġb eita
Ġv ona
Ã°u Ã°
vÃ¦g i
ĠU ng
Ġst aÃ°ur
al ÃŃ
ĠAr n
sp an
ulltrÃº i
n Ãº
Ġt a
Ð µ
ĠljÃº ka
il m
t ein
Ġsam ninga
Ġd valiÃ°
eist ari
Ġeinhver ja
ĠmeÃ° hÃ¶nd
Ġl Ã¶nd
Ġeinhver s
ĠÃ¡hygg jur
ĠÃ¾Ã¶rf um
Ġ ansi
Ġlos un
Ġvit aÃ°
Ġfinn ur
ĠfarÃ¾ ega
ĠY fir
f undi
ĠfjÃ³r Ã°a
ĠgreiÃ° slur
N A
Ġmik illi
Ġhtt p
Ġ3 2
Ġs il
ĠgrÃŃÃ°ar lega
sk jÃ¶r
h Ã³
Ġsk Ã¡l
Ġhef jast
Ã¡ ri
at na
Ġm undi
Ġk Ã³r
ĠB Ã¡
Ġskrif stofa
ĠAn naÃ°
Ġtekju skatt
ĠmÃ¶gu lega
ĠfÃ¦r Ã°
ĠfÃ© ll
ĠGuÃ°mund sson
Ã¾rÃ³ tt
ĠIn c
ĠbrÃ¡Ã°a birg
ĠP h
ĠfÃ¡ um
ĠrÃŃk iÃ°
Ġhins vegar
ĠtrÃºnaÃ°aryfirlÃ½s ingu
k on
ĠÃ¾Ã¡ gu
Ġhr un
ĠÃºt lit
sl unnar
jÃºk ra
ĠlÃŃfeyris rÃ©ttinda
bygg Ã°ar
Ġm Ã¦tt
ĠÅ ł
l Ã¡tt
star Ã©ttar
Ġgest irnir
Ġfeng um
u x
Ġv Ã³ru
Ġherberg iÃ°
ĠsÃ©r staka
M arg
Ġraf orku
Ġp ist
ot iÃ°
Ġh inna
Ġtrygg ing
Ġsk er
ĠaÃ° ilum
al aga
ĠtÃ³n leika
ĠÃ¾rÃŃ r
H Ãºn
Ã¶ tur
Ġs er
ast i
Ġtr Ã©
Ġaf Ã¾rey
Ġhlutverk i
Ġveg inn
Ġ3 4
ĠÃ¶Ã° last
Ġfund inum
Ġ anda
ĠL ang
or s
ĠÃ¡h orf
j anda
Ġeinu stu
ĠM en
Ġl ax
Ġ5 6
Ġung linga
Ġsend u
Ġkraf ist
s ar
Ġ[ ...]
ĠÃ³ ska
ĠhjÃºkrun arfrÃ¦Ã°
ĠK ar
ĠSt r
Ġmenn t
m undur
lapp trÃ©
ning una
Ġrek ja
ĠÃ¾ ingsÃ¡lyktunar
ĠMeÃ° al
ĠÃºrskur Ã°ar
Ġâ Ĩ
Ġsp r
F l
Ġst efna
ri tiÃ°
ĠaÃ°st Ã¦Ã°um
Ġbor iÃ°
ĠkjÃ¶lfar iÃ°
Ġp Ã¶n
Ġ Q
ĠeÃ°l ilegt
N I
ÃŃ g
Ġal t
ĠÃŃslensk t
ĠB e
ĠpersÃ³nuupp lÃ½singar
ĠsÃ©rst Ã¶k
Ġnetfang iÃ°
lu Ã°um
ĠnÃ³tt ina
ĠSk ag
E ina
ĠhlÃ½ tur
ver a
Ġtel jast
ĠI nter
ĠsjÃ¡lf stÃ¦Ã°i
Ġgrein ilega
tak anna
Ġs innar
Ġt ru
Ġdag ur
ĠÃºt boÃ°
Ġop in
ĠBjar ni
Ġflug vÃ©l
Ġtilf ellum
V er
ĠnÃ¦st um
Ġskyld ut
g Ã¶ngum
sam lega
art Ã¶f
Ġvil ji
ĠverÃ°bÃ³l gu
ĠÃ³ dÃ½r
Ġv Ã¦g
yrirtÃ¦k iÃ°
ugrein um
f alli
ĠF rÃ©tta
s jÃ³n
U M
ĠY ork
ĠJafn framt
ulltrÃº a
ĠJ ak
Ġvir Ã°i
Ġtilkyn n
ĠS al
ĠliÃ° i
ĠsjÃ¡l fir
ĠferÃ° inni
ĠmÃ¦ld ist
ĠÃ¾yr fti
ei tur
Ġunn t
h eit
tak i
Ġhver ri
ĠGar Ã°a
Ġt jald
ĠEvrÃ³pusamband iÃ°
Ġvar t
ĠSt aÃ°
Ġleik i
ingastefnun efndar
Ġ7 8
ĠaÃ° ili
ĠviÃ° fangs
ĠS Ã©
t am
Ġsl ÃŃka
ĠskrÃ¡ ningu
Ġskyldut ryggingu
Ġor s
ĠbÃ¦ tum
ĠfÃ¦ st
Ġvel ferÃ°ar
al ist
jÃ¶ld i
Ġef num
al s
ver sl
stig i
Ġn emur
b rau
Ġra uÃ°
J Ã³n
ĠT v
bur Ã°
Ġpunk ta
b anka
ĠN et
Ġgl eyma
ĠÃ¾ ykk
Ġseg i
b e
Ġen gar
Ġbreg Ã°ast
Ġheim ila
ĠgreiÃ° slum
Ġ200 4
em i
ĠâĨ Ĵ
n anir
ĠlÃŃ tur
ĠprÃ³f essor
ĠÃ¡hrif um
Ġskyld u
ĠlÃ½ kur
lig gjandi
r inu
All t
Ġkl Ã¡ra
" ,
Ġfinn um
ĠÃ½mi slegt
or m
Ġnot endur
Ġska tta
ĠhjÃ¡lp aÃ°
Ġhim ins
ĠH val
ĠV inn
Ġd Ã³na
ĠL jÃ³s
vist ar
Ġmar kv
ang s
ĠÃĵ sk
Ġhring ja
ĠÃ³ viÃ°
Ġhugs anlega
Ġfer li
n ey
ĠaÃ° gerÃ°a
Ġtilkyn ningu
Ġ3 00
sn efnd
Ġfr Ã¦Ã°i
rit un
s eÃ°
r annsÃ³k
T T
Ġein staka
ĠF Ã¦
st Ã¦Ã°u
ÃŃ Ã³
Ġn ÃŃu
ug u
ast of
Ġgrein t
Ġfram hjÃ¡
ĠSnÃ¦ fell
Ġreg lug
ĠÃįs afirÃ°i
Ġinn leiÃ°
Ġskil iÃ°
Ġhvet ja
ĠmikilvÃ¦g i
ell s
Ġalm ennum
Ġg eyma
Ġd au
jar na
v Ã¶x
Ã ī
l ingur
ver Ã°u
ĠR aÃ°a
ĠN iÃ°ur
ĠÃ¾Ã¡tttak endur
âĢ Ķ
ĠdÃ³na skap
Ġ5 9
Ġn am
Ãļ t
Ġh eita
ĠbÃ³k menn
Ġ9 5
ĠA kran
Ġsag a
ĠsamfÃ©lag inu
ĠÃ¡kveÃ° num
ĠJes Ãºs
7 7
Ġjafn aÃ°i
, ,
Ġre ka
ef urinn
s jÃ³Ã°
Ġm eng
ĠnÃ½skÃ¶p unar
Ġ4 3
ĠÃ¾ rey
Ãºr slit
h ita
Ġt Ã³
Ġunn in
is var
jÃ³ ra
Ġf Ã³stur
ĠgÃ¦r kvÃ¶ld
Ġyr Ã°u
ĠV ÃŃk
ĠÃºt skrif
m enna
Ã ¼
ĠÃ¡k Ã¦r
ĠL it
Ġalmenn ing
ĠG am
Ġnokk rir
Ġsm ella
Ġmynd u
ĠGo ogle
Ġv Ã©r
c i
ag ni
ĠSv ein
ĠÃºt varp
ĠnÃ¡l Ã¦gt
Ã¶ pp
ĠT ek
ĠfÃ©lag sleg
ĠH o
ĠE ndur
Ġviss ulega
Ġlyf ja
Ġst rÃŃ
ĠÃºtgÃ¡ f
Ġdreg ur
yr r
Ġhv att
sl na
ĠgagnrÃ½ ni
Ġum hver
ĠfjarlÃ¦g Ã°
g eir
ĠfjÃ¶l mÃ¶r
brÃ© fa
agnrÃ½ ni
g reina
ĠSam einuÃ°u
Ġkref st
Ġver ja
Ġgistist aÃ°i
ĠÃŀÃ½skal andi
Ġ4 4
ar nar
ker finu
ĠEin ars
Ġvax andi
ĠÂ »
Ġhe v
ĠsÃŃÃ°astliÃ° inn
tÃŃ u
ĠÃ¦ Ã°
ĠfljÃ³t lega
Ġstarfsm aÃ°ur
Ġg if
reg lu
Ġupp runa
Ġbil inu
Ġmynd ina
Ġherbergja verÃ°
ĠfÃ¦ Ã°u
Ġe vrÃ³p
Ġmarg vÃŃ
ĠL eiÃ°
ĠFriÃ° rik
Ġgr un
ces ave
Ġak stur
Ġm bl
Ġskilyr Ã°in
Ġmar ka
ĠMenn ta
l unni
Ġfl jÃº
Ġvettv angi
Ġarb eiÃ°
ĠV eldu
Ġnokk ru
Ġbe ina
ĠrannsÃ³k num
Ġupp g
f yrirtÃ¦ki
v an
ĠprÃ³ sent
rÃ©tt is
Ġkeyp ti
ÃŃ as
ĠÃ¾ing menn
Ġe yr
Ġgr af
ĠmarkmiÃ° i
F Ã©lag
re ins
Ġtal i
Ġs ynd
Ġbr jÃ³
ĠÃ¡kveÃ° in
Ġhald i
ley fi
Ġh laÃ°
ĠbrÃ¡Ã°abirg Ã°a
Ġneyt enda
Ġtals vert
201 8
ĠfjÃ¶gur ra
ĠfÃ¶stu dag
nun nar
Ġaf tan
kv ar
ĠmÃ¡nu daginn
el si
ĠS endu
ĠH vÃŃ
Ġv inum
Ġkv eÃ°iÃ°
ĠhÃ¡ degi
ĠKaupmanna hÃ¶fn
Ãº sson
ĠundanfÃ¶r num
Ġk vÃŃ
Ġein b
0 7
Ġ5 8
Ġn ak
tÃŃ mi
Ġvef ur
Ġbor ist
ĠÃ¾jÃ³Ã° anna
ĠÃº tt
ĠÃºt s
Ġvin alegt
Ġfull ting
Ġheims Ã¦kja
ĠaÃ°st Ã¶Ã°u
sm eÃ°ferÃ°
ĠviÃ°skipta vin
n ess
s ig
Ġf Ã³l
Ġkem st
var nar
Ġe p
l t
Ġlaugar dag
Ã¾jÃ³nust unnar
Ġs af
Ġbr Ã½
arf semi
f yr
Ġg Ã³lf
Ġles iÃ°
ĠA pp
ĠHold ings
Ġst Ãºd
Ġber ast
Ġp ers
rei f
ĠfÃ¦Ã° ingu
Ġgl er
ĠR auÃ°a
Ġv eldur
Ġ199 5
ug t
ĠMarg ir
ĠleiÃ°bein ingar
ĠviÃ° brÃ¶gÃ°
u d
tÃ¶k um
ĠalÃ¾jÃ³Ã° legs
sk jÃ¡lf
ur in
sp il
Ġdr ykk
t on
ĠÃį tal
rÃ¦Ã° slu
H af
ĠH in
ĠÃ¾jÃ³Ã° in
ĠÃĸr n
Ġs eld
Ġor Ã°a
hol ti
N Ã¦
Ġg ar
ĠfjÃ¶lmiÃ° la
eyr issjÃ³Ã°
nef ningar
ĠlÃŃfeyr issjÃ³Ã°
ĠhÃ¦r ra
Ġum fang
Ã¡ hrif
vik mynd
lend is
ĠB ol
riÃ° um
Ã°ar i
ĠH l
Ġb eÃ°iÃ°
ĠÃ¾ ver
ĠSm elltu
Ġsunnu dag
Ã¦ la
Ġlag iÃ°
ĠstÃ¶Ã°u gt
ĠfjÃ¡r festa
ĠliÃ° in
f s
Ġminn ka
Ġsenn ilega
Ġs vÃŃ
Ġfyrir mynd
Ġkyn s
Ġ200 3
AÃ° al
Ã³ a
Ã¶n sku
Ġs on
Ġpen ingastefnunefndar
ĠÃ¡l yk
H Ã¦gt
D ag
ĠI Ã°
Ġf Ã¡tt
sh Ã³l
Ġmenn ta
ĠfjÃ¡rmÃ¡l afyrirtÃ¦ki
ĠalgjÃ¶r lega
ĠS jÃ³
ĠfrÃŃ stunda
sm ann
Ġst andi
Ġhaust iÃ°
ĠÃ¾jÃ³Ã° erni
A T
Ġleitar orÃ°
Ġfel a
Ġalm enna
fÃ¦r slu
h Ã¶ll
ĠI cesave
ĠviÃ°skip tum
Ġde ili
at e
ĠK on
Ġvirk ilega
ĠrÃ©tt i
ĠmilljÃ³ num
ĠhÃ¶f Ã°
ĠdvÃ¶l inni
Ġvik um
ĠjÃ¡ kvÃ¦Ã°
Ġvest an
ĠHÃºs a
Ã¾Ã½ Ã°u
af fi
ĠslÃŃk ar
Ġh Ãºss
ĠferÃ° amanna
ĠK F
Ġal ger
Ã¶ st
ĠÃ¡kveÃ° a
ĠlÃ© k
tan ir
maÃ°ur inn
leik ur
ĠstaÃ°fest um
ĠÃ¡st Ã¦Ã°u
ÃŃk u
pp a
Ġums jÃ³n
3 2
rÃ¦ Ã°a
ĠEg il
Ġ201 9
Ġef ast
an i
yf ja
Ġauk ist
Ġsk Ã³g
ĠtÃ¶lvup Ã³sti
Ġ7 5
ĠtÃ¶lu vert
Ġ rig
Ġinn ri
og iÃ°
Ġb and
Ġbr ug
ĠmaÃ°ur inn
m ik
Ġtv Ã¶f
ĠÃĵlaf sson
Ġhaf ir
ĠH eiÃ°
ĠO dd
bÃ¦ ra
Ġkost naÃ°i
Ġtel st
Ġb jÃ³r
Ġsum um
y dd
Ġumsagnir nar
Ġsn yr
E F
Ġf ÃŃ
Ãº ra
end ing
Ġ ðŁ
Ġ un
ĠviÃ°skip t
Ġhev Ã°i
200 6
ĠS and
Ã¡ Ã¦tl
Ãį slen
ĠfÃ¡ a
ĠskilmÃ¡l ana
reiÃ° slu
l Ã¦kni
Ġver nda
Ġs Ã¦k
Ġall ur
Ġ5 5
ĠskoÃ° anir
Ġf m
ĠsviÃ° um
al aus
Ġuppfyl la
Ã¡Ã° s
Ġfullting is
V el
ĠhljÃ³Ã° lÃ¡tt
Ġbar Ã¡ttu
ĠÃŀ rÃ¡tt
Ġall ri
ĠlÃŃf inu
tÃŃ Ã°ir
ĠKefla vÃŃkur
Ġk a
Ġinn lend
Ġeig nast
ĠHr afn
Ġr enna
Ġs org
Ġinn heim
M iÃ°
nd an
ĠskjÃ¡ num
sl ug
ĠGr unn
Ġof tar
rÃ¦ nt
Ġh ind
Ġbur t
Ġk Ã¶nnun
h laup
frÃ¦Ã° ingar
4 2
ĠÃ¾ inni
Ġathug um
hlut verk
ĠHel gi
Ã¶ kv
Ġupp hÃ¦Ã°
fl yt
ĠfjarlÃ¦g jum
ĠÃ¾jÃ³nust ugreinum
ĠframkvÃ¦mdastjÃ³ ra
bb i
h reyf
Ġge sta
k st
ĠframkvÃ¦md ir
ĠbÃºn ir
el g
Ġf la
Ġvar an
T Ã¶l
ing unum
ĠH Ã³tel
bl Ã¶Ã°
stof ur
fl eik
Ġsett ar
Ġber jast
Ġskuld bind
Ġsp or
vÃ¦ n
ĠbiÃ° ja
ĠF er
ĠH M
ĠfulltrÃº ar
d rÃ¦
veg is
Ġg ei
Ġland a
h o
ĠtrÃºnaÃ°aryfirlÃ½s inguna
Ġveg i
ĠfÃ¡ tÃ¦k
ĠbÃ³k inni
ĠtÃŃÃ° ina
rÃ¦ num
Ġnot kunar
Ġlif andi
Ġgest i
Ġ9 9
Ġlist ann
ĠFram sÃ³knar
Ġdag lega
Ġmann virk
ĠJÃ³hann es
afn iÃ°
Ġh ress
ĠÃ¾ekk ingar
at ur
Ġeinstak lega
ĠViÃ° skipta
ld um
ĠB jÃ¶r
Ġskil grein
Ġsett ur
ver ka
Ġopinber um
ec t
e ind
ri m
Ãºt gÃ¡
Ġk ast
m enni
ĠmÃ¶gu legt
ĠOp inber
v ax
ĠSt Ã³r
tion al
ĠmarkaÃ° sset
Ġhe tta
tek t
mÃ¡l i
l ys
ĠC on
Ġb jÃ¶rg
und urinn
ĠÃŃbÃº Ã°ir
ĠD i
h ar
u pa
ĠlÃ¡ t
Â ħ
um b
ĠstjÃ³rn mÃ¡la
ĠAri on
s Ã¡r
Ġmynd ast
Ġtek jur
ĠG yl
Ġein ang
ĠtÃ¡k n
ik ar
ÃŃk i
ĠFjÃ¡r mÃ¡la
s inn
il ld
Ġf j
Ġtil liti
0 8
al eigu
ĠÃįs ra
Ġey Ã°
Ġlang an
am p
Ġtek ist
Ġsein t
S p
Ġupp gjÃ¶r
ald ar
Ġfasteig nas
n esi
vinn sla
Ġkyn nast
fÃ©lag inu
ĠÃŃslensk ri
al and
ĠbÃºn aÃ°ur
Ġfram fÃ¦ri
ĠR it
Ġau gu
Ġein elti
A r
ĠÃ³ l
ĠSt eing
Ġheims Ã³tt
ingast of
Ġver ndar
ĠKat rÃŃ
Ġd isk
Ġskil ningi
av iÃ°
Ġleik menn
ĠÃ¡huga vert
Ġvir Ã°ingu
ĠsÃ¶g Ã°u
ĠB o
ĠferÃ° amenn
Ð ¸
ĠsÃŃ fellt
Ġhugs un
Ġhin ir
ld i
h a
st aÃ°ar
ÃŃ t
Ġst Ã¡l
ĠN emendur
amiÃ° stÃ¶Ã°
ã ĥ
ĠskÃ³l ann
Ġsk ylt
Ġb en
i ska
Ġsp Ã¡Ã°
Ġkos ning
leiÃ° is
ĠÃ³ lÃ¶g
m p
ĠstjÃ³r na
ĠÃ¡Ã¦t laÃ°
ĠnÃ½ tingu
Ġteng ja
Ġstarf andi
Ġfal legt
Ġhen ta
ĠS o
Ġsn jall
Ġ +
ĠmeÃ° li
ĠsjÃ¡lf t
ĠÃŃslensk ir
L Ã¶g
Ġbir tast
Ġger um
v inna
S um
um Ã¡la
Ġskap i
k an
ĠHr ing
ÃŃ tiÃ°
arf i
avÃ©l ar
ĠBretl andi
Ġyfir lÃ½singu
ĠÃ¡ skor
Ġp lÃ¡ss
Ġslepp a
vell inum
BA ND
Ġk allar
h ÃŃas
A N
Ġsveit arfÃ©lÃ¶g
ĠhÃºs i
Ġp er
Ã¡tt ur
L L
Ġsunnu daginn
lÃŃ ka
kyn ningar
Ġley fis
f yrir
el f
ĠÃ³Ã¾ Ã¦g
ĠstÃ³ Ã°u
ĠMarg rÃ©
I F
Ã°u stu
Ġskamm t
Ã¶r k
ĠÃ³ tta
Ġtv isvar
ljÃ³ m
Ġl as
ĠJak ob
Ġ15 0
Ġum sÃ³knar
Ġheim sins
ĠrÃ©tt ur
Ġe ll
Ġg ul
Ġsn Ã½st
mÃ¦ la
U ndir
Ġv ildu
m erki
Ã³ Ã°ar
d Ã½ra
Ġstu tta
Til laga
ĠÃĵlaf s
sjÃ³ Ã°i
Ġ x
Ġendur skoÃ°un
ĠMYND BAND
m ist
hlu tir
I I
Ġv op
ĠfÃ©lag i
ĠSjÃ¡lfstÃ¦Ã°isflokk sins
Ġhr aÃ°a
ĠÃ¾ v
ri ta
ĠfÃ©lag slega
vÃŃs inda
k aÃ°
ĠâĢ ¢
Ãį S
Ġeinstakl ingum
0 6
ver s
Ġ $
Ġeftirlit s
j ist
ĠsjÃ¡ um
ĠbÃº ast
ĠF erÃ°a
ĠHeil brigÃ°i
j enda
ĠsÃ©rstak t
Ġg rip
1 00
Ġfor stÃ¶Ã°um
Ġvef sÃŃÃ°a
ĠgÃ³Ã° ri
ĠvÃ¦nt anlega
Ġhor ft
Ġat kv
Ġbarn s
Ġvel ferÃ°
ĠhÃ¡l fleik
ĠbÃ¡Ã° ir
nd um
ĠSt jÃ³rnar
Ġgl eym
Ġfors endur
sviÃ° s
Ġm eir
Ġt Ã¦r
al Ã¶gum
aÃ° ferÃ°
Ġp ip
Ã¾jÃ¡lf un
ĠGuÃ° rÃºn
ĠrÃ¡Ã°st Ã¶f
ĠSk rÃ¡
Ġhla upa
Ġverk smiÃ°
ĠrÃ¦k t
ĠrÃ¡Ã° her
Ġgild ist
ĠV ÃŃ
Ġsam rÃ¡Ã°
Ġm ak
Ġr os
Ã¶r Ã°u
Ġinn kaup
Ġfory stu
ĠtÃ¦k n
Ġforeldra orlof
kom ur
ĠÃ¾ ak
naÃ° ist
v Ã¦gt
ĠÅ ¤
ĠbÃ¡ t
Ġhlu tum
hÃºs um
Ġy Ã°ur
Ġ '
Ġgam all
Ġspil aÃ°
ĠT r
f ull
ĠverÃ°trygg ingu
0 9
aÃ° r
Ã© la
ĠSn or
Ġb eÃ°
m und
Ġber i
Ġuppli fa
Ã¶tt um
ĠhÃ¡ skÃ³l
Ġung a
ĠnÃ¦r ri
Ġlok s
ĠstrÃ¡ k
ĠhÃ¦f il
ĠgÃ¦rkvÃ¶ld i
Ġk jÃºk
i o
ĠV it
Ġfisk i
Ġflug i
ĠHel g
r unn
ĠnÃ¦ tur
Ġsel t
Ġ6 9
Ġkalla st
Ġform lega
ĠveÃ° riÃ°
Ġst opp
ĠlÃ¡ na
ĠÃ¡rsfjÃ³rÃ°ung i
Ġb isku
Ġinn flutning
Ġborg arinnar
Ġtek nar
Ġskipulag s
ĠM Ã½
Ġlok sins
Ġd an
ill inn
Ġstefnum Ã³t
E B
fer Ã°is
Ġupp lif
ĠM ik
ĠM un
Ġt h
h ildur
tt ar
Ġr iÃ°
Ġleik num
K lapptrÃ©
Ġtil gang
Ġd oktor
Ġnef nt
p rÃ³
ĠviÃ°urkenn ingu
ast eig
ĠatvinnulÃŃf sins
oÃ° iÃ°
Ġs Ãºr
ĠHar Ã°ar
Ġop nar
ĠBr yn
in k
Ġskil ning
ĠIcel andair
tÃŃma bil
sv iÃ°i
Ġf aÃ°ir
Ġhund raÃ°
Ġheimild ir
Ġmenn ingu
Ġs att
Ġupp run
stu Ã°
ĠÃ½m sa
est er
ĠmiÃ° jan
ĠÃŀar na
Ġborg ara
ĠÃ¡rsverÃ°bÃ³l gan
ĠauÃ°veld a
Ġmenningar mÃ¡l
ĠÃ¦f ingar
ĠsÃ¶g ur
L Ã½sing
Ġk an
Ġkonung s
Ġsk ar
ÃŃk t
ĠC om
ĠkÃ¦r andi
framleiÃ° slu
Ġsk jÃ³
hug s
st oÃ°
Ġhugs aÃ°
ĠÃ¾riÃ°ju daginn
ung a
Ġreik ning
ĠlÃŃ till
Ã¦ ja
Ġfram undan
jÃ¶ t
ĠN Ã¦
Ġef niÃ°
s av
Ġsp jall
Ġmynd in
eit ar
Ġfylg t
ĠKann ski
L eik
Ġfasteig n
Ġley f
ĠÃ¡g Ã¦
Ġf Ã¸roy
nd u
Ġd ul
h jÃ³
bÃº Ã°um
yr kur
Ġundanfar iÃ°
ĠN ei
6 7
ĠE nd
ĠfjÃ¶l marg
al eiÃ°
Ġfl Ã³tt
Ã Ŀ
Ġsk jÃ³l
ĠsÃ½ ni
ĠÃ¡r amÃ³t
ĠrÃ¦Ã° ir
ĠfÃ©lag smenn
Ġau stan
Ġleng d
st yrk
ĠÃºt skÃ½r
Ġk artÃ¶f
or p
Ġp la
ykki shÃ³l
Ġverk i
Ġnefnd arinnar
Ġlof ti
Ġg olf
Ġheim inn
Ġreglug erÃ°ar
Ġc a
ĠH ef
Ġfram Ãºr
Ġmeiri hluta
Ġsamning i
Ġheg Ã°un
s eti
Ġr ÃŃ
y sa
efni s
ĠV ald
Ã¦r ri
sam ningar
ĠkjÃ¶ t
fer Ã°a
Ġstarfsl eyfi
ĠviÃ°skiptav ina
stÃŃ ma
Ġeinhver jar
Ġeig andi
Ġ200 2
ĠEy jaf
ĠÃ¾ votta
K K
Ġforeld rum
ĠbÃ¡ru st
ĠBar na
Ã¦ n
ing ja
Ġg lÃŃ
ĠHall g
ĠR a
Ġeink ar
ĠK irkju
Ġkv en
Ġhrein t
Ġinn rÃ©tt
sk irkju
Ġh a
Ġsk yndi
ĠgerÃ° um
at il
Ġsam tÃŃm
Ġgl Ã¦p
ĠKrist ÃŃn
n inn
jÃ³ Ã°ar
v et
ÃŃ ra
Ġsk ug
her berg
ĠT Ã¶l
g en
Ġlok aÃ°
ĠSt ykkishÃ³l
ĠfjÃ³r Ã°ung
Ġs uÃ°
Ġsann fÃ¦r
ĠK ri
Ġsy stur
Ġp o
kr afa
Ġt agi
gr eidd
Ġv Ã¦l
ĠÃ³sk ar
ĠhjÃ³ na
sn eyti
rÃ³ k
ĠfjÃ¡rm agna
Ġc m
ĠhÃ© ldu
d Ã¡
ĠÅ Ĳ
Ã° iÃ°
bur Ã°ur
Ġsam gÃ¶ngu
ĠgrÃ¦n meti
ĠaÃ°ferÃ° ir
ĠÃºtlend inga
uney tinu
ĠFÃ¦ rey
Ġum ferÃ°ar
ĠmÃ³t s
v Ã¦Ã°i
ĠgerÃ° ir
ÃŃn ver
ĠÃ¡framhald andi
Ã¦r um
eg na
sk Ã¡ld
Ġnein um
jar Ã°
Ġheim sm
A nd
Ġstofnunar innar
ĠfljÃº ga
Ġpl Ã¶n
ĠlÃ¦kk un
ĠVil hjÃ¡l
Ã¶m m
Ġh ross
ĠhÃ³p num
ĠjÃ³ kst
Ġfr Ã¦Ã°a
leg rar
ĠsÃ¦ n
ĠÃ¾ro ska
jÃ³ si
ko nu
ĠG e
Ġein i
ĠskrÃ¡ ningar
Ġr jÃ³
L E
Ġfyrir komulag
ĠÃŀess ar
ĠstÃ³r an
Ġaf s
ĠsÃ½ ndi
Ãº Ã°ar
ĠfÃ¦r ni
deild inni
M enn
ĠuppÃ¡ halds
ĠNor eg
Ã¶r ygg
Ġhlut afÃ©lÃ¶g
ĠK R
fyl gjandi
Ġhver jir
Ġn u
ĠbrÃ© fi
h jÃ³l
ĠS ta
ĠÃ¡g Ã¦t
Ġfram mi
ley s
ang ar
fr emur
l unar
ib lÃŃ
Ġfl ÃŃs
it h
Ġfall iÃ°
ĠhÃ¦ st
Ġhlu tir
ĠstÃ¶Ã°ug leika
ĠJÃ³ h
ĠAn na
af la
ĠframtÃŃÃ° inni
tÃ¶l ur
ag an
ĠG angi
h Ã½
Ġbr jÃ³st
Ġver sla
l inu
Ġmyndir nar
ĠsjÃ¡lf bÃ¦r
ĠSt Ã¶Ã°
Ã¦r iÃ°
ĠtÃŃmabil inu
Ġg Ã³l
t Ã¡n
ess u
Ġkost naÃ°ur
Ġskulda brÃ©f
ang reind
Ġst ÃŃl
ll inn
ĠframkvÃ¦md a
ileg ra
ul eika
Ġe il
l Ã¦
Ġhv Ã¸r
Ġst ol
ĠH auk
brÃ¶g Ã°um
ning unni
ĠKÃ³pavog s
Ġstu ttu
Ġrenn ur
Ã¡ tta
ĠÃģr na
lys ingar
ĠO f
Ġflokk um
ĠÃ½m ist
M arkmiÃ°
ĠS Ã¶lu
Ġr o
Ġ6 5
ĠundirbÃº a
Ġger Ã°ur
201 3
ĠB u
lar nir
haf i
Ġsit ur
Ã¶nd ur
Ġd auÃ°a
Ġsn Ã½r
Ġskipu leggja
Ãº ni
lut ninga
ĠsamfÃ©lag iÃ°
Ġvak ti
ĠhÃ¦f ni
ĠL Ã¦k
sh eim
Ġstarf iÃ°
Ġhrein lega
Ġleita st
Ġeig nir
Ġtel jum
Ġney Ã°ar
rÃŃk u
ĠS A
Ġk jÃ³s
ĠfjÃ¶lmiÃ° lum
ĠÃ¸ ll
Ġum rÃ¦Ã°
Ġaf nÃ¡m
Ġbl ess
Ãĸ nnur
Ã¶nd unum
ĠvÃŃ g
P r
Ġk unn
Ġb Ã³l
Ġs leg
ĠJo hn
ĠmeÃ°al tali
ĠÃŃt rek
ĠaÃ°st and
viÃ° skipti
Ġsem ja
ins amlegast
Ġeit ur
ĠaÃ°alf undi
li c
Ñ Ĥ
il ja
tÃ¶k ur
Ġsk ÃŃr
at al
sh er
Ġrey nir
6 9
arf erÃ°
ĠstjÃ³rnar skrÃ¡
. </
Ġgjald miÃ°
ĠspÃ¡ ir
Ġ unnu
Ġt ug
ic k
) :
Ã¦l t
ĠsÃ³lar hring
H iÃ°
Ġstig a
Ġeinhver jir
ei slu
4 1
ĠalÃ¾ingis manna
f und
ĠsjÃ¡lf a
ĠÃ¾rÃ³ a
u Ã°a
sp jall
lag t
ĠvÃŃs u
yfir vÃ¶ld
Ġsvar aÃ°
Ġsam rÃ¡Ã°i
Ġlang a
b re
Ġ as
stjÃ³r inn
ĠverÃ°lag ningu
t engd
Ġs Ã¶kum
Ġkenn t
af ur
ĠH jal
Ġk rakk
Ġbl s
ĠÃŃslensk ar
7 8
ĠhÃ¶f Ã°um
Ġl u
Ġ4 00
ĠlÃ¡ gu
ĠlÃŃkam s
Ã© g
Ġkl st
ĠÃŀÃ³r Ã°ar
Ġkepp num
ĠÃ¶Ã°ru vÃŃsi
Ġp akk
Ġbygg Ã°a
ĠsveitarfÃ©lag sins
ĠframleiÃ° a
ĠnÃ³g v
ĠSam a
Ġsamh liÃ°a
Eng inn
Ġbygg Ã°ar
Ġkra bbamein
ĠliÃ° s
Ġk en
ĠÃºt gef
ĠÃ¡ s
ĠundanfÃ¶r nu
ĠverÃ°bÃ³l ga
l ingu
ett i
Ġhl otiÃ°
ĠÃģr ni
Ã¶r u
ĠMar ÃŃa
ĠÃ¶ nd
ĠD e
ĠrÃ¡Ã°staf anir
Ġk g
ĠsÃ©r hÃ¦
Ġvin ir
ĠA g
ĠÃĸ l
ĠU ndir
Ġmet in
I nn
4 3
ĠÃ³ m
ĠnÃº tÃŃm
f Ã¡
band alag
Ġ ch
iss a
I S
Ġeig na
Ġverk iÃ°
l urnar
19 8
r enn
jÃ¶ ri
ĠauÃ° l
ĠE yr
Sk rÃ¡
ĠSam taka
ey k
ĠÃºt il
Ġget u
un efnd
S n
ĠÃ¾Ã¡tt ur
ĠfyrirtÃ¦k inu
ĠstaÃ°fest ingu
Ġstof na
Ġal manna
Ġrit hÃ¶f
Ġvef sÃŃ
vÃ¦ la
Ġstofn unum
Ġkv eik
Ġ4 9
Ġlof tiÃ°
ĠviÃ°skiptav ini
Ġathugasemd um
sst Ã¶Ã°um
ĠKÃ³pav ogi
ĠuppÃ¡ st
Ġt utt
ĠhÃ¡l end
Ġm el
ĠfÃ¦r ri
k ona
ĠmÃ¦ list
s e
Ã¦ Ã°ar
Ġbir tar
ja sta
Ġhl Ã©
mark aÃ°
Ġtilkynn ti
st Ã¶rf
r Ã¶Ã°
k ra
Ġf ing
Ġemb Ã¦tti
Ġspar is
Ã¶l ur
ĠmiÃ° la
id e
ĠviÃ° halda
ĠmÃŃ nar
ĠtÃŃm anum
ĠSp ort
sleg um
Ġs alt
ĠN Ã¡
ĠgÃ¶m ul
an efndar
Ġr ug
ĠhÃ¦kk aÃ°
Ġpen ingum
Ġsam iÃ°
ĠkvÃ¶ld iÃ°
E itt
ĠÃ¦ fa
Ġhver gi
. [
Ġh aus
ĠhÃ©r lendis
ĠÃ¾arf tu
Ġdr ei
Ġd val
ĠE Ã°a
Ã¶f inni
ĠF Ã¡
h or
en a
kom in
afÃ©lag iÃ°
Ġkom um
ĠveiÃ° a
t unum
ĠK vikmynd
Ġh inni
leiÃ° slu
ĠSuÃ°ur lands
âĢĿ .
borg arar
ĠÃºt bÃº
ĠAl Ã¾jÃ³Ã°
em ÃŃ
ĠÃģg Ãºst
ĠkÃ¦r u
Ġundan tek
Ġfag na
Ġtilfinn ing
Ġendur greiÃ°slu
ĠMo sf
ker fisins
eng is
Ã¶f num
Ġafh ent
ĠfjÃ³r ar
ĠfjÃ¶l brey
Ġsk jÃ¶l
na b
Ġv Ã¶nd
Ġfre lsi
Ã¦ti s
skÃ½r slu
lÃŃ nu
efn an
Ġbar Ã¡tt
sk ju
ĠÃ¡tt um
6 8
Ġd ru
Ã¶k unar
ĠE nter
l unum
ĠHar ald
vÃŃ g
ri d
ĠhÃºsnÃ¦Ã°i smÃ¡l
ĠhÃ³tel a
ta s
ĠnÃ¦r ingar
Ġpa ppÃŃr
Ġrey k
ĠÃŃslensk rar
Ġ jÃ¡r
ĠrÃ¡Ã° um
ĠfÃ¦Ã°ingar orlof
ĠPar ÃŃs
ĠRÃº nar
ĠÃ¦ sku
ĠlÃŃkam a
Ġstof u
7 5
Ġv ina
Ġ200 1
ri kk
Ġr aÃ°
rÃ³ Ã°ir
epp i
Ġstra um
ĠAll s
ver Ã°ur
Ġof ur
asemd ir
Ã¦Ã°ingar orlof
ber andi
Ġskemm ti
Ġm Ã¦ttu
Ġef st
Ġkos ninga
ã Ĥ
ĠrÃŃk ja
Ġsam tali
Ġfal iÃ°
bor iÃ°
Ġst eik
Ġn efni
heim il
J Ã³
l ei
ĠReykjavÃŃkur borgar
ĠM ag
ĠÃģ Ã°ur
al ÃŃf
r in
ĠÃ¾ rÃ¡
ald ri
deg inum
l es
Ġgrein ir
ĠauglÃ½s ingar
k epp
Ġsvar aÃ°i
Ġt jÃ³n
ĠE ur
Al menn
ĠleiÃ° arl
Ġkref jast
ul eiÃ°is
nÃ¡ mi
ac k
Sk ip
Ġverkefn inu
ĠhÃºss ins
l eit
m ent
Ġref s
0 1
Ġp anta
O piÃ°
Ġor k
t e
ĠÃ¾Ã¡tt um
ĠaÃ°ferÃ° um
Ġlit lum
R E
ĠUmhverfis stofnun
Ġgild andi
ĠS jÃ³nvarp
ĠaÃ°ildar rÃŃk
i on
Ð ½
N Ã¡m
r andi
Ġnot aÃ°ur
ĠsÃ½ k
Ġkyn nir
p unk
Ã³ Ã°i
Ġend aÃ°i
ĠM art
ĠB lÃ¡
Ġvor iÃ°
Ġerf Ã°a
arf irÃ°i
ĠrÃ¡Ã° iÃ°
lag s
199 1
ĠB rey
tan rÃŃkis
ĠfrÃ©tt um
Ġd eig
ĠÃ¡kveÃ° na
Ġstofn ana
k enni
ĠV Ã©l
ĠÃŃbÃº Ã°a
199 3
ĠLjÃ³smynd ir
Ãŀ ema
Ġef laust
eng ja
Ġm Ãº
ĠstarfsfÃ³lk i
fir Ã°
tt an
un ir
im p
Ġ =
Ġfyrir fram
o ck
Ã ¤
Ġyfir lit
ag s
j am
ĠBygg Ã°a
fr v
ĠvÃŃ Ã°ar
Ġs undur
im ar
ĠfÃ¦r t
Ġlaus nir
Ã¡ byrg
Ġbar st
Ġst ur
Ġl ei
Ã¦Ã°ingarorlof ss
Ġfl y
Ġef ri
E l
ĠskÃ½r t
horn iÃ°
Ġh Ã¶gg
Ã© kk
boÃ° aliÃ°
ĠÃ¡v Ã¶x
ĠlÃ¦kni s
Ġeld hÃºs
Ġb yl
ĠgjÃ¶ld um
ug lar
Ġgrein um
Ġn jÃ³
sl aus
0 2
Ġh ol
ĠnÃ¡ttÃºru vernd
Ġ199 0
ar v
vil iÃ°
Ã¸ gu
ĠÃ¡st Ã¦Ã°um
Ġpa ss
Ġt eim
Ã¸ Ã°
Ġeinf Ã¶ld
ĠÃºt reik
Ġnota st
Ġfyr stur
ey g
y p
Ġaug lysingar
ĠbÃ¦jar ins
ĠA d
Ġ4 2
ĠvÃŃs b
ĠsjÃ¡lfst Ã¦tt
Ġsm ÃŃÃ°
ĠmarkmiÃ° um
Ġleik s
ĠFrakk landi
Ġtil skip
Ġtak t
ĠsjÃºk linga
Ġhund ruÃ°
yr a
ĠviÃ° hald
T he
sk jal
ĠH jÃ¡
ĠtÃ¶lu blaÃ°
ĠÃºt flutning
Ġinni halda
Ġ10 1
f rÃ¡
ĠÃŀor steinn
i ka
ĠeÃ°l ilega
r al
Ġker fiÃ°
Ġheit iÃ°
Ġn Ã¶fn
Ġst Ã½ra
ĠM Ã³t
ĠA mer
ĠviÃ°skiptav inum
ĠJÃ³ na
ĠembÃ¦tt is
ag e
ĠnÃ½ tist
Ġsinn t
ig t
ĠnÃ½ bir
Ġg ag
Ã¶ stu
Ġfyr rum
ĠmiÃ°viku dag
ĠmÃ¶r kum
ĠHafnar fjarÃ°ar
ĠuppÃ¡ komur
Ġh Ãºm
Ġhluta brÃ©f
Ġk Ã¦mi
Ġdreif ingu
at ÃŃ
emm t
Ġsv art
sv egar
Ġheima sÃŃÃ°
Ġ4 1
Ġg os
var i
afÃ©lag sins
Ġjafn vÃ¦gi
afl okki
jÃ³ ni
Ġrek ur
min jasafn
t eg
ĠT ak
ĠniÃ°ur staÃ°a
Ã¾rÃ³ tta
ol ÃŃu
6 5
All ir
sam ningi
Ġbor Ã°i
Ġbr Ãºn
Ġminn ir
am ik
201 2
ĠbÃŃ last
rÃ¡Ã° s
ut h
Ġef a
ĠMenn ingar
ĠÃ¡kv Ã¶rÃ°
7 2
o gar
Ãŀ rÃ¡tt
ĠbÃº vÃ¶rum
stÃ¶Ã° inni
ĠmeÃ° vit
rÃ¡ Ã°a
Ġalla vega
s ala
ĠL ok
I ÃĲ
Ġd jÃºp
ĠÃ¡st Ã¦Ã°ur
ĠrÃ¦ Ã°u
SÃ½ na
dd ar
Ġ Ġ
ver Ã°a
er ka
ĠSuÃ°ur nes
ĠG ott
z a
um iÃ°
ag iÃ°
m t
ĠAnnar s
Ġl Ã¶ng
ĠlÃŃk legt
Ġkr ydd
ĠFram kvÃ¦md
Ġstig um
aÃ°s dÃ³m
ĠhjÃºk runar
na pp
Ġf urÃ°u
Ġsk Ã½ra
la uk
F jÃ¡r
Ġsv Ã¦Ã°um
ĠI S
Ġd Ã¶finni
ind ur
Ġeink enn
ĠFyr sta
Ġ8 8
Ġinni hald
ing inn
s el
Ġta pa
ent un
a ti
Ġg ir
ĠÃ³ n
Ġbl Ã¶nd
Ġtal ar
Ġnot enda
ĠeÃ° lis
itt er
ĠÃ¡st Ã¦Ã°
Ġ9 8
ĠM aÃ°ur
ĠjÃ³ lag
Ñ Ģ
Ġst oÃ°
d um
ĠS et
ĠH Ã¡l
v alla
lu s
Ã¶gul eika
ĠÃŀor stein
Ġbr jÃ³ta
Ġstarf aÃ°i
ĠfÃŃk ni
ĠL ist
Ġstarfsm ann
ĠSigurÃ°ar dÃ³ttir
l estur
sÃŃ u
Ġflokk sins
ĠE Ã°
9 00
Ġum tals
Ġ6 8
flokk sins
an ak
> </
ĠrÃ½ mi
ĠEir ÃŃk
f Ã¶ng
Ġl eiti
Ã¡ t
ĠF ar
g e
ĠNÃ¡nar i
Ġvik na
ĠaÃ°gang ur
ĠsÃ©r lega
ĠÃ¦ Ã°i
Ġmill jÃ¶rÃ°um
Ġbl anda
Ġsn illd
ĠH lut
Ġfor set
Ġsag Ã°ist
ĠSk Ã³la
ey t
b jar
j o
ĠÃºr gang
ĠG ro
Ġpl Ã¶tu
Ġnefnd ar
menn sku
ĠM el
ex t
ĠSum ir
ĠgÃ³Ã° ir
Ġfang elsi
au gar
Einn ig
Ġfal li
ĠÃ³v enju
ĠkrÃ¶f um
e a
ĠbÃ³k ina
ĠÃįsland sm
Ġauk in
ĠJÃº lÃŃ
Ġl iÃ°ur
Hver nig
Ġd jÃº
ĠfÃ¦ tur
af ram
ĠÃ¾Ã¡ tta
ĠP er
ĠÃ¡g rein
ĠÃ¾r Ã½st
ĠÃŀ Ã³tt
Ġyfir borÃ°
Ġbreyt inga
ĠlÃ¦g ri
Ġc ookies
Ġb Ã¦k
Ġsp jald
ĠJ Ã¶k
Ġkraf a
sg rein
k os
Ġland slag
lÃ½s ing
ĠnÃ¡ i
Ġjafn rÃ©ttis
Ġhugmynd um
ĠS an
Ġef stu
skÃ³l ar
ĠSeÃ°lab ankinn
Ġsk Ã¶mmu
Ġheim av
sv Ã¶r
Ġland smanna
t aÃ°i
Ġn einu
ĠrÃ©tt u
g Ã¶tu
ĠÃ¾ eg
Ã³ su
br Ãºn
Ġh av
Ãŀ vÃŃ
Ġdeild ar
ĠÃŀ ur
eftir litiÃ°
ĠpersÃ³nuupplÃ½s inga
g is
Ġinn flyt
Ġteim um
ĠEF TA
ĠR af
Ġfund inn
ĠÃ¡k af
Ġj af
and ans
ĠÃ¾arf ir
Ñ ģ
Ġhe ill
g Ã¶gn
sl Ã¶g
Ġker fis
S eÃ°lab
Ġskuld ir
Ġgrein ingu
ĠH B
Ġb rÃ³Ã°ur
ĠJÃ³n sdÃ³ttir
ĠsjÃ¡lf u
ĠS tur
bund iÃ°
Ġhreyf ingu
V erk
Ġf est
Ġbyrj aÃ°
ĠÃ¡ berandi
ĠviÃ° kvÃ¦m
af lug
veld i
Ã ¨
st ill
Ġreyn st
Ġefnahag srÃ¡Ã°
Hug myndir
Ġs lag
Ġm Ã³Ã°ir
V ef
ĠM in
verÃ° trygg
g il
ĠF Ã¦Ã°ingarorlofss
Ġkyn ningu
Ġdag legu
ĠGr inda
ĠstaÃ° ir
d eil
skar andi
Ġflokk ur
ĠN Ã¡mskeiÃ°
not kun
Ġfar inn
ĠferÃ°a Ã¾jÃ³nustunnar
Ġm Ãºs
Ġvatn iÃ°
sjÃ³ Ã°ur
Ġfrum kv
Ġfyl la
t d
ra st
Ġk enni
ĠSig lu
Ġhagsm uni
eng ing
f lu
h lÃŃÃ°
s Ã¶gum
Ġbrey st
Ġ6 1
ĠÃ¡hug i
ĠuppÃ¡st ungu
ĠÃģ st
Ġ >
ĠfjallaÃ° i
Ġf jÃ¶ll
ĠO k
Ġkennar ar
ĠfjÃ¡rm Ã¶gnun
ĠalÃ¾jÃ³Ã° lega
Ġv Ã¶ld
ĠdÃ³m stÃ³l
lau su
f al
ĠA SÃį
ĠMatt hÃŃas
ĠE ll
Ġuppg Ã¶t
o o
skip t
Ã¡ Ã°i
Ġleik jum
ĠprÃ³ sen
Ġl enti
ĠmiÃ° jum
Ġv Ã¶kv
Ġmynd ar
Ġr Ã³t
S Ã©r
Ġmikil s
stof unni
Ġrey ndi
t Ã³n
sjÃºk dÃ³m
R ÃŃk
reg lum
Ã¦ slu
ĠmÃ¡l efnum
ĠMagn Ãºsson
ĠUmhverfis stofnunar
ann ar
ĠN ot
rÃ½ st
ĠhÃ¡ degis
ĠnÃ½ veriÃ°
ĠverÃ° brÃ©f
Ġg laÃ°
Ġmill um
kyn hneig
Ġbarn sins
laus n
K om
M A
v eig
Ġsm jÃ¶r
Ġmet naÃ°
Ġvit ni
Ġros alega
Ġo ss
ĠÃºt sÃ½ni
ĠBÃ¦ jar
ĠB aldur
ĠGunnar sson
okk a
ĠSjÃ¡ var
ĠÃ¡ratug i
vÃ¶ll um
Ġ6 7
H el
Ġd auÃ°
Ġskor aÃ°i
hÃ¡ skÃ³la
ĠH orn
ĠmiÃ° ju
sn iÃ°
ĠsÃ½ nist
Ġflug vellinum
Ġheyr t
Ġleidd i
SÃŃ Ã°an
ĠU n
ĠsamfÃ©lag sins
Ġn orÃ°
Ġ1 20
ĠSk rif
ĠK Ã¦r
ĠA ld
eit um
ĠbÃ¦ tir
gr unn
ĠSn Ã¦r
ĠhÃ³p inn
Ġnokkur ra
ĠlÃ¦k na
ĠmÃ³t inu
ĠmiÃ° lun
Ġ *
br agÃ°
ĠÃįtal ÃŃu
F ara
stÃ¶Ã° in
m ingar
rÃ¦ tt
Ġkeyr a
s y
al Ã¡
ĠO l
Ġsund laug
Ġsk rey
Ġverkefni sins
Ġeru Ã°
eng t
Ġhe yrÃ°i
ĠÃŀor lÃ¡
stÃ¶Ã° vum
aÃ° inn
ĠÃ¡ reiÃ°
Ġsv eig
Ġmist Ã¶k
ĠA ug
ĠÃ¾jÃ³ na
Ġhes um
Ġand lit
TÃ¶l vur
Ġg Ã¶ng
ĠfarÃ¾ egar
ĠfatlaÃ° ra
M Ã¡l
Ġstarfsm Ã¶nnum
Ġsann leik
199 5
Ġutan aÃ°
ĠS tu
f yrirtÃ¦k
Ġgef st
ĠsjÃºk dÃ³ma
Ã³ka safn
A uka
Ġfrum kvÃ¦Ã°i
Ġh ollu
gjaf a
ĠlÃ½ sti
ĠSigur jÃ³n
ĠVeg na
ĠsamfÃ©lag smiÃ°
stÃ¦Ã° an
vÃ¶ll ur
ĠrÃ¦k tun
ĠÃ¡h Ã¦tt
Ã¡ Ã°u
ĠaÃ° dÃ¡
Ġsaman tekt
Ġsaman boriÃ°
orÃ° iÃ°
ĠB akka
ĠhljÃ³ ta
ĠEinar sson
ĠfÃ¡ st
ĠfrÃ¡ bÃ¦ra
ĠÃŀ eim
ĠsÃºkku laÃ°i
Ġk ÃŃkja
Ġkl Ãºbb
K eppni
ÃŃ tar
Ã© t
ĠstÃ¦r sti
g inn
h Ã¦ttu
ĠG rÃŃms
Ã¶Ã° in
ĠBjÃ¶r k
heim ilt
ĠÃ¾rÃ³ ast
6 6
Ġvef svÃ¦Ã°i
ĠstuÃ°ning s
Ġfit u
Ġstarf sem
Ġfor rit
Ġranns ak
h eiÃ°
ĠÃ¾ vert
ĠEvrÃ³pusamband inu
in o
il ma
em b
Ġsk Ã¶ttum
Ġvir Ã°is
ĠsÃ¶g unnar
ĠaÃ° lÃ¶g
Ġfor stjÃ³ra
v irÃ°i
ĠH au
ĠT ra
ĠÃ¶ kum
fre stur
I n
eik i
Ġf jÃ³ra
Ġminn ingar
un t
Ġstarf skjÃ¶r
ol ÃŃ
ĠpersÃ³nu lega
sl ok
% ,
sk ild
ĠaÃ°ildar viÃ°
Ġskilyr Ã°um
ĠÄį ÃŃ
Ġtrygg ingar
sk Ã¡l
Ġstr Ã¶nd
ĠlÃŃf sins
efn in
ĠbÃ¦ tur
hÃ½ si
ĠafleiÃ° ingar
ĠHann es
Ġherberg is
ĠF orn
Ġfl ogiÃ°
lÃŃ Ã°an
a tion
Ġgeng u
Ġv Ã¶x
Ġaug lÃ½st
ĠÃ¾e kki
Ã³m ynd
Ġy vir
ĠÃįsra el
ĠBenedikt ssonar
B V
St Ãºd
Ġsk jÃ³ta
l ine
ĠGÃŃ sli
Ġver ka
Ġ7 7
ĠlÃŃf sg
ljÃ³m sveit
Ã¾ aÃ°
ĠV G
Ġhl eÃ°
bygg Ã°in
sv ein
ĠSp Ã¡
Ġ an
ĠsjÃ¡lf krafa
Ġfund um
Ġb it
bl e
Ġupp skriftir
ĠG reiningardeild
Ġeinstakl ingur
sk if
ro p
d Ã³mi
f ast
Ġvel ur
drÃ¡tt ar
w itter
Ã³ tta
Ġeng um
Ġ199 9
ĠsÃ½ slum
5 3
H jÃ¡lp
B r
m Ã¶gnun
ĠE d
Ã©tt i
Ã¶n nuÃ°
ĠLaugar dal
Ġh jÃ³n
ĠHÃºsa vÃŃk
Ġupphaf lega
Ġf ars
Ġtak mÃ¶rk
ĠL ÃŃk
ĠnÃ½ja sta
ĠÃ¡nÃ¦g Ã°
unn iÃ°
ĠSelfoss i
Ġfre ls
Ġeinstakl ings
S em
Ġsm ell
Ġfors endum
ĠÃ¾yng d
p la
al ar
Ã¡ mi
Ġey kur
ĠF ull
skip an
Ġbjar t
Ġeig endur
ĠmÃ¡nu dag
ĠveÃ° ri
h all
ĠdÃ½ p
Ã¦ tur
rÃ³ Ã°
I K
aleg u
ar eg
sl eiÃ°
ang av
ĠsÃ½ning unni
Ġla unum
Ġveitt i
ĠSk Ãº
Ġvak iÃ°
Ġand stÃ¦Ã°
au Ã°i
Ġsafn aÃ°
stak lega
Ġpa ssa
ĠgÃ¡ tu
Ġm jÃºk
ĠnÃ¡ttÃºru lega
d er
v atni
ĠS T
ĠskÃ³l um
Ġs j
0 3
ĠsÃ½ ningu
Ġvinnu brÃ¶gÃ°
Ġhagn Ã½
ĠnÃ½ s
or ld
Ã³l fur
Ġinn viÃ°
Ġalger lega
R ey
ro s
ĠlÃ© st
Ġ16 1
Ġeinst Ã¶k
jaf a
ĠÃĸ nnur
rÃ¦k tar
N or
Ġvo num
aferÃ° ir
ĠLjÃ³smynd un
ljÃ³ s
ĠAt hug
Ġm m
ÂŃ ÂŃ
Ġfund ur
ĠrÃ©tt um
ĠtrÃº a
Ġhvatt ir
g ildi
ĠgrÃŃ pa
Ġh ir
sÃ³k num
l yndi
ĠskjÃ¡ ir
Ġh rÃ³
Ġp Ã³
ri ti
Ġs auÃ°
Ġv Ã¶k
ĠÃ¾ rÃ¦
0 4
miÃ° a
Ġsaman st
ĠE v
ĠbjÃ¶rg unar
Ġ yndi
Ġsk ri
ef li
ĠG re
Ġendur sk
jÃ¶k li
ĠleiÃ°arl jÃ³si
Ġalvar lega
Ġvek ur
Ã¶f ur
Ġrek iÃ°
ĠutanaÃ° komandi
eig a
an Ã¡m
Ã³ f
an legar
ĠL ind
ar ins
ĠF ljÃ³
Ġundan Ã¾Ã¡
Ġskip uÃ°
ĠslÃŃk u
ĠVestf jarÃ°a
b rauÃ°
Ġh Ã¸v
nÃ¡m skeiÃ°
ĠstÃ³r kost
ĠKaupmanna hafnar
ĠnÃº tÃŃma
Ġskip tist
Ġmerk ingu
v iÃ°ur
Ġsameigin legt
ĠSkip ulag
il lu
I cel
j ung
ĠniÃ° ri
Ãº k
ĠÃģ lf
Ġ )
hÃºss ins
Ġkennar i
lau sa
Ã¶r nin
s Ã¶gur
ĠÃ¡hugaver Ã°a
tt ur
Ġf Ã©lÃ¶gum
av n
ĠG au
Ġs onur
Ġvetur inn
rÃ¦ ti
n ema
arf Ã©lÃ¶gum
E ig
Ġtek st
ĠKefla vÃŃk
b oÃ°a
ĠÃįs afjarÃ°ar
G reinar
Ġalmenn ingi
Ġleng st
Ġj Ã¶rÃ°u
ĠframÃºr skarandi
NÃ½ jasta
Ġnefni st
ĠdÃ³tt ir
heil su
l en
Ġmynd avÃ©l
Ġkepp endur
Ġl amb
Ġfram kvÃ¦ma
Ġheim ildar
h Ã¡tt
Ġsv ik
j urnar
skipulag i
Ġgr unni
st efna
ĠlÃ¦r t
sl eit
Ã¡r s
ĠleiÃ° sÃ¶gn
Ġendur greiÃ°
f Ã¶ll
ĠsÃŃ man
ĠhÃ¦ starÃ©ttar
ĠÃĵ skar
ĠhÃ¶f undur
an legur
ĠnÃ½bir tum
E y
ĠMÃ½ vatn
b ank
jÃ³ ri
ĠL ax
ĠP ort
heimild ir
ĠÃ¾ jÃ³n
Ġkvikmynd ir
Ġr amma
Ġop num
d an
Ã¦ dd
er ra
ĠferÃ° um
ĠfÃ³lk sins
ss Ã½
ek stur
ĠkÃŃl Ã³m
Ġv iti
ĠhÃºs a
ĠÃ¡st andi
h i
Ġf esta
Ġgeym slu
Ġvarnar aÃ°ila
R A
ĠÃ¾ing i
ĠpÃ¶n tun
ĠviÃ° tali
ĠÃºthlut un
Ġmann kyn
ĠÃĿ ms
ĠlÃ¶g in
k or
Ġeftir liti
Ġh rif
Ġ7 2
Ġsof a
Ð¾ Ð
ĠviÃ°bur Ã°i
ĠsamÃ¾ykk ti
tar nir
ĠS aga
199 2
Ġstr and
ĠLandspÃŃtal a
ar e
ĠbÃº Ã°
ĠFÃ¸roy um
Ġnot aÃ°i
ei s
stjÃ³r ar
ĠGu Ã°i
on andi
okk u
ĠhjÃ³ la
skyn ning
ĠRÃºss landi
ist i
Ġfylg di
aÃ° ilum
er g
Ġ5 7
ĠN okk
ĠÃ¾ jÃ¡
ĠÃ¡ rÃ¡s
Ġtal aÃ°i
ĠÃ¡b endingar
% ...
Ġg ra
Ġdre kka
smÃ¡l arÃ¡Ã°herra
Ġ8 7
Ġfylg st
ĠH Ãį
ĠviÃ°urk ennd
ĠÃŀorlÃ¡ k
Ġupp setningu
ĠAl Ã¾Ã½Ã°u
Ġ is
Ġe x
ĠsÃŃÃ° unnar
ĠÃ¾Ã½ Ã°ingu
Ġev ra
Ġframl eidd
v Ã¦Ã°
ĠkÃ¶rf unni
sh Ã¶f
Ġley fir
Ġleik iÃ°
ĠÃ³sk um
ĠbÃ³ lu
Ġor kum
Ġl e
ĠU ms
l na
sleg u
Ġsk rÃŃ
Ġop naÃ°
ĠverÃ° launa
ag rein
ĠSÃ¶lu torg
ĠEl sta
ĠbÃŃ Ã³mynd
ĠK ennar
Ġokk um
ĠfjÃ¶lskyld ur
h Ã¦tti
Ġl ins
Mynd bÃ¶nd
ĠbÃŃ Ã°ur
vÃŃs un
Ã¶ndur horniÃ°
Ġh al
Ġpa kka
uss u
Ġmark i
re d
ĠrÃŃk iss
Ġp rÃ½
Ġtung u
ar n
hag sm
Ġfor Ã°ast
ĠfÃ¦ ddur
h one
fang a
ĠS ver
ost naÃ°ur
Ġ8 9
ĠSv an
Ġrek str
ver Ã°ar
ul um
jal li
ĠE kkert
liÃ° i
ĠY ou
Ġor Ã°i
ĠmÃ³ ta
veit u
e kki
sam bands
ĠTh or
Ġsp ill
Ġveit inga
Ġath Ã¶fn
Ġsp reng
as p
ĠE gg
ĠstÃŃ ga
Ġlit um
Ġflest ar
ĠT Ã¦ki
ark it
ĠR Ã©tt
ort iÃ°
ĠstjÃ³rn un
nar i
Ġhin ar
Ġsam takanna
ĠT e
Ġbest i
m en
ÃŃ fi
ĠH Ã¶
ĠlÃ¶g Ã°u
ĠT Ã³l
dagskvÃ¶ld iÃ°
aÃ° ra
Ġland am
Ġeld sneyti
ĠVin stri
ĠL eit
Ġhor m
ĠÃ¡rangur s
bÃ½li shÃºs
ĠH and
Ã¦l ir
ĠS il
Ġvik iÃ°
Hv ort
sl egar
Ġhvet jum
Ġkraf t
n am
Ġtal sins
ĠGÃŃ sla
ver ja
Ġundanfar na
LjÃ³smynd ir
Ġstyrk i
afÃ³lk i
bÃº Ã°ar
arÃ¡Ã° s
h ef
ĠÃŀ Ã¡tt
ĠviÃ° tÃ¶l
entar ar
on ald
bÃ¦r t
c t
ĠfÃ¦r slu
ĠtilbÃº in
ĠAkran esi
ĠbÃ¡ Ã°ar
ĠÃ¡fang a
Ġvef urinn
ĠmiÃ° hÃ¡l
ĠdÃ³m ara
Ã¾ r
l inn
Ġtek inn
Ġvinnum ark
ĠGar Ã°ar
ĠsÃ©rfrÃ¦Ã° ingar
Ġfal leg
mi slegt
ĠG rikk
Ãĵ ska
b Ã¦kur
Ġopinber ra
ĠhÃ¶fuÃ° borg
ĠrÃ¡Ã° sins
H Ã¶f
ÃŃ m
bÃŃ la
af Ã©
ĠÃºti vistar
Ġvelkom nir
H ag
gang a
S S
lÃŃ fi
fÃ¶r um
rÃºm sl
Ġ8 5
ĠsjÃ¡lfs agt
ĠkallaÃ° ur
Ã¾ ega
Ġat vik
ĠJÃ³ nas
A L
sÃŃ ma
Ġinn ra
Til kynningar
ÃŃ ska
Ġp Ã³l
ĠsÃ¡ u
ĠljÃ³ sm
Ġkyn ferÃ°is
Ġkos ningum
n anna
o sti
ĠtÃŃm inn
Ġstef nt
ĠF rÃŃ
ĠK Ã³l
Ġyfir vÃ¶ld
Ġd Ã¦ma
Ġspur ningu
ĠMargrÃ© t
a var
al Ã¦k
ĠG rein
bund in
Ġsk era
ĠÃŀor vald
Ġs agn
Ġfimmtu dag
Ġbrot iÃ°
g Ã³Ã°
Ġfor vit
d ist
ĠÃ¾ Ã¦tt
ĠsÃ©rfrÃ¦Ã° inga
ĠvinsÃ¦ la
b Ã³
Ġk Ã¶lluÃ°
a sh
ĠsjÃºk lingum
hygg ju
ĠH jÃ¶r
ĠverÃ° mÃ¦ti
Ġkv enn
nu stu
ĠÃ¡rsreik ninga
gjaf i
Ġp Ãº
ĠupplÃ½singar nar
ĠGunn laug
Ġh eitt
ĠF ariÃ°
as a
ĠÃģ s
Ġver ald
ĠlÃŃ Ã°an
ĠmjÃ³l k
ĠaÃ°lÃ¶g unar
ĠFr ank
ĠfÃ©lag smanna
ĠÃŃbÃºÃ°ar hÃºsnÃ¦Ã°i
G agnrÃ½ni
ĠMosf ells
h run
ĠjarÃ° skjÃ¡lf
Ġstyrk tar
nu Ã°um
ĠS eg
ĠmÃ¦ tir
Ġvinnu veit
Ġsek Ãº
ĠfarÃ¾ eg
h reins
ĠlÃŃkam anum
flug velli
geng ni
Ãģr bÃ³k
M ikil
Ġfar ar
Ġkenn il
ĠByggÃ°a safn
a F
Ġhaf na
sp ar
ĠJ arÃ°
Ġklukk u
Ã¡ kvÃ¦Ã°i
Ġgetur Ã°u
O r
s Ãºrslit
ĠfjÃ¶l gun
ulltrÃº ar
Ġranns aka
Ãºt varp
st Ã¦Ã°um
ĠmÃ¡nu Ã°ir
Ġflokk s
Ġb ra
B l
Ġk ap
Ġd ra
ĠÃ¡kaf lega
Ġk yrr
Ġkyn ferÃ°i
Ġsm Ã¡tt
ĠÃ¡f engis
Ġber st
F uglar
Ġum sÃ³knir
ey pa
Auka hlutir
fel ld
201 5
ĠÃ¡ra bil
ĠkrÃ³ nunnar
ĠLjÃ³s Ã¡r
ĠnÃ¡ Ã°u
Ġeinka hlut
ĠS Ãģ
ĠÃ¾ Ã¦ttir
Ġaug nab
ĠS on
Ġst Ã¶kk
Ġsm Ã¦rri
ĠT Ã³ma
Ġb Ã¦r
Ġgrein argerÃ°
ĠauÃ°l indum
ĠK eppnir
Ġsam kynhneig
Ġer ind
Ġev ru
ĠB ru
Ġkyn lÃŃf
ĠfÃ¶ t
skap lega
Ġeinstak ra
StÃºd ÃŃÃ³
ĠD aga
ĠSam tÃ¶k
Ġbolt ann
ĠfÃ¦dd ist
Ġlegg jum
Ãº g
ist of
Sig ur
Pr entun
ĠAl menn
ĠÄĽ ÅĻ
ĠsÃ©r hÃ¦f
ĠSig rÃŃÃ°ur
ĠL aug
ĠbÃ¦ j
Ġfinn ast
po ol
v estur
ĠVik ur
Ġbrey tast
kenn slu
Ġnei kv
Ã¦ tta
reiÃ° slur
Ġaf komu
Ġskap andi
ĠUpp lÃ½singar
Ġbr enn
fÃ¦r t
Ġk lass
as Ã½
rÃ©tt ind
Ġd Ã³mi
na tional
K eppnir
ĠPr entarar
Ġop inn
Mynd avÃ©lar
Ġs Ã¶k
Ã¾ ol
Ġmynd list
ĠB yr
Ġsameigin lega
Ġtutt ugu
b Ã¶ndum
hv ort
Lands byggÃ°in
K rist
Ġv Ã¶ll
ĠnauÃ°syn leg
Mynd vinnsla
F ilma
ĠMÃ¡ nuÃ°
dÃ³m ara
frÃ¦Ã° inga
Ġvar afor
sh ygg
ĠrÃ¦ ddi
Ġbjar ga
Ġn ev
Ġeftir Annar
ĠmÃ¡l LandsbyggÃ°in
Ġvef Keppnir
ĠsÃ¶lu Ãĵska
All ar
Ġgangi Keppni
ĠumrÃ¦Ã°a SjÃ¡lf
LjÃ³smynd atÃ¦kni
ĠDÃ½r Ãŀema
ĠOpinber aF
LÃ½sing Filma
Ġkeppnum UppÃ¡stungur
NÃ¡m HiÃ°
ĠdÃ¶finni Ãĸnnur
ĠskjÃ¡ir Prentun
Greinar Myndvinnsla
skynning GreinarMyndvinnsla
LjÃ³smyndir GagnrÃ½ni
Tilkynningar Hugmyndir
sÃºrslit Ãģ
Aukahlutir HvaÃ°
ĠPrentarar AukahlutirHvaÃ°
MyndavÃ©lar StÃºdÃŃÃ³
ĠgangiKeppni sÃºrslitÃģ
ĠumrÃ¦Ã°aSjÃ¡lf skynningGreinarMyndvinnsla
LjÃ³smyndatÃ¦kni HjÃ¡lp
ĠDÃ½rÃŀema MyndbÃ¶nd
ĠOpinberaF Ã¶ndurhorniÃ°
LÃ½singFilma TÃ¶lvur
LjÃ³smyndirGagnrÃ½ni Fuglar
ĠumrÃ¦Ã°aSjÃ¡lfskynningGreinarMyndvinnsla LjÃ³smyndatÃ¦kniHjÃ¡lp
n ota
Ì Ī
Ġbl eik
Ġp art
arf a
ĠvirÃ°is auka
av efurinn
ĠrÃ¡Ã°st efnu
Ġeld a
Ġg Ã¶tu
ĠT Ã¦kni
ĠÃ¦t li
ĠB Ã¦Ã°i
Ġkjara samninga
Ġaf rit
F jÃ¶l
ĠsÃ©rst Ã¶kum
s afni
sh lut
l ok
Ġst a
Ġtilfinn ingar
ĠsjÃºk ling
ĠB Ã¡r
ver jar
ĠheiÃ° ur
ĠÃºt b
Ġleik maÃ°ur
B ir
Ġverk al
Ġk Ã¶kur
Ġefnahagssv Ã¦Ã°inu
ĠSk il
Ġver ra
verk um
Ġsleg iÃ°
b u
af t
ĠfÃ¦r Ã°u
afÃ©lag a
g aÃ°i
ag ar
Ġg eim
ĠÃį BV
ĠBl Ã¶nd
ĠKatrÃŃ n
Ġskip tiÃ°
ĠmÃ¶r gu
ĠmÃ³t iÃ°
verndar samtaka
menn tun
Ġreynd ist
ĠhrÃ¡ efni
Ġfrum sÃ½
dr ag
Ã¶nn unum
m ikiÃ°
Ġdeild inni
v ind
Ġkross inn
Ġver uleika
Ġkepp a
ĠSv einn
ĠÃ½mi ssa
Ġfasteignas ala
ĠÃ¾ing maÃ°ur
Ġk or
Ġs and
v eÃ°
kk aÃ°
Ġframhalds skÃ³la
b ylg
Ġsk yni
C E
st Ã³r
ĠfulltrÃº i
ĠfrÃ©tta brÃ©f
Ġtrey sta
ĠP Ã³st
ĠfÃ¡ ir
Ġstig i
Ġkref jandi
ĠFyr st
eld rar
Ġhag kvÃ¦m
Ġeftir laun
Ġt im
skÃ¶p un
Ġerl ent
ĠstuÃ° ningi
ĠviÃ°urk enna
amaÃ°ur inn
ĠH efur
ĠJ okku
Ġset iÃ°
ĠSt undum
Ġskip aÃ°
p art
Ġskil ar
Ġd al
ĠT al
ĠsÃŃman Ãºmer
Ġs la
ĠEvrÃ³p ur
Ġs Ã³k
m ans
Ġand rÃºmsl
Ġh enda
mÃ¡l iÃ°
Ã³ ri
Ġra unar
ĠgÃ³Ã° s
V egna
starf iÃ°
f o
ĠmeÃ° fylgjandi
ĠH etta
ĠaugljÃ³ st
ĠR Ã³
ĠtÃ¶lu l
ĠÃ¾jÃ³Ã° kirk
Ã¾ egar
Ġmun ur
ĠliÃ° inu
i pp
g in
ĠM Ã¡r
arf rÃ¦Ã°i
ĠÃ³viÃ° eigandi
g Ã¦Ã°a
Ġkonung ur
ang urinn
Ãŀ Ã³r
ĠP et
ĠGr anda
Ġr Ãºss
ĠlÃŃfrÃ¦ nni
ĠÃ³ sam
ĠrÃ¦ tur
Ġbygg ist
sjÃ³ nar
en sen
ĠK ana
Ġsl Ã©tt
7 9
ĠsnÃº ast
R eg
ĠÃºt gerÃ°
rei sn
Ġg reind
ĠfrÃ¡ s
Ġme ina
ĠAÃ° eins
ĠmÃ¦ld ust
ĠstÃ½riv Ã¶xtum
ĠM A
m Ã³ti
Ã¶r Ã°um
ar Ã¶Ã°
ĠfÃ¶r um
ĠbÃ³k in
ĠviÃ°skip tal
aleg um
ĠIn ga
ĠStof nanir
Ã¡ na
Ġm eistara
Ġr ok
Ġ199 8
Ġn Ã¦m
Ġtil vik
ĠsjÃ¡lf boÃ°aliÃ°
Ġbir tu
ĠmÃ¦l ir
ĠHv ort
c on
Ġvar iÃ°
ĠbÃ¦ inn
ĠHaf Ã°u
ĠstjÃ³rn vald
Ãº na
ĠstÃ¶Ã° va
Ġnei kvÃ¦Ã°
ir e
ĠstjÃ³rn endur
rÃ¦n na
Ġmatar Ã¦Ã°i
Ġupp s
Ġheyr nar
ĠvÃ¡ ru
ĠgreiÃ° ir
Ġfyrst NÃ½jasta
ĠhÃ¦kk ar
ĠfjÃ¶lskyld unni
H r
ĠsamfÃ©lag s
ĠSamfylk ingarinnar
Ġs lit
ir Ã°u
Ġr Ã³m
U N
ĠV or
ĠÃ³ t
ĠnauÃ°syn legar
ĠJ ap
Ġmill jarÃ°ar
ĠgÃ³l fi
Ġald rinum
Ġkom nar
ĠfjÃ³r ir
veiÃ° i
V il
sl ita
Ġsp ÃŃtal
Ġbl ind
ĠÃį bÃºÃ°
ĠP o
Ġ9 6
nu Ã°ur
kennar a
Ġbrey tist
Ġsyn gja
ĠHÃ¶r pu
er um
l o
sk yni
Ã¾ rÃ½st
ĠÃ¾ekk ir
201 6
ĠÃįslen ska
ĠMat vÃ¦la
Ġrey ni
Ġhel gar
Ã¶Ã° var
ĠÃ¡ Å¡
Ġvir tist
sk ÃŃr
Ã¦Ã° ra
Ġteng t
Ġnefnd in
Ġbank anna
ĠK al
ĠT a
ol la
af re
Ġr ÃŃf
ĠauÃ°veld ara
ĠmÃŃ nir
sÃ¡ Ã¦tlun
an legum
Ġk Ã¦ra
h liÃ°
ĠP Ã³ll
tar Ã¡Ã°
Ġreyn sla
Ġauk inni
ĠEg ill
Ġrang t
f Ã©lÃ¶gum
ĠmÃ¦li kvar
Ġs Ã¦m
Ġum mÃ¦lum
ĠgrÃ³Ã°ur hÃºs
nar l
ĠHver ager
un ina
Ġh Ã³l
ĠÃ¾ur f
li ta
ĠA tl
ĠÃļ ti
ĠfullnÃ¦g jandi
ĠKÃ³l umb
m ars
Ġl ita
skÃ¡ p
Ġs anna
Ġerl enda
ey Ã°
tÃ¦k ja
Ġhlut falli
Ġhv ussu
Ġlang aÃ°i
ĠlÃ© tta
ĠÃŃbÃº ar
ĠAl Ã¾jÃ³Ã°a
ĠÃºtgÃ¡ fa
ĠS ka
ĠP ÃŃra
ĠlÃ¦ kki
vÃŃ n
Ãį sl
ĠniÃ°ur staÃ°an
199 4
Ãŀ Ã³tt
E vrÃ³p
Ġra ka
ĠHeilbrigÃ°i s
Ġskug ga
Ġ1 000
Ġendur vinnslu
ĠÃŀess ir
ver pool
Ġ199 7
Ġin ter
ileg ir
f undar
L and
upp lÃ½singar
ag o
Ġerlend u
Ġst and
ĠrÃ¡ Ã°ast
P S
ĠÃ¡ Ã°r
ti k
bbam eins
ĠEng landi
Ġlok inni
sÃŃ n
Ġsk ella
ĠL oft
ĠstaÃ° festa
ĠÃĸ n
Ġk unni
ĠA nt
Ġvik unnar
ĠlÃŃ t
flokk urinn
Ġathygli s
e sson
ĠG ull
ĠstaÃ° setningu
ĠMarkmiÃ° iÃ°
ĠliÃ° sins
Ġaf ur
tu Ã°u
G A
eit u
h laÃ°
ĠÃ¡kveÃ° ur
Ġend ar
Ġfram haldi
Ġb y
ĠgÃ¦ tir
Fyr sta
af li
jÃ¡l s
al of
eistar amÃ³t
blÃ¡ stur
p en
Ġkos iÃ°
ĠhjÃºkrunarfrÃ¦Ã° inga
ĠÃ¡kveÃ° inn
pa kk
ĠStykkishÃ³l mi
ĠU r
ĠdagskrÃ¡ r
var andi
Ġval in
Ġhver fa
Ġvef sins
ĠH R
Ġst eyp
Ġst olt
Ġdeild arinnar
ĠM jÃ¶g
ild ir
ĠSt okk
st Ã¦Ã°a
ĠR agn
virk jun
ĠÅ ĺ
ma il
Ġk Ã¶k
Ġg la
ĠmÃ³t un
Ġfre sti
Ġhvor u
v ill
Ġfl eir
ĠS auÃ°
Ġ aka
ĠT el
Ġend anum
rÃ½ mi
Ġb Ã¦ti
200 4
lÃŃ Ã°ar
ĠstjÃ³rn unar
Ġ8 4
eil is
end ingum
Ġ ;
Ġst illa
Ġtil nef
ĠSk ot
ĠÃ³h Ã¦tt
sl ÃŃf
ĠfjÃ¡r lag
ĠE m
ĠbÃŃl num
ĠÃ¡gÃ¦t lega
L esa
ti s
ĠrÃ©tt lÃ¦ti
Ġvaf a
ĠNorÃ°url Ã¶ndunum
Ġfyrirspur n
Ġl Ã¦ri
Ġb Ã¦tti
Ãį sland
far ir
ĠgjaldÃ¾rota skipti
aÃ° lÃ¶gun
ĠstjÃ³rnar skrÃ¡r
us e
Ġreik na
Ġv extir
Ġendur gjald
S jÃ¡
Ġviss u
ĠlÃ¦kk aÃ°
d reg
ĠbÃºs etu
Ġ it
ĠEnd ilega
ĠÃ³ r
bur Ã°ir
E N
ĠMikil vÃ¦gt
ĠN Ã¡m
arf ull
ĠnÃ½r rar
Ġskil greind
k Ã¶kum
Ġtilkyn ningar
Ġ --
jar a
Ġfre st
ĠdÃ¡l ÃŃtiÃ°
bÃº ar
ĠAl ex
ĠstÃ¦rÃ° frÃ¦Ã°i
rey n
Ġnau Ã°
Ġokk ara
Ġhug leiÃ°
ĠmikilvÃ¦g asta
sÃ¡ Ã¦tl
ĠT or
Ġnem andi
Ġspur t
ĠBjar nason
Ġs aum
Ġsk ynd
O W
ĠH of
ĠiP hone
e z
Ġk var
Ġhre inu
ĠKÃ³lumb ÃŃu
Ġsk ulum
s Ã¦tisrÃ¡Ã°
ĠgreiÃ° slna
eys is
Ġheim sk
Ġfr y
ĠL eif
Ġvettv angur
Ġk alt
ĠmiÃ°hÃ¡l endi
ĠhÃºs aleigu
hÃ¦kk un
h an
Ġhald nir
ĠvÃŃs ar
aÃ° gerÃ°
ÃŃs il
Ġk repp
ĠK o
I L
ĠsÃ¡r s
str ong
Ġkraf ti
ĠbÃºn aÃ°
ĠF jÃ³r
ĠNÃ½ ja
Ġmyn t
Ġmarg f
skap ur
Ġflokk un
Ġnau t
ĠbÃŃl inn
ver Ã°um
Ãļ r
Ġh Ã¶nnunar
Ã¶ sku
ss ur
Ġvax a
ĠrÃ¡Ã°st efn
g rip
n una
m yn
ĠF asteig
ĠÃ¡hrif a
ÃŃ sk
ĠM ikiÃ°
ĠÃ³ dÃ½ra
Ġlig gi
Ġvins amlegast
rÃŃm sson
ĠniÃ°ur stÃ¶Ã°um
ĠÃ¾Ã½ Ã°
Ġkar lar
ĠlÃ¦g ra
Ġsk ÃŃ
ĠKjar tan
ĠF lat
st yr
lag ar
sh Ã¶fn
ĠsÃ¦k ir
ĠupplÃ½s a
ĠmilljÃ³ na
ĠkÃ¶rf u
Ġforg angs
ĠÃ¡ vinn
ĠhÃ¡mark i
ĠviÃ° rÃ¦Ã°u
ĠGro up
ĠÃºtt ekt
a z
Ġd oll
Ġp all
ĠhliÃ° sjÃ³n
Ġey tt
k irkju
Ġd rey
ĠÃ¾ro sk
E nn
ss viÃ°
Ġsl Ã³Ã°
Ġung t
ĠstÃ©tt arfÃ©lag
ag Ã°i
v andi
lit ÃŃk
ĠstaÃ° an
ĠÃŃslen z
ĠDrott inn
Ġmerk ir
ĠlÃ½s ingu
ĠSk al
ĠljÃ³ Ã°a
ed ia
Ġnet iÃ°
ĠM ich
E T
ag jÃ¶f
ĠleiÃ° rÃ©tt
v un
Ġf ynd
ĠÃį S
kost naÃ°
Ġhitt i
ĠHÃºs iÃ°
Ġlands vÃ¦Ã°i
ĠVestf jÃ¶rÃ°um
vi ka
Ġumhver fiÃ°
un Ãºmer
Ġg ri
201 4
âĢ ¢
ĠIn st
ĠIng Ã³lf
ĠverÃ° mÃ¦
ingar nir
it al
ĠslÃ¶kk viliÃ°
Ã¡ tur
ĠL es
or Ã°a
Ġko sta
b o
ĠrÃŃkisstjÃ³rn in
Ġsam gÃ¶ngur
ĠMorgun blaÃ°inu
aÃ° gerÃ°ir
Ġt akk
ĠF ag
Ġraunveru lega
ĠJ an
Ġel sk
st Ã¦tt
Ġkom ust
var na
ĠbÃ³ ta
Ġpre st
201 1
Ġfly tur
Ġ arf
ow n
Ġlit lar
Ġkon an
Ġn o
ĠhÃºsnÃ¦Ã°i s
ĠQ u
Ġsy st
ĠÅ Ĥ
ĠB iblÃŃ
Ġ arÃ°
Ġst Ã¦
ĠH ol
ĠKrist s
Ġk ald
jÃ¶ld a
Ãŀ Ã³
Ġvei slu
h eiÃ°i
sÃŃ m
ĠÃ¡ t
Ġ25 0
ĠlÃ¡gmark i
ĠLista safn
af jÃ¡r
Ġt Ã¦
ĠC ol
l er
ung iÃ°
Ġatkv Ã¦Ã°a
an ce
Ġk un
ĠH eildar
Ġsv eita
af undi
ĠverÃ° iÃ°
Ġval i
ĠsnÃº iÃ°
5 2
ĠrÃ¡Ã°stÃ¶f un
ĠmiÃ° bÃ¦
dag urinn
v og
h Ã©r
sm anns
Ġsveig jan
Ġk Ã¶f
Ġsamning ur
ĠHel gu
ĠnÃ¦st unni
Ġk al
Ã¶t unni
Ġsk ort
Ġstofnun in
Ã° ri
ĠsjÃºkra tryggingar
ĠR i
ĠsÃŃÃ° degis
ĠJ u
ĠsjÃ³ num
ĠE ru
ĠviÃ°fangs efni
Ġf ata
Ġd att
Ġeig anda
Ġgjald a
Ġheils ug
Ġm Ã¶mmu
Ġstel p
Ġhaf naÃ°
Ġfel la
ĠReg lugerÃ°
s agt
Ġtilheyr andi
Ġm i
Ġglugg a
en ce
Ã¦Ã° in
Â ´
Ġ6 2
fjÃ¡r mÃ¶gnun
bÃ³t ar
ĠstarfsfÃ³lk s
ĠjÃ¶rÃ° inni
ĠSk Ã¡l
mynd in
ĠbÃºn aÃ°i
rÃº nu
Ġhen tug
ĠrÃ¡ s
eyr ir
Ġtil tÃ¶lu
ĠT im
ĠsamrÃ¦ m
ĠF H
arf ar
ĠÃ¦ vi
l ings
an o
ĠsÃ¦ ta
ĠgÃ¡ fu
rÃ¦ tÃ³
Ġsk rÃº
al e
Ġ199 4
fi sk
ĠÃ¾ rÃ¡Ã°
ĠM inn
ĠNor d
t eng
Ġtrygg t
ÃŃ slen
ĠfÃ©laga samtÃ¶k
gÃ¦ slu
Ġheil t
Ġh raun
Ġb la
jÃº ka
Ġkirk junni
Ġbur tu
Ġsveitar stjÃ³rn
Ġell ef
Ġh ur
Ġfram vegis
ĠSv ona
Ġeigin leika
ĠTil nefningar
t andi
ĠB and
Ġfl esta
T aÃ°
s Ã©r
s vÃŃk
ÃŃf ur
ĠaÃ°gerÃ° um
f rum
Ã¦ li
Ġmynd listar
l Ã¶ndum
er li
Ġ6 00
Ġ< /
ĠmÃŃnÃº tu
Ġauka st
ĠV ef
v est
ĠviÃ°miÃ° unar
Ġm aÃ°r
ka ka
ĠSp ur
gef iÃ°
Ġb rÃ³Ã°ir
sv Ã¦Ã°um
Ġkyn Ã¾Ã¦tti
ĠÃ¡stÃ¦Ã° an
b eiÃ°
ĠJ am
Ġinnan lands
Ġ18 0
d yr
Ġ ur
spur n
ĠÃ¡r stÃŃ
Ġland lÃ¦kni
ĠSv eit
v agn
ĠkallaÃ° i
ssam vinnu
Ġd etta
ĠbÃ³k staf
Ġbr enni
Ġh end
sk Ã½
Ġmenn tunar
ĠHeil su
l unnar
ĠmiÃ° ast
Ġval kost
Ġfundar ins
s ur
Ġy Ã°ar
ĠÃ¾jÃ³Ã° ina
ig ht
ĠmiÃ° n
Ġauk num
ger andi
) ;
dag ar
ĠsÃ¶g unni
Ã¾ Ã¦tt
ei fl
sn efndar
Ã¶rygg i
Ġsag an
ĠvÃ©l ar
ĠtilbÃº inn
Ġpers Ã³n
reg lan
ĠmÃ³tt Ã¶ku
ĠlÃ¦kk ar
r aÃ°a
Ġd rÃ¡tt
Ġfram mist
ĠframkvÃ¦md ar
tt eg
um hverfi
af rumvarp
ĠSt jarn
ĠK A
Ġvan vir
Ã¶l luÃ°u
kom an
sker fi
ĠHelg ason
ss el
ĠF Ã³r
Ġb yg
Ġfullkom lega
ĠskjÃ¡lf tar
unar innar
Ġr ann
ey fis
Ġspil aÃ°i
st and
ĠHÃ³l m
Ġaf rek
ĠÃ¦ sk
kv Ã³ta
_ _
Ġtrygg ir
Ã¡n Ã¦g
Ġalmenn ingur
ĠnÃ¦g ilega
t ed
ĠI P
Ġd u
ĠrÃ©tt indum
ly mp
eg inum
ĠgreiÃ°slu aÃ°lÃ¶gun
ot u
Ġeina sta
Ġse ina
en i
Ġh art
o tta
Ġstarf shÃ³p
ĠC ity
Ġn ÃŃ
Ġklukkust undir
Ġvik una
ĠInter national
Ġk n
Ġvil jaÃ°
f ars
Ġ7 3
ĠLÃŃf eyrissjÃ³Ã°
Ġhlut ina
Ġsk ell
Ġst efnd
at s
ĠLandsb ankans
alÃ¡ nas
ĠslÃŃk ra
ra d
Ġbr una
Ġsett u
bÃŃ Ã³
lÃ½ Ã°s
Ã¡Ã° um
ĠP at
b olt
ĠÃ¡ tak
Ġmerk t
Ġfor manns
ĠLÃŃf vÃŃsindi
Ġkyn slÃ³Ã°
ĠStjarn vÃŃsindi
ĠÃģr nason
sk r
Ġt og
ĠBandarÃŃk in
Ġsk am
bor Ã°i
ĠsÃºkku laÃ°
ĠskÃ³l ar
firÃ° inga
p re
ĠK rÃ³
dd um
ĠU M
ĠneÃ° ri
Ġmet iÃ°
ĠhÃ¦ sta
hag s
Ġums jÃ³nar
veld is
Ġeinkahlut afÃ©lÃ¶g
P P
ist ar
ĠGe org
ĠA ng
ĠhÃ³p urinn
N Ã¡mskeiÃ°
Ġr eit
Ġ6 4
ĠbrÃº Ã°
ĠrjÃ³ ma
spek i
ĠforstÃ¶Ã°um aÃ°ur
g ri
Ġpip ar
ĠsÃ©r stÃ¶Ã°u
ĠÃ¦t luÃ°
ĠFÃ©lag iÃ°
ĠÃ¾jÃ³Ã°erni supp
ĠnÃ½ gg
Ġsp ilar
ĠviÃ° rÃ¦Ã°ur
ĠÃģ byrg
ĠlÃ¶g gjÃ¶f
Ġand lega
Ġgeg na
ĠÃ¾jÃ³Ã°ernisupp runa
Ġmat ur
vÃ©l ar
Ġsty Ã°ur
Ġlok num
ĠviÃ° halds
ĠV an
Ġmenn ing
Ġ5 4
ĠFl estir
Ġk Ã³l
verk i
Ġhjar t
Ġh ey
ĠÃįslen sku
Ġst Ã¸
ĠbÃ³kmenn ta
ĠSpÃ¡ ni
200 1
ĠaÃ° drag
Ġt ef
Ġp ru
stig iÃ°
ĠhÃºsnÃ¦Ã°i ssamvinnu
ĠÃ¾Ã©tt bÃ½li
n Ãºmer
bÃºn ir
ĠauÃ°veld ar
Ã¦k t
dag s
ĠHÃ¡ skÃ³lans
Ġau ga
s jÃ³Ã°s
eng iÃ°
ĠMar ÃŃu
Ãŀar na
Ġbisku p
Ġbe inni
hel gi
hver t
h en
Ġb eggja
ld iÃ°
ÃŃs a
Ġsl Ã³
ĠrÃŃkis fjÃ¡r
5 4
Ġo dd
ĠmiÃ° ar
kl Ãºbb
Ġv ÃŃk
Ġhl ekk
Ġop naÃ°i
Ġt Ãºr
h Ã¦tt
V ar
Athug asemdir
Ġfer met
ĠÃ¶r lÃŃtiÃ°
Ġdrei fa
Ġversl anir
Ġg ras
ĠV atna
Ã° rum
sl unar
hel gar
Ġdre pa
ur r
Ġn eit
ĠslÃŃk ri
ĠÃ¡huga sam
Ġu ttan
ĠsjÃ¡lf ri
ĠGuÃ° laug
Ġtel ji
D Ã³m
Ġsvip aÃ°
ĠSv avar
A uk
Ġeig num
f jÃ¶rÃ°
ĠC ar
Ġsamein ingu
S iÃ°
Ġfull ri
ĠstÃ¶Ã° una
ĠMynd in
ĠNorÃ°ur landi
Ġh Ã¶nnu
ĠfjÃ¶l ga
Ġhlut afÃ©lags
aÃ°ar ins
ĠbÃ¶rn unum
n unni
ĠEvrÃ³p um
Ġkyn ja
Ġkl Ã¦Ã°a
Ġteg undum
ĠF ri
ĠaÃ°ila skipti
ĠAt vinnu
ĠHer jÃ³l
Ġfull um
Ġhver fur
Ġm yrk
fram l
ĠsÃ¶m uleiÃ°is
ĠfyrirtÃ¦kja skrÃ¡
heiÃ° ur
n innar
ĠhÃ¡ deg
ĠM ad
Ġgr ill
s na
Ġall skonar
verk smiÃ°
! âĢľ
fÃ¦r slur
Ġe yk
n andi
ĠhÃ¦starÃ©ttar dÃ³mara
bl ogg
Ġkirk jan
Ġdeil t
SkrÃ¡ ning
ĠÃŃ Äį
tt ir
ĠfjÃ¶l breyt
ĠmikilvÃ¦g ur
of f
G S
Ġd anska
Ġl enda
ĠÃģ sm
Ġtil ra
miÃ° stÃ¶Ã°
Ġveik indi
Ġmann sins
ĠmÃ³t mÃ¦la
Ġreik ninga
Ġstofn aÃ°ur
ĠsjÃ¡lf stÃ¦Ã°
Ġsnyr ti
set ja
Ġr yÃ°
ĠH jÃ¡l
li pp
ĠmÃ³t mÃ¦l
Ġsk elf
ĠRannsÃ³k nir
Ġblogg iÃ°
Ġlos na
ĠumrÃ¦ Ã°um
Ġforeld ri
Ġneytenda vernd
skil yrÃ°i
Ġfel ld
Ġveitt ur
and er
ĠSnor ra
h vÃŃ
ic s
ĠhjÃ³l reiÃ°
sta kur
Ġfram bjÃ³Ã°
ĠferÃ° ina
sk ost
kv eÃ°
ĠlÃ¦k nir
ĠA c
Ġlok in
frÃ¦Ã° ing
b i
Ġkarl menn
ĠL td
rein t
Ġupp lÃ½st
ĠStefÃ¡n sson
ĠvÃŃsb endingar
ĠÃįslen sk
Ġ z
Ġb rau
Ġgeng is
Ġhag a
ĠEin hver
Ġd Ã¶nsku
ĠP e
g re
ĠbÃ³k um
stofn ana
yÃ° ju
ingastof nun
Ġfund ist
fÃ¦r sla
And ri
Ġsamanst endur
ss p
Ġal heim
amÃ³t um
Ġmis skil
ning urinn
ĠdÃ¡ sam
Ġafh enda
hÃ¡ tÃŃÃ°ar
ĠbaÃ° herbergi
Ã¾Ã¡tt um
Ġstef nir
r ur
K Ãį
Ġo l
un kt
br o
Ġvinn una
r ann
Ġsam skipta
ĠA ust
ĠkvÃŃ Ã°a
Ġd ekk
Ġat haf
ĠsiÃ° ferÃ°i
S Ã³l
Â »
Ġd Ãº
ĠJÃ¶k ul
ĠF jal
ĠtÃŃ sku
ĠrÃ¦k ta
ĠveiÃ° ig
ĠMenn tun
Ġkunnu gt
Ġendur tek
Ġtilf elli
ĠV iss
Ġgrein inni
Ġbarn anna
lÃ¡ n
Ġumfang sm
c ookies
ĠmeÃ° gÃ¶ngu
ĠG jald
ĠvÃ¶Ã° va
Ġk ÃŃnver
Ġmun t
Ġveit ingar
Ġauka verk
j aÃ°i
Ġhlut aÃ°
all inn
Ġmeiri hluti
ĠlÃŃkam ann
yfirlÃ½s ingu
hÃ¦f ingar
U ndan
verÃ° launa
Ġinn l
Ġley ndar
ĠhÃºm an
Ġst Ã¦kk
stjÃ³rn un
ey mi
ĠÃ¾Ã¡tt taka
f rÃŃ
ĠvÃ¶r unÃºmer
Ġtal inn
g s
ĠhÃ©r aÃ°
starf s
200 9
Ġb eit
Ġmorg ni
l una
Ġm aka
ĠÃŀ riÃ°
Ġs ala
bÃ³t um
Ġtilraun ir
ĠsÃ©rstak ar
Ġk ass
arf rÃŃ
stjÃ³rn in
ĠfjÃ¶lskyld um
ĠvefsÃŃÃ° una
ĠNoreg s
I T
Ġskemmtileg u
Ġhe sta
Ġbr o
ĠBretl ands
ĠtiltÃ¶lu lega
] .
v exti
Ġh yl
ĠÃ¡ rek
Ġh et
F imm
Ġm undu
ĠvÃ¦nt ingar
Ġh ro
NÃ¦ st
et rar
ĠV innu
ĠÃŃtrek aÃ°
jÃ¶f nuÃ°
Ġs ma
ĠSk Ã½r
Ġ199 3
H Ã¡
H eil
ĠrÃŃk jum
ĠsÃ³tt i
5 1
Ġleik urinn
ĠU nn
ig n
Ġleik ir
ĠSv iss
ĠVil tu
Ġeinst Ã¶kum
ĠR Ãºm
ĠSuÃ°ur landi
ĠhÃ¡ gÃ¦Ã°a
ĠlÃ¶g frÃ¦Ã°i
Ġminn is
Ġlau st
ĠAf rÃŃku
Ġfr ost
F Ãį
F lest
leg i
Ġtv enn
Ġtiltek num
Ġtil valiÃ°
ast aÃ°
Ġfal legu
ĠP en
ĠÃºthlut aÃ°
ĠmatvÃ¦ la
s Ã¶g
aÃ° stÃ¶Ã°u
Ġ com
Ġmis sti
ĠÃ³m Ã¶gu
ĠV Ã¡
ess a
ĠÃĸ rygg
ĠE va
Ġtrey st
g n
ĠÃį Ã¾rÃ³tt
ĠS V
Ġkom m
Ġklukkust und
Ġaugnab lik
ĠKana da
Ã° inn
Ġstund aÃ°
ant e
ĠP al
ĠW orld
Ġh Ã¦Ã°um
v eik
Ġsner tir
Ġsjald an
ĠBer lÃŃn
Ġ arkit
dÃŃs ar
Ġinn Ã¡
ĠalÃ¾jÃ³Ã° legum
Ġaldur s
Ġb jug
ĠS er
ĠK or
ĠiP ad
S Ã©
ĠtjÃ¡ ningar
6 2
Ġeld g
ĠBjÃ¶rn sson
h raun
Ġ5 2
ĠhrÃ¦ dd
ĠfÃŃn t
verÃ°laun anna
Ġn e
Ġvand rÃ¦Ã°um
Ġvar lega
ĠB ara
ĠT Ã¡
ĠSum ar
s nar
ker fis
ĠÃįslend ingum
Ġheimspek i
ĠmÃ¡ naÃ°
Ġlag Ã°ur
Ġs eldi
Ã¦f ingar
Ġsam gÃ¶ngum
O S
tÃ¦k jum
ĠlÃŃkam ans
Ġsig raÃ°i
st aÃ°ur
and ann
ĠNÃ½ jar
ug jald
Ġskrif stof
at Ã¶ku
Ġdr ott
drÃ¦ tti
iÃ° naÃ°i
Ã¡tt Ãºr
Ġkv eÃ°ur
Ġtex t
F ar
Å ĵ
ĠnÃ½ tast
M ikiÃ°
tÃŃ n
p ok
Ġtil laga
ĠH e
Ġstof nuÃ°
ĠIng var
d rif
y a
Ġfram andi
ĠÃ¦f inga
ĠrÃŃk ir
ĠHel stu
Ġkli pp
end inga
tÃŃ mann
Ġkv eÃ°a
ĠnÃ¡gr anna
ĠÃ¦tt ir
Ġr Ã©
s aga
Ġb ita
Ġsegja st
vÃŃs ind
Ġst erka
ĠÃºr rÃ¦Ã°i
M at
ĠK a
ĠhÃ¦fil eika
ĠÃ¡ varp
Ġref si
ĠviÃ°rÃ¦Ã°u ferli
framl enging
Ġb enti
lis frÃ¦Ã°i
ĠS jÃºkra
str Ã¶nd
ĠljÃ³smynd ir
S Ã¡
p Ã³st
ĠÃºrslit um
sg jald
Ġm amma
al ista
ĠstjÃ³rnmÃ¡l aflokk
b Ã¦ri
ĠH Ã³p
ĠL iÃ°
ĠaÃ° skil
ĠM Ã¶r
ĠjarÃ° veg
vÃ¶x tur
Ġverk fÃ¦ri
Ġfeng i
ĠðŁ Ļ
k ennd
ĠJÃ³hann sson
uld a
ing ini
Ã¡ riÃ°
Ġat vikum
ĠP la
ne ska
Ġkaup ir
b yl
Ã¾ Ã³l
ĠÃ¾ re
hÃ³p ur
Ġ %
ĠN o
ĠboÃ° aÃ°
Ã¶f u
ill um
ĠÃ¾jÃ³Ã° inni
f ari
or Ã°i
ĠÃįbÃºÃ° alÃ¡nas
R annsÃ³k
Ġg Ã¦tt
ĠSam gÃ¶ngu
Ġmiss eri
ĠnÃ¡ttÃºr unni
ĠK enn
ĠBÃ³k in
Ġm yr
b rÃº
svÃ¦Ã°i sins
Ġstur tu
virk um
Ġundirrit un
Ġsp ennu
ĠhjÃ³ last
e an
Ġp Ã³sti
Ġdr eift
IN G
ĠE M
Ġfang els
hÃºs a
Ġaf greiÃ°
ĠB A
Ġmann inn
Ġhagsm unum
ĠB ro
fl okki
tal iÃ°
ĠmÃŃn Ãºt
k ir
tam ÃŃn
ag l
ĠFl est
ĠS agn
sb Ã³k
? "
Ġop nun
Ġsamband sins
Ġp an
ĠP a
ĠsÃ©rhÃ¦ fir
Ã½ Ã°s
it iÃ°
ĠHring braut
il mar
Ġfrumkv Ã¶Ã°
hjÃ³ la
ĠSk oÃ°
ch e
Ġlag er
ĠskrÃ¡ Ã°a
Ġbak iÃ°
T v
ĠP re
ĠM ari
ĠL u
ĠÃºt sk
sam ningum
gar Ã°s
Ġsk Ãº
Ġbl Ã¶Ã°
Ġver Ã¶ld
ĠÃ¶r stu
leiÃ° ir
el a
ak erfi
ĠlÃ¶g aÃ°ila
ĠbÃ³ ndi
ĠsÃ©rst Ã¶ku
ĠS Ã¡l
Ġatvinn ust
sk Ãºr
ĠNÃº na
Ġg re
ĠB a
ĠannaÃ° hvort
ĠVerÃ° laun
ĠGarÃ°a bÃ¦
Ġm Ã½
rÃŃk janna
at riÃ°um
ĠBygg ingar
ĠhlutaÃ° eigandi
Ġfor mann
ĠÃ¾ing fara
b en
Ġr Ã¶dd
afÃ©lag i
ĠV ÃįS
versl unar
ĠÃŃ Å¾
Ġl ek
al andi
Ġsv epp
ug la
skyld a
ĠÃ¾riÃ°ju dag
M ar
ĠlÃŃ tinn
ĠÃ³lÃŃk um
ĠJÃ³ ni
ĠnÃ¡mskeiÃ° inu
Ã¡Ã¦tl unar
Ġ11 1
reg la
Ġh unda
ĠF imm
kennar i
AÃ°al fundur
Ġal fariÃ°
sh reyf
shaf ta
Ġopnunar helgar
ĠF oss
Ġhreins a
skur Ã°ar
ĠÃ¾Ã¦tt inum
ĠhÃºsnÃ¦Ã°i sl
ĠstÃ¦r ra
af tur
Ġskemmtileg ur
ĠsjÃ¡ st
Ġbir tingar
EvrÃ³p u
ĠV eit
Ġp ro
ĠfjÃ¶l menn
ĠUni vers
ĠÃ¦vint Ã½ri
Ġminn ast
Ġn einn
ĠM u
Ġskor a
angav el
Ġhreyf ing
ĠG rÃ©
of n
SÃŃ Ã°ast
.. ...
e e
Ġhag kerfiÃ°
Ġaug un
ein bÃ½li
ĠfjÃ¶lskyld an
ĠM ig
ĠtÃŃm am
ĠsÃŃÃ°an i
LA ND
Ġhorf ur
Ġhla kka
ĠfulltrÃº um
i kk
at h
hrepp s
f in
ĠlÃŃf sst
ĠR Ã³m
Ġfar nir
Ġb ind
Ġ ju
Ġkyn sl
efn inu
Ġskil virkni
bygg ingu
Ġs Ã¶fn
ĠgrÃ¡ Ã°u
ĠIngi bjÃ¶rg
ĠGÃŃ sl
âĢ ĺ
Ġhaf in
ĠfjÃ¡rmagn shafta
ĠvirÃ°isauka skatt
ĠÃ¡ skrif
Ġaf gerandi
Ġkyn ni
ĠÃŀor k
ĠsvÃ¦Ã°i s
ĠEgg ert
Ġger vi
Ġofb eldis
Ġh au
Ġg Ã¦Ã°um
ĠskÃ½r ingar
nefnd a
Ġkjar n
Ġst Ã³l
ĠEng in
ĠvÃŃÃ° tÃ¦k
sl aust
ig h
ĠO ft
Ġhugs aÃ°i
Ġtek jum
ag r
N Ã¡nar
ĠP ersÃ³nu
k Ã³r
veld isins
Ġl o
fre lsi
N ei
ĠtÃ¦k ja
Ġb rÃ¦Ã°ur
ĠtÃŃ Ã°ar
ĠV ol
Ġsm ekk
Ã¾ yng
Ġaug n
el lu
as afn
ĠB ald
it e
ĠlÃº ta
Ġt Ã©
Ġjafn rÃ©tti
ĠW OW
ic a
Ġskil ur
Ġhe yrir
ĠS Ã¶gu
ĠmÃ¡l in
t o
Ġf ekk
ĠJafn vel
Ġsp Ã¡m
Ġtr jÃ¡
op n
ĠmÃ¶guleik i
f an
ÃŃ skum
Ġsam i
ĠÃºt bÃºa
ĠPÃ¡l sson
Ġminn kar
ĠSp ar
y si
H alld
Ġsk r
ĠD av
ĠÃŀ iÃ°
Ġfug la
f it
Ġflug vallar
ĠsÃ©r eignar
ĠÃ¾ekk tum
ĠF yl
Ġsterk ari
ĠAuÃ° vitaÃ°
Ġl oÃ°
ag ram
ul Ã¶g
eig endur
for d
ĠaÃ°stand endur
st aÃ°i
ĠS c
ĠM S
boÃ° iÃ°
ik u
ara Ã¾
ĠsÃ© um
ĠsÃŃÃ°astliÃ° num
Ġvak na
ĠtÃ¦k jum
Ġful la
un inni
Ġgef inn
ĠSjÃ¡var Ãºtveg
ĠÃ¾ Ã¶kkum
Ġl at
Ã¶f nun
ĠreiÃ° u
ĠðŁĻ Ĥ
ĠGuÃ° na
ĠlÃ¶g unum
at riÃ°
H Ãºs
and amÃ¡l
sh Ã¡
ald ra
ĠSk emm
ĠHins vegar
Ġm eiÃ°
ĠnÃ½skÃ¶p un
Ġl estur
Ġhlut haf
Ġgl Ã¦
ĠfrÃ¡bÃ¦r u
arf undi
ĠtÃŃÃ° ni
ĠlÃ¦r Ã°i
ĠLÃ¡ ru
ĠsÃ©r t
ĠL ei
ĠÃŃslensk s
J Ã¦ja
ĠgÃ¦ tum
g andi
ĠH jar
Ġs u
en ska
Ġs yni
Ã¡m ark
Ġauk na
i i
Ġst rey
ĠtÃºl kun
Ġsv if
Ġmannesk ja
l Ã³
l os
Ġl Ã¶ngum
199 6
ĠÃºrval s
Ġsamkomulag i
sav ia
ĠÃ³ hug
bygg ingar
Ġ11 3
ĠgjÃ¸r t
Ġl ent
ĠfÃ³r narl
ĠÃºrskur Ã°
ĠN eyt
ĠÃ¾ ola
ĠslÃ¦m t
ĠS var
Ġupp lÃ½
Ġtil greind
Ġsend ar
ĠinnleiÃ° ingu
Ġsp eg
gef andi
ĠgÃ¶m lum
S R
ĠÃ½ ta
Ġsaman burÃ°i
ĠÃ¶ m
ĠbÃ³k arinnar
ĠÃºr slita
ĠStof nun
ĠÃŃslensk unni
ett u
ĠSam t
Ġeyk st
sher jar
ĠkrÃ³ num
ĠlÃ© tu
skÃŃr tein
ĠVestmannaey jar
hl jÃ³Ã°
h and
jÃ¶rn ur
B Ã¦
ĠsjÃ³ Ã°i
ĠUni ted
ĠEy Ã¾Ã³r
ĠÃ¾jÃ¡lf ari
Ġvinnust aÃ°
mi ss
.... ....
ru Ã°u
ĠumfjÃ¶ll unar
alof tteg
Ġr yk
Ġk Ã¶ku
ol eiÃ°is
blaÃ° i
ĠÃ³sk aÃ°i
Ġmynd bÃ¶nd
ĠsÃ½nd u
Ġskyn sam
Ġb an
k in
ĠÃ¡ratug um
h eiti
af ull
Ġgist ingu
c y
ĠorÃ° nir
Ġ199 6
Ġst Ã¦Ã°i
ĠÃ¾ekk tur
ĠbÃ³ka safn
Ġvanvir Ã°ing
ĠR E
Ġseg Ã°i
eftirlit sins
ĠM c
ĠflÃ³k iÃ°
ĠfiskveiÃ° a
ĠÃ¡Ã¦tl anir
hÃ¦ fi
ĠmÃ¦l ingum
ĠafgreiÃ°slu fÃ³lk
ĠfrÃ³Ã° leik
Ġfram angreind
Ġ5 1
ĠSk ar
ĠHÃ¡ tÃŃÃ°ir
Ã¦ lu
Ġk jall
Ã¶m b
ĠK SÃį
Ġ14 0
skyn s
ĠVatn s
ĠV ott
ĠnÃ½r nas
iss u
ĠF rÃ©tt
ĠnÃ¡mskeiÃ° iÃ°
Ã¾ Ã¶rf
s Ã¶m
and anum
ĠSeÃ°lab anki
Ġd eyja
efnd in
ĠneÃ° st
ĠaÃ°drag anda
k vÃŃ
ĠG est
br jÃ³
g ert
eik ar
ĠjÃ¡kv Ã¦Ã°a
s Ã¡tt
ĠmÃŃnÃº tum
ĠÃŀor steins
n inum
st Ã³ll
Ġg Ã¦Ã°
ĠstÃ³r ar
Ġskyld a
u Ã°ar
!! !
C O
Ä ¾
Ġset jast
f ag
Ä Ľ
ĠM ac
ĠrÃŃk inu
vott un
Ġverkefni s
Ġskap ar
Ġung menna
Ġd Ã³
ot el
ĠstefnumÃ³t un
okk ar
Ã¶t una
ell iÃ°
Ġy ou
Ġvir Ã°a
Ġsett ir
ĠH est
bund num
ĠÃ¾vÃŃ lÃŃk
ast aÃ°ir
ĠÃŃslensk an
ĠsjÃºkra trygg
dal s
Ġg a
ĠstjÃ³rn sÃ½
Ġbygg ing
Ġsafn iÃ°
bur g
Ġopinber lega
in ka
ĠtÃŃmabil iÃ°
Ġmikill ar
Marg ir
ĠÃ¦ v
Ġskip ar
ara dÃŃs
ĠmargvÃŃ sleg
ĠÃ¡g Ã¦tis
Ġkl Ã¦Ã°
byr Ã°i
ĠSig f
7 6
Ã½ rum
ĠM erk
ĠÃŃÃ¾rÃ³tt ir
ĠsÃ©rfrÃ¦Ã° ingur
ing ton
Ġtak marka
d ik
Ġf acebook
Ãº b
ĠÃ³tta st
ĠT rÃº
Ġdval ar
O p
e u
Ġstyrk ir
Ġvinn ing
Ġhitta st
ĠfÃ¦r ir
ĠJÃ³h anna
ĠA ra
Ġfram ar
Ġdr Ã¶g
Ġb rÃ¦Ã°
Ġvef jum
ĠvinsÃ¦ ld
S H
Ġ11 6
ĠaÃ° komu
sÃ³k na
ĠleiÃ°in legt
Ġen gi
Ġtr Ãºn
kost naÃ°ur
Ġl og
Ġk Ã¦m
ĠE nda
Ġstarf sh
Ã¦t laÃ°
auk inn
geng i
Ãŀ au
ĠHvaÃ° a
ĠNorÃ°ur land
ĠMynd ir
Ġbar ni
ĠhliÃ° ina
Ġmis st
Ġsann g
ĠR ang
Ġopinber u
Ġung u
bar na
is h
ĠBru ssel
ĠS onur
ĠrÃ©tt inda
Ġefnahag s
Ġk Ã¶kum
tak endur
tek jur
m eÃ°ferÃ°
Ġver ri
ri ch
stof na
ĠskÃ³l inn
Ġ5 3
rÃ¡ Ã°u
Ã¦l ingar
ĠBir gir
ĠgrÃ³Ã°urhÃºs aloftteg
m ÃŃ
Ã¡l k
ĠSt Ã¦rÃ°
Ġkross ins
SeÃ°lab ankinn
Ã³ d
Ġd ettur
Ġskuld ara
Ġrit aÃ°
ĠHverager Ã°i
brey tingu
Ġgist im
laus ir
hÃ³ pa
Ġtil vit
Ġloftslag s
ĠÃ¡lyk tun
R O
em ar
far ar
Ġtill Ã¶gum
Ġheimil inu
Ä º
Ġp ark
bÃº in
Ġtiltek iÃ°
ĠlÃ¶g mÃ¦
ĠB ak
ĠK Ã¡ra
Ġmik lir
ĠhvÃŃt lauk
T ÃŃ
Ã³ re
ĠM al
Ġgang andi
Ġupplif aÃ°
h Ãº
Ġl osa
Ġalm ennar
ĠlÃ½Ã° heilsu
red it
ĠÃ¡lag i
iÃ° naÃ°ar
ĠÃģ l
Ġskap ast
S veit
Ġnot endum
om e
Ġhv al
lÃŃ nis
rÃ¦Ã°i s
ig i
Ġko ll
ĠEy jÃ³l
ĠBl Ã³m
Ġbre ska
ĠÃŀ rÃ³
M S
rÃ©tt um
Ġhelm ing
ĠmÃŃnÃºt na
ti ve
Ġley s
frÃ¦Ã° ilegar
hlut fall
st Ã¸
or y
Ã¾ jÃ³Ã°ar
Ġ ind
ĠÃĨ t
Ġ9 2
Ġ18 8
ĠÃ³ heimilt
Ġ7 6
ĠvÃ¶r una
ĠÃŃbÃº um
Ġ7 4
Ġvin ur
ĠH iÃ°
Ġkonung i
band iÃ°
ĠL jÃ³
Ġat kvÃ¦Ã°agreiÃ°
ow s
b Ã¦tt
skrif stofu
ĠAr on
k rÃ³
Ġt jÃ³ni
Ġsk urÃ°
Ġlag Ã°ar
ĠÄ ĳ
set ningum
jÃ¶r Ã°ur
ĠupplÃ½sing alaga
ĠrÃ¡Ã° gjafar
M R
ÃŃ el
Ġskip an
ĠSk Ã³l
Ã¦m is
sÃ½ ning
âĢĿ ,
vi sku
Ġh Ã¶g
ĠÃ³ vÃ¦nt
lÃ½s inga
At vinnu
samning ur
ger Ã°ur
Ġeinfald a
sk ort
ju Ã°u
ĠaÃ°geng ileg
Ġbarna verndar
w eb
Ġraun ver
ĠÃ¡g Ã¦tt
Ġv ild
ĠV onandi
k unn
r em
Ġyfir skrift
ett ir
Ġhollu stu
ĠK er
ĠÃ¦tt um
ĠÃ³sk Ã¶p
Ġvak t
ni t
Ġsig ri
ĠrÃ¡Ã° inn
aleg ur
lag iÃ°
Ġsaman burÃ°ar
ĠNorÃ°url andar
ls is
Ġafsl Ã¡tt
Ġh Ã³t
ĠsÃŃ mann
vÃŃ sa
ĠsÃ³tt u
Ġsend um
Ġfyrirmynd ar
Ġalgeng t
N Ã¡ttÃºru
ĠviÃ° gerÃ°
ĠG al
S D
bÃº iÃ°
ĠGr und
Ġnak aÃ°
ung um
liÃ° iÃ°
ĠSÃŃ Ã°a
Ġvax iÃ°
ĠF yrirtÃ¦kiÃ°
ĠstjÃ³rnmÃ¡l um
ĠKrist inn
Ġbein lÃŃnis
ĠSÃ©r staklega
Ã°ar innar
sm ark
Ġland sleik
ĠmÃ¦l st
Ġst em
ĠÃ¶r fÃ¡
S Ã¦k
Ġl im
Ġker finu
ĠNor rÃ¦na
ĠInn an
Ã¶n sk
Ġdug a
Ã ¥
ĠbeÃ° nir
Ġlist amenn
st Ã³la
ĠfrÃ¡ sÃ¶gn
jum st
ĠB jÃ¶
Ġkjar na
Ġto ga
Ġskip inu
aÃ° la
ĠmeÃ°hÃ¶nd lun
Ġellef u
ĠsÃŃ ld
Ġvirk ja
ĠFr an
ĠaÃ°alf und
nÃ¡ ms
l Ãºbb
s Ã¦ti
ĠstjÃ³rnvÃ¶ld um
Ġsam svar
ĠP au
ĠÅ¾ ÃŃ
uÃ°u st
ĠK irk
ĠsamrÃ¦ mis
Ġh innar
Ã³ Ã°u
n er
Ġfag naÃ°ar
ĠnÃ½ st
ĠÃ¡kvÃ¶rÃ° unar
Ġep tir
ĠtÃ³k um
ĠMorgun blaÃ°iÃ°
ug a
Ã¶f nunar
v Ã¡
Ġg ÃŃtar
Ġp Ã¶nnu
Sv ona
Y fir
ĠB ank
Ġaf skaplega
ĠskÃ½r slunni
Ġtru fl
f rey
Ġfyrir lestur
ĠÃ¶r yrkja
St Ã³r
Ġmerk ja
ong d
stÃ¶Ã°var innar
ĠÃ¡ ÅĻ
rÃ¦Ã° na
Ġskap aÃ°
ĠlÃ¶greg lum
ĠÃ¶ fl
Ġmag naÃ°
ĠliÃ° num
ĠÃŀ r
Ġung ur
ĠaÃ° fanga
v t
far in
ĠÃºrskurÃ°ar nefnd
ĠÃ¡her slur
Ġforg ang
Ġsp ara
ĠReykjavÃŃkur borg
Ġgistim Ã¶guleika
Ġgildist Ã¶ku
w a
ĠundirbÃº ningi
un c
Ġum deild
ĠsÃ©r frÃ¦Ã°i
lÃ½ Ã°
Ġkraf ta
h Ã¡ttar
ĠskrÃ¡ Ã°ur
Ġs Ã¦tt
ĠS iÃ°
ek tar
Ġhelm ingur
ĠstjÃ¶rnu gjÃ¶f
Ġh rik
Ġeins og
Ġbein um
samning s
ĠÃ³sÃ¦m ileg
ĠBÃ¡r Ã°ar
ĠsvokallaÃ° a
ĠGrÃ¦n landi
Ġs nar
ĠhÃ¦tt ir
ĠJ er
Ġf il
Ã¶ ss
ĠJ Ã³l
Ġru sl
k all
ĠFÃ¦rey jum
ĠÃ¡nÃ¦g Ã°ur
B C
Ġ8 6
T ek
ĠÃį r
ĠFor maÃ°ur
ĠM er
Ġvor i
ĠÂ «
Ġtakmark aÃ°
M Ã¡
Ġum sv
Ġver t
ĠfrjÃ¡l st
ĠlÃ¡ ti
ar in
Ġu t
Ġp ant
Ġ198 6
st Ã©tt
eÃ° l
Ġskil aÃ°i
stÃ¶Ã° va
hÃ³p urinn
Ġbrey tir
hlut un
Ġr okk
her ja
al egar
ĠÃ¡r slok
Ã³t um
Ġra ss
Ġskyld um
ĠÃ³ tal
ĠfjÃ¶lskyld a
ĠauglÃ½s ingu
Ġtilheyr a
VerÃ° lag
h Ã³li
Ġskuld i
Ġstyrk t
ĠstjÃ³rnmÃ¡l amenn
m e
ĠRey ndar
Ã¾ing sins
str al
Ð »
ĠÄ Ļ
d isk
ĠÃ¦f ing
ĠÃ¡huga verÃ°
ĠÃ³lÃŃk legt
ĠsamÃ¾ykk tar
ĠH u
Ã¶f um
N emendur
hrepp i
U K
Ġo c
ĠÄ ¹
Ġfel ast
ĠtilbÃº iÃ°
F R
ey jum
Ġs jÃ³Ã°a
Ġs eÃ°lab
Ġopnunar tÃŃma
Ġinter net
Ġmat s
Ġsk ildi
Ġstarf inu
S Ã¶gu
ĠnÃ½ ir
ĠstÃ¶Ã° v
Ġskrif lega
Ġefnahagssv Ã¦Ã°iÃ°
Ġklukku tÃŃma
tÃŃÃ° in
z z
ĠGr and
Ġfr jÃ³
ĠrÃ¡Ã° ningar
ta sta
Ġl Ã¸
ĠViÃ° tÃ¶l
Ġeinstak t
Ġbund in
Ġauk ning
ĠÃŀorg eir
Ġley st
b ik
ĠStaÃ° rey
Ã¶k ust
ĠSt yrk
il iga
pp iÃ°
Ġland smenn
A mer
ĠÃ³h app
n Ã³
ĠauglÃ½s inga
ĠlÃ¶g heimili
Sk rif
S m
Ġsam ningar
Ãŀ annig
Ġ6 3
Ã¶sk un
Ġfram lÃ¶g
sn Ã¡m
is st
ent er
ĠfrÃŃ tt
Ġmennt amÃ¡l
ĠnÃ¡mskeiÃ° i
Ġborg ina
Ġhugmynd afrÃ¦Ã°i
ĠLi verpool
jÃ³l k
ĠafÃ¾rey ingu
sk Ã¡k
Ġd Ã¶kk
Ġmag ni
ĠvarÃ°v eita
ĠJÃ³hann esson
mark miÃ°
Ġs era
Ġef lingu
Ġri s
lig t
RÃŃk is
ĠÃ¾ ings
Ġ13 0
Ġheimil iÃ°
ĠfjÃ¶lskyld una
Ġf Ã¶g
Ġkaup um
ĠÃ¶rug gt
ĠGuÃ°mund sdÃ³ttir
ĠS unna
ĠÃ³ tt
Ġg alla
} .
Ġald eilis
liÃ° ar
Ġg o
ĠKristjÃ¡n sson
in m
efnun nar
Ġspjald tÃ¶l
bÃº Ã°a
Ġflug iÃ°
Ġsamning um
Ġbr jÃ¡l
ĠhÃ¡tt ar
Ġmet rar
Ġstund ir
ĠHaf a
ĠvinsÃ¦ lu
Ġfeg urÃ°
ug g
uÃ° s
Ġhv arf
ĠN au
bÃ³l gu
lÃ¦k nir
Ã¦ ka
ĠsÃ¶lu vef
ros oft
m anum
Ġk Ã³k
Ġinn ÃŃ
ars dÃ³ttir
ĠskrÃ¡Ã° ir
sÃ¦ i
ĠÃĿ mislegt
Ġf eÃ°
ĠGunnar s
ĠGrinda vÃŃk
ĠHaf i
Ġsv ig
laus um
Ġsp jalla
ĠsÃŃÃ°astliÃ° in
Ġhrey fi
ing jar
ĠN Ã¦r
Ġleg iÃ°
ĠBir gi
Ġg oÃ°
ĠS u
ĠF rey
sn esi
ĠendurnÃ½ jun
Ġlands byggÃ°
eyjar gÃ¡
Ġbor in
ĠBenedikt sson
b jÃ¶r
ĠtÃ³nleik um
ĠskÃ³ gar
Ġhr yÃ°ju
ĠA lic
ĠsÃ¶f nun
ĠEnn fremur
ĠÃ¦vint Ã½r
ĠH jÃ¡lp
ĠÃ³ bein
Ġhr aÃ°ar
ĠE lÃŃ
Ġraf bÃºnaÃ°ar
ĠhljÃ³ p
Ġhor fir
Ġgjaf a
ĠÃ¡stand iÃ°
7 1
Ã° st
Ġsamning inn
Ġh Ã¶ldum
lut ningar
or i
ĠlÃ½s ing
Ġfyrirlest ra
Ġhv eiti
ĠI savia
Ġflug leiÃ°
ĠV insamlegast
ĠG olf
virk i
jÃ¶ld um
ĠfÃ©lags Ã¾jÃ³nustu
Ġval inn
ĠSkip iÃ°
Ġba kv
Ġsveit arfÃ©lÃ¶gum
brÃ¶g Ã°in
b an
Ġl ak
el i
ĠtÃ¶l frÃ¦Ã°i
Ġfag legri
ĠpÃ³ litÃŃk
sam Ã¾ykk
Ġhrey fa
d f
natt leik
ĠNÃ¡ttÃºru frÃ¦Ã°i
af yrirtÃ¦k
ĠN i
Ġbr eidd
ĠÃ¾ekk ing
ind in
Ġmat inn
ĠT yrk
ĠlÃŃfsst ÃŃl
ĠÃ¶r orku
ĠmÃ¶guleik ar
ĠII I
ĠÃ¾ rif
Ġhef i
rÃ¦n ni
Ġv eist
ĠvÃ¶nd uÃ°
ĠÃ¡nÃ¦gju legt
SÃ¦k tu
ĠsÃ½ning una
R Ã©tt
Ġt e
Ġdag setningu
Ġstutt um
ĠÃ¾akk ir
iÃ° a
ĠH ek
ĠÃ¾ Ã³k
Ġfug l
Ġgrip iÃ°
Ġvar ir
ri sti
Ġhug ann
ĠstjÃ³rn enda
Ġh iti
ĠbÃ¦ ndur
ĠtÃŃ Ã°um
ĠÄĽ Å¾
ĠÃ½ms ir
Ġtap aÃ°i
ĠL ilja
Ġeld ra
sk ÃŃ
Ġsam s
Ġvef svÃ¦Ã°iÃ°
skap ar
ĠLaug av
Starf iÃ°
P A
Ġfimm ta
ĠeyÃ° ileg
Ġ7 9
ĠÃŃbÃº Ã°um
f Ã¶t
ĠfÃŃkni efna
ĠAÃ° rir
ĠÃ¦tl unin
Ġflokk ar
Ġbarn inu
ĠumboÃ° smaÃ°ur
ĠafÃ¾rey ingar
ĠfÃ³lk inu
Ġra ung
Ġminn k
199 0
ĠL o
ĠmÃ¦ lum
eink unn
Ġm Ã¸gu
Ġupp skrif
L ok
ĠÃŃ ÃŃ
rÃ¡ n
ĠhvaÃ° an
hver ju
Ġbygg Ã°ur
Ġsty tta
N iÃ°ur
at ar
Ġp ÃŃnu
tu be
Ġvar pa
Ġsm ÃŃÃ°a
ĠBjÃ¶rg vin
ĠmÃ¦l ingar
ĠVeg agerÃ°ar
ĠstÃºl k
ĠsÃ¶g una
af mÃ¦li
Ġk ÃŃsil
ĠlÃ¡ gt
ĠsjÃ³Ã° num
Ġfyrirspur nir
Ġb ot
Ġsn ert
ĠbÃ³k ar
Ġlaun afÃ³lks
Ġatvinnul eysi
Ġm o
ĠmÃ¡l aflokk
ĠFÃ¦Ã°ingarorlofss jÃ³Ã°i
Ġg yÃ°
ĠM il
ĠsvÃ¦Ã°i sins
ak er
ĠtÃŃ unda
ger Ã°i
e ar
ak t
ĠÃ¡kv Ã¡Ã°um
rÃ¦ nar
Ġfang a
rÃ¡Ã° iÃ°
k allaÃ°
Ġskot iÃ°
ÃºtgÃ¡ fu
st Ã½ri
Ġt eig
ug ur
Ġli fir
ĠmeÃ° fram
ĠK ra
ĠGyl fi
af i
Ġfund argerÃ°
ow er
Ġfrem stu
Ġhald ist
ĠgÃ¦ lu
Ġton num
Ġdru kk
Ġend anlega
v as
Ġs Ã¶l
ĠfjÃ¶lmiÃ° lar
k it
Ġh repp
angavel tur
sm ÃŃ
ĠlÃŃ m
ĠÃĵlaf sdÃ³ttir
ĠStarf smenn
. :
ĠP ark
ant shaf
ott iÃ°
ĠH S
ĠhÃ¦kk andi
ĠbandarÃŃ ska
Ġ18 9
sk emm
ĠstÃºd ent
ĠÃ¡ byr
gr eitt
IN N
ĠskrÃ¡ ninguna
ĠnÃ³ v
ĠÃ¾ jÃ³Ã°a
ĠbÃŃlast Ã¦Ã°i
Ã¾ eg
Ġs Ã¦l
Ġendurspeg lar
P ar
Ġk ÃŃk
Ġund ar
Ġvel lÃŃÃ°an
ĠS Ã½r
Ãŀ riÃ°
Ġskip i
st eyp
ak eppni
ĠO kkur
ĠlÃŃklega st
ĠÃ¸ll um
ĠfjÃ¶l gaÃ°
ĠerfÃ°a breytt
Ġhug tÃ¶k
Ġerlend ir
ĠÃ¾jÃ³Ã° ir
bl Ã¶nd
ĠheiÃ° ar
Ġsig la
Ġpl an
Ġbolt anum
l Ã¶nd
st rÃ¦ti
Ġstund ar
arar nir
ĠspÃ¡ in
F erÃ°
arf jarÃ°ar
Ã¡byrg Ã°
Ġfl Ãº
ĠhÃ³p um
Ġ199 2
Ġt Ã³l
fyr i
Ġsum ri
v ins
ĠÃ¡kveÃ° nar
vald i
P ersÃ³nu
r Ã°i
Ġvel t
ĠAf tur
B Ã³k
ĠÃºtil ok
Ġ11 0
Ġel skar
ĠsamtÃ¶k in
Ġh lÃŃ
Ġaf a
Ġfer il
ĠbÃ¡ ta
ĠVerk efniÃ°
ĠbÃ¦jar stjÃ³rnar
Ġb jÃ¶r
ĠS und
ĠT witter
Ġborg arf
Ã¡ ms
lÃŃ fiÃ°
Ġskemm tun
Ġflokk urinn
ĠUnivers ity
k Ã¡l
Ġs Ã³s
Ġfrumvarp s
ÃŃ um
eig enda
skrÃ¡ in
Ġ14 5
ĠtÃ¶lv unni
Ġf Ã©l
rÃ©tt ing
Ġa ir
ec k
ĠSt Ã¦r
Ġallt of
Ġ8 00
ĠpÃŃ an
E C
nu s
Ġbr un
ĠJap an
Ġbland aÃ°
, âĢĿ
ĠbÃ¦ tast
ĠF jalla
ĠsmÃ¡ m
Ġval ko
ĠÃ¾jÃ³nust una
f jall
Ġbr ota
ferÃ° um
ĠvÃŃs ir
ic e
pa ppÃŃr
ĠsjÃ³nvarp i
Ġstytt ri
ĠÃį Ã¾rÃ³tta
Ġfylg ist
ĠvarÃ°v eislu
ĠbÃ¦ nda
ĠglÃŃ ma
Ġsak ir
GuÃ° rÃºn
V al
Ġsy nir
Ġsko Ã°uÃ°
eg o
ĠumrÃ¦Ã° unni
Ġendursk oÃ°a
Ġ @
Ġst ress
is ma
ĠKrist in
Ġb o
eym slu
ĠâĢ ĺ
Ã¾jÃ¡lf ari
ĠÃ³ sn
Ġendurspeg la
d emÃŃ
Ġk yl
Ġfjar skipta
S ÃŃÃ°a
Ã¦f ni
frÃ¦Ã° ilega
ĠN esk
ĠC l
Ġvinn unni
Ġhjar tan
Ġskyndi hjÃ¡lp
Ã¡ hug
Ġmark iÃ°
ĠafleiÃ° ingum
ĠaÃ° setur
Ãģ kvÃ¶rÃ°un
vald iÃ°
Ġheimild um
ĠsÃ¡ tu
Ġl Ã³Ã°a
ĠtrÃº i
Ġgrunn skÃ³lum
ĠÃ¾jÃ¡lf ara
t rÃ³
Ġsafn sins
Ġj ur
ĠÃ¶ x
ĠmeÃ° lÃ¦ti
ĠL E
ĠÃ¾ing iÃ°
Ġvald ar
Ġst rik
ĠFrÃ©tta blaÃ°inu
Ġein ingar
Ġey Ã°i
ĠundanÃ¾Ã¡ gu
ĠEl ÃŃs
ĠSiglu firÃ°i
ĠSver ri
ĠbrÃºÃ° kaup
ĠstÃ¦ kka
Ġat riÃ°um
ĠvÃ¶r urnar
ĠStjÃ³rn mÃ¡l
ĠVÃŃsind avefurinn
ĠC an
Ġvelkom in
merk ur
ĠkvÃ¶ld i
ĠferÃ° amann
Ð º
ĠK ald
Ġhr Ã¦r
Ġaf laÃ°
ĠR eik
ĠkvÃ¶ld in
ĠÃ¾jÃ³Ã°kirk junnar
g leika
nu Ã°ust
Ġhelm ingi
sÃŃ Ã°ur
ĠmÃ¡ ta
ĠÃĵ li
Ġskipulag i
Ġy tri
Ġfer mingar
Ġh napp
Ã¸ l
sl au
ĠlÃ¡ tum
srÃ¡Ã° herra
v ek
sk jÃ¡
ĠF jarÃ°a
Ġfr iÃ°i
Ġles endum
Ġnefnd ir
Ġf oss
ĠV arÃ°
Ġgam li
b Ã³ka
Ġs c
ĠM egin
Ġp ir
ch ester
ĠSjÃ¡lf stÃ¦Ã°i
Ġtr om
Ġu ll
Ġfor rÃ¡Ã°
ĠKr ing
ĠTv eir
Ġbjug gu
Ġskip tingu
Ġafh endingu
am pi
ĠHo num
F lug
ĠR egi
ĠÃįslands banka
F S
r en
sm arkaÃ°i
ĠSam keppni
ĠvÃŃs inda
Ġsigur vegar
Ġstill ingum
Ġd eginum
tu s
Ġinnlend um
skur Ã°ur
' s
k iÃ°
Ġnor rÃ¦nu
ĠheimasÃŃÃ° unni
Ġsv on
Ġskip um
Ġfram s
ĠKÃ¦r andi
ey f
Ġh jÃº
Ġd Ã³ma
Ġsal ti
Ġrei sa
ĠhÃ¶f Ã°i
Ġkirk jum
Ġhorm Ã³na
ĠhÃ¡deg inu
vÃ¶r p
ĠblaÃ° inu
RÃ¡Ã° herra
ĠutanrÃŃkis rÃ¡Ã°herra
ĠSig rÃºn
Ġpen ingastefnunefnd
re ka
F Ã³lk
Ġleik sins
Ãģ Ã°ur
ĠNÃ¡mskeiÃ° iÃ°
ĠfrÃ©tt amiÃ°
vÃŃs anir
ĠAlic ante
ĠhÃ¡l ft
Ġvettv ang
Ġhygg st
Ġbann aÃ°
D A
M ik
ĠS Ã¦m
Ġlau g
ĠÄį Ã¡
Ġhand rit
ĠvÃ¦g i
ĠrÃ¡ Ã°i
ĠgrÃ³Ã°urhÃºsaloftteg unda
ĠmÃ¡l flutning
Ġa d
ĠhÃ³tel iÃ°
Ġey Ã°u
Ġnokkur s
land iÃ°
Ġsk Ã¶mm
Ġr eist
jÃ³r inn
ĠljÃ³s iÃ°
ab et
ĠhÃ³f ust
Ġh rÃ¦Ã°
Ġv ÃŃkja
Ġn yt
l ef
ĠlÃŃf sh
ĠefnahagsrÃ¡Ã° uneytiÃ°
eit iÃ°
ĠstÃ¶Ã° var
sÃŃ Ã°um
r unum
Ġkenn urum
Ġskil greina
m l
ĠÃĸl fu
Ġsk erÃ°
Ġen ska
Ġauk ningu
Ġmarkv iss
arf lug
ĠmÃ¡nu Ã°ur
ĠpersÃ³nu vernd
ĠRannsÃ³k nar
ĠVegagerÃ°ar innar
Ġvit ne
Ġfag ur
ĠÃŀ ann
ang t
ĠfyrirtÃ¦k is
ĠframleiÃ° ir
Ġherbergis verÃ°i
E kkert
ĠK epp
Ġs yk
Ġh alla
jan legt
frÃ¦Ã° ileg
Ġek iÃ°
ĠtÃºl ka
ÃŃ v
Ġsv ari
dÃ¦m is
ss aga
ĠferÃ° al
ĠEin f
ĠNorÃ°url anda
Ġbr enna
leiÃ° sla
Ã°u gt
ĠbÃŃ lum
ĠsiÃ° areg
ĠSÃģ M
Ġtv ennt
f la
Ġtil vil
Ġken ndi
ĠR es
ĠaÃ°st aÃ°a
Ġa kk
ĠEy jum
ĠÃŀÃ³rÃ°ar son
Ġbank inn
ĠmarkaÃ°sset ningu
b Ã¶rn
ĠÃ³ nÃ½
ĠbÃ¦jar stjÃ³rn
el sÃŃ
Ġsvip uÃ°um
Ġh um
Ġb anna
Ġlif aÃ°
Ġfram fyl
sb ÃŃ
Ġnafn inu
Ġaf not
ĠSel t
Ġs Ã½r
ĠkrÃ³ nu
ĠÃ¾ ema
ĠH itt
borg ara
borÃ° iÃ°
Ġvinnuveit anda
ĠskrÃ¡ ningin
ĠÃ¡f engi
Ġbrug Ã°ist
ĠK et
Ġse ta
ĠH jÃ³l
ĠÃ¡hug amÃ¡l
ĠmarkmiÃ° iÃ°
ĠÃ¾jÃ¡lf a
f aliÃ°
ĠS Ãį
ĠB rauÃ°
ĠvÃŃ mu
Ġfag lega
Ġr ÃŃka
li m
Ġt ra
Icel and
] ,
Ġk ant
ĠnÃ¡ttÃºr unnar
prÃ³ fi
Ġs Ã¶nnunar
Ġbl ekk
ĠaÃ°ildarrÃŃk ja
Ġfullkom na
Ġsig a
ĠframkvÃ¦mdast jÃ³rnar
dr ykk
ĠA nn
Ã¸ kur
ĠrÃ¡Ã°uneyti sins
ĠUnn iÃ°
ort h
virk junar
ĠStokk hÃ³l
V or
Ġop nuÃ°
ĠhlaÃ° a
Ġfrumvarp i
ĠsÃ©rstak an
Ã¾rÃ³ unar
ĠÃ³Ã¾ ekk
Ġstel pur
ĠEÃ° lisfrÃ¦Ã°i
Ġeftir spurn
n unum
ĠÃ¡ burÃ°ar
Ġt or
ĠtrÃº verÃ°u
ĠSk Ãºla
ĠSagn frÃ¦Ã°i
ĠnÃ½r na
ĠÃºtsk Ã½ra
b el
reyn slu
ĠÄ ļ
vi ti
tug s
ĠV aÃ°la
sf or
Ã¶ s
ĠB Ã¶rn
ĠskÃ³la starf
gef a
Ġm g
ĠsÃ¦ taf
ĠKeflavÃŃkur flugvelli
FjÃ¡r mÃ¡la
var Ã°
Ġ20 30
ĠreiÃ° i
Ġeitt hvert
ĠmÃŃn s
Ġgildist ÃŃma
m o
ĠaÃ°gang s
Ġm al
Ġrek in
Ġsparis jÃ³Ã°
A uÃ°
eng en
Ġall sherjar
Ġfjar ri
ĠVer Ã°ur
ĠÃ¡fangast aÃ°
ĠRegi on
ĠÃºtb reiÃ°slu
ar ÃŃk
ĠfullorÃ° na
ĠverksmiÃ° ju
K A
sk jÃ¶l
ĠÃ¡ lÃŃka
ĠvÃ¶r n
H Ã¡l
et ri
ĠÃ¾ing inu
am at
Ġsam tal
MiÃ° viku
Ġp ok
as Ã¶m
Ġvef verslun
ĠfjÃ¡r mun
jÃ¶kul s
H jÃ¡
Ġk ennd
heim um
ĠM Ã½r
afrÃ¦Ã° ingur
Ġg as
ĠkÃŃlÃ³m etra
Ġsamkeppni sh
s Ã¶ng
ĠGuÃ° ni
Ġfyrir bÃ¦ri
ĠkvaÃ° st
ĠÃ¡fangast aÃ°a
Ġgjaldeyris haf
Ġsil fur
ĠstrÃ¡ kar
Ġg Ã¶tur
Ġjar l
ĠstjÃ³rnar manna
ĠÃĿms ar
l yf
n iÃ°ur
am s
Ġ7 00
p oka
al eyfi
ĠliÃ° inn
virk ja
ĠsjÃ¡lfs eignar
Ġ198 0
ĠsvÃ¶r um
Ein elti
ĠÃ¡horf endur
is mÃ¡l
ĠG ert
heim a
ĠafmÃ¦li s
ĠApp le
ĠV Ã¶ru
ĠrÃŃf lega
ĠÃ¾Ã½ Ã°ingar
ĠerfiÃ° leikum
ĠbÃ³k un
ĠlÃŃfs skoÃ°un
ĠV Ã¶r
Ġvin stra
ĠTil gangur
Ġfag nar
ar annsÃ³k
yn n
ĠHÃ¦ starÃ©ttar
ĠFrÃ¡ bÃ¦r
ĠReykjanes bÃ¦
sam ur
ĠlÃŃfrÃ¦ num
ĠF ax
Ġein lÃ¦g
ĠHag stofu
j ana
ĠF al
Ġf Ã³st
sl ÃŃk
f estu
S Ãº
Ġpre stur
H er
Ġf ÃŃna
Ġd Ã³s
Ġend alaust
ĠgreiÃ° i
ĠViÃ°skipta blaÃ°sins
Ġvar Ã°i
tur nar
Ġhlaup iÃ°
Ġsm it
ug l
sleg ri
Ġsk riÃ°
Ã¾ ar
Ġung ling
ur a
Ġs or
vÃŃ st
ĠÃĵ la
ĠpÃ¡ ska
ĠfarÃ¾eg um
Ġp opp
ĠSlÃŃk t
7 4
V insamlegast
Ġheim an
Ġ199 1
ĠKv enna
ĠS i
ad ing
arf Ã³lk
Ġstr eitu
Ġt Ã¶ldu
til egar
ĠsÃ½ num
Ġsp Ã¦n
ĠÃŀorstein sson
Ġs r
ĠjÃ¡r n
nd in
at ÃŃma
ĠÃ¦f ingu
ĠH var
Ġgr ÃŃn
skip unar
Ġstill t
ĠaÃ°st Ã¦Ã°
ĠÃ¾jÃ³Ã° fÃ©lag
ĠviÃ°skiptavin ir
Ġneyt endur
ĠsÃ¦taf ram
ĠstaÃ°fest ingar
ĠU tanrÃŃkis
ĠÃĸ ssur
Ġfyrst ir
ĠG ra
fi ce
Ġheimil um
Ġinnheim tu
ĠNorÃ°urlandar Ã¡Ã°s
Ġmannesk ju
h ygli
ar Ã©ttur
ĠÃ¾ing sins
ÃŃ ni
Ġbr os
Ġka Ã¾Ã³l
Ġinn gÃ¶ngu
Ġbl Ã³ma
ĠfÃ¶ tl
ĠÃºrskur Ã°i
dal sh
ĠlÃ¦r dÃ³m
ĠÃ¾ vi
ot o
li sti
Ġsv ak
ĠT akk
ĠvÃŃs an
Ġreik naÃ°
ĠÃŀÃ½skal ands
g ram
Ġg ÃŃfur
Ġum sÃ³knum
lag an
ĠR afn
Ġkenn ir
A ustur
pp i
Ġkra kka
ĠA D
ĠÃºt veg
ĠT Ãºn
Ġminn kaÃ°
upp gjÃ¶r
Ġframmist Ã¶Ã°u
ĠÃģ horf
Ġgef i
Ġkvikmynd agerÃ°ar
ĠKF UM
Ġtek na
ĠF rÃ¦Ã°
Ġp oka
ĠHeim a
Ġ20 20
ĠvÃ¦n ta
brau tar
ĠpÃŃ ts
ver ur
Ġsv eif
ĠTÃ³n listar
Ġb inda
m on
menn ta
rÃŃ Ã°ar
arfÃ©lag iÃ°
ĠHver s
Ġon line
r ans
brig Ã°um
Ãŀ or
en tu
Ġveg ur
Ġhagsm un
s onar
Ġst arv
ĠrÃ©tt lÃ¦
ĠkÃŃl Ã³
Ġfing iÃ°
ĠnÃ¡ miÃ°
ĠO b
Ġs a
Ġskip sins
Ġgam alt
ĠlÃŃkam lega
s er
Ġflest ra
ĠÃ¾akk ar
ei p
Ġ9 3
brey ting
ĠgÃ³Ã° ra
ĠÃ¾riÃ° ji
sm at
Ã¦kni s
ĠrÃŃ fa
o ol
ĠÃŀ rÃ¡
ĠA x
ĠlÃ¦g sta
verÃ°laun in
iz z
ĠjÃ¡kv Ã¦tt
ĠjarÃ° hita
Ġhag spÃ¡
Ġvatn inu
ĠmÃ¦likvar Ã°a
ĠrÃ©ttar stÃ¶Ã°u
Ġgjaldeyrishaf ta
Ġbir g
atn aÃ°i
ĠviÃ°urk en
Ġpa bba
K ona
Ġhlut afÃ©lag
ĠÃ³trÃº legt
gang urinn
ĠB elg
Ġhl eyp
Ġleig ja
Ġvar p
ĠP all
ĠlÃ¦k nar
Ġk Ã¡
ĠM ic
Ġsam visku
ĠgreiÃ° sla
Ġheilsu far
ĠÃ¡ form
ĠViÃ° horf
ĠMen u
ĠD el
k Ã¶st
ĠÃº ÅĻ
samband iÃ°
ĠVald imar
H D
Ġhver fi
ĠÃ¡hug afÃ³lks
Ġgist i
Ġj epp
Ġfor tÃŃÃ°
ĠL estu
ĠalÃ¾jÃ³Ã° legu
ĠHv ann
ĠH inn
ĠmÃ¡l Ã¾ing
Ġflug um
qu e
Ġ jÃ¶k
al ir
Ġs oleiÃ°is
Ġpar tur
ĠPro vin
S ch
st ov
ot h
ĠsjÃ³ manna
ĠerfiÃ° ara
Ġvet r
ĠskjÃ³ tt
ĠviÃ° auka
ĠSÃŃ Ã°ustu
Ġskip tast
stak t
rei snar
ĠGrÃ© tar
ar anum
Ġdag setningar
ĠSk Ã¡k
B jar
ĠU SA
ĠU ndan
Ġsend ingu
ĠÃĸn nu
S eg
Ġe t
ĠB akk
I G
ĠStr and
Ġhaus inn
skil yr
sm ÃŃÃ°i
lÃ½s ingum
Ġra u
Ġsk jÃ¶ld
ĠkÃ¦r unefnd
ĠBjÃ¶ ssa
ra t
Ġfimm tÃ¡n
Ãī R
v efur
ĠSk Ã³g
ĠverÃ°laun in
8 8
ka ss
Ġtal ist
ĠstÃºl kur
For sÃ¦tisrÃ¡Ã°
Ġkynn tu
ĠlÃŃfsg Ã¦Ã°i
j ag
Ġfyrra dag
gg jar
ĠblaÃ° amann
ĠÃºt gjÃ¶ld
s Ã³tt
Ġmerk ilegt
ĠÃŃtar lega
at eg
Ġsvo leiÃ°is
ĠsÃ³l in
ĠAt li
veiÃ° ar
ĠAustur lands
ĠR Ãºn
ĠPÃŃra ta
ĠvÃ©l ina
ĠAmer ÃŃku
ĠbÃº i
ĠÃ¶r lagar
or a
ver Ã°ir
amenn sku
ĠnÃ¡mskeiÃ° um
Ġbur Ã°ar
ĠfjÃ¶l eignar
ĠNiÃ°ur stÃ¶Ã°ur
T U
ver i
aug s
Ġuppbygg ingar
Ã¸ ll
hÃ¶ll inni
Ġaf staÃ°a
Ġveik inda
E A
Ġlang tÃŃma
ĠÃģr nes
Ġsvar iÃ°
af lutning
g ott
al au
ĠÃŀjÃ³Ã° minjasafn
Ġs endur
ÃŃ ta
Ġsam fel
ĠB est
Ã¶k un
ĠrÃ³ lega
Ġapp iÃ°
Ã¾ Ã©tt
* *
Ġl Ã¸g
miÃ° stÃ¶Ã°var
ĠÃ³hug nan
ĠÃºt gerÃ°ar
Ġlang ur
ĠFl okk
ĠE lÃŃn
ĠnÃ¡lg un
ĠTh om
Starf ar
em ent
ĠiÃ° k
ĠH lÃŃÃ°
ab lik
ĠupplÃ½sing atÃ¦kni
Ġfyrir bygg
Ġbak grunn
f yll
l yfja
Ġhtt ps
sp unk
Ġp lÃ¡
ĠG en
ĠleiÃ° ina
ĠstÃ¦r Ã°um
eyr ar
Ġley ft
Ġt ur
Ġvest ra
aÃ° stoÃ°
er na
jÃ³ num
ĠMosfells bÃ¦
ĠÃ¡ Å¾
Ġpr jÃ³na
ĠH Ãºna
H Ã¦
ĠÃģ stÃ¦Ã°an
Ġreik nings
ĠSa int
ĠlÃŃk indum
enn slu
ĠlÃŃ tt
styr jÃ¶ld
Ġfr Ãº
ĠhÃ¦ li
ĠhÃ³p ar
ĠÃ³h ef
Ġsal at
Ġdre p
ĠmatvÃ¦ li
Ġy mi
ĠmÃ¡l efna
Ġhag skÃ½r
Ġv a
Ġd em
Ãŀ Ã¦r
Ġjafnt efli
ĠRÃŃkis Ãºtvarp
fur t
ĠsamtÃŃm is
leg heit
ĠdÃ³m nefnd
ĠNorÃ°url Ã¶ndum
r Ã¸
st Ã¶k
ĠhÃ³p sins
us ar
Ġloftslag smÃ¡lum
H lut
ĠtÃŃmabund na
ĠframleiÃ° endur
ĠvÃ¶Ã° v
atil kyn
ĠfjÃ¶lmÃ¶r gum
Ã¶m mum
ĠliÃ° a
Ġhagsm unir
Ġmiss erum
ĠrÃŃkis skatt
. ).
verk efnum
Ġsner ta
ĠTÃ³n list
ĠkÃ¶rfu bolta
ĠtÃ¶f lu
G l
ers en
g ni
Ġ198 9
Ġnot anda
Er tu
m ikil
Ġtilvik i
Ġhann aÃ°
ĠvÃ©l inni
lÃŃ na
s c
v Ã©la
holt s
Ġst emm
An naÃ°
ĠÃ¶m mu
Ġfors var
Ã¾ekk ingu
Ġs ekt
Ġfl estu
her sla
slum aÃ°ur
g reiningar
ĠblaÃ° iÃ°
ĠSkipulag s
h u
ĠVig dÃŃs
ĠGyl fa
E SB
ĠprÃ³f aÃ°
Ġkirk jug
, -
ĠÃ¾ig gja
ĠstuÃ°ning ur
slug erÃ°
Ġben sÃŃn
ĠSauÃ° Ã¡r
ĠreglugerÃ° ir
Ġvirk an
ĠSl Ã¶kk
brag Ã°s
Ġhag kerfisins
Ġel sta
ĠÃ¶rstu tta
ĠProvin ce
L S
arf l
ĠauÃ°lind arÃ¡Ã°uneytiÃ°
ĠFre yr
ĠHlut verk
E ld
Ġl Ã³Ã°ar
ĠrÃ¡ Ã°ist
ĠÃ¡rstÃŃ Ã°um
ot s
ĠstjÃ³rn aÃ°
tÃ¶l um
ĠL Ãº
Ġrif ja
Ġtrygging agjald
Ġs miÃ°
ĠB al
Ġ14 1
ĠhÃºÃ° ina
an sk
Ġstof naÃ°i
Ġre st
ĠDavÃŃ Ã°s
Ġv i
Ġver sta
ĠlÃ¶g gjafar
ferÃ° in
ĠferÃ° alÃ¶g
ĠAl mennt
Ġvin konu
Ġskuldbind ingar
ĠlÃŃ nur
Ġversl unum
s Ã©
Ã½ mi
ĠhÃºs um
ĠÃ¾jÃ³ nar
Ġframhald inu
v eÃ°ur
ĠrÃ¶k stu
ĠÃŀÃ³ ri
Fram kvÃ¦md
es en
ĠsÃ¡l frÃ¦Ã°i
ĠDal vÃŃk
L ÃŃf
ĠI l
ĠrÃ¡Ã° legg
ĠÃ¾Ã½ Ã°a
ĠsÃ¦tafram boÃ°
Ġnor Ã°a
ĠiÃ° n
ĠVer slun
Ġp il
ĠN a
sl ist
Ġsm ÃŃ
undar Ã©ttur
Ġumhverfis Ã¡hrif
verÃ°trygg Ã°
Ġsett um
Ġleggja st
B ar
ĠÃ¶flug t
B org
ĠdÃ³m s
ĠlÃŃtil lega
ĠskÃ¶p unar
ĠlÃ½ tur
ĠÃ¡ratug num
Ġvo nast
Ġm ild
ag runn
ĠfjÃ¡rmÃ¡l arÃ¡Ã°herra
Ġfisk vinnslu
ĠAnd re
Ġumhver finu
ĠsjÃ¡lf smynd
ĠV i
Ġhlu tur
n ana
Ġal hliÃ°a
ĠskoÃ° aÃ°ur
l anda
ĠÃŃ vil
reiÃ° a
U tanrÃŃkis
ĠN es
ul la
Ġsinn ir
sk rÃº
eiÃ° a
ĠsjÃ¡lf virk
ek i
ĠÃ¾ung lyndi
ĠstaÃ°rey ndir
skip a
Ġatvinnust arfsemi
Ġf iska
li sh
ig ar
ĠR au
au ki
sv Ã¦Ã°a
hel gis
' '
k s
t Ãºr
ĠMorgun blaÃ°sins
flokk ur
R auÃ°i
Ġeld hÃºsinu
ĠvarÃ°v eitt
ĠlÃŃfeyrissjÃ³Ã° um
Ġs ess
Ġn eina
ĠW ik
ar y
la d
ĠT Ã³k
re kk
ĠS ov
ĠkÃ¦r lega
ĠÃºt af
ĠBre ta
ĠsÃ³ sÃŃ
Ġhug tak
ĠAlÃ¾jÃ³Ã° agjald
ĠDag ur
ĠVal ur
ĠmenningarmÃ¡l arÃ¡Ã°uneytiÃ°
Ġst ov
Ġfr anska
m al
Ġd rif
ĠÃ³ eÃ°l
Ġ jÃ¶kul
Ġslepp t
S et
or Ã°um
Ġsam stÃ¶Ã°u
ast jÃ³ri
Ġhlut deild
Ġmorgun fundi
Ġkaup anda
Ã°ir nar
ĠveiÃ° ar
brÃ© fi
ĠaÃ°stÃ¦Ã° na
sl aga
mÃ¡l ar
ĠnÃ¡kvÃ¦m ni
menn irnir
MeÃ° al
Ġfal legum
am inn
ĠÃ³lÃŃk t
Ãŀ jÃ³Ã°
ĠvaxtaÃ¡kvÃ¶rÃ°un arfundi
ĠmiÃ°n Ã¦tti
dag in
Ġteng ingu
Ġmorgun mat
Ġvax tar
fjÃ¡r fest
Ġn ett
ĠhÃ¡l fa
ĠhÃ¡tÃŃÃ°ar innar
C A
oll ur
ĠEndur vinnslu
Ġf im
ang re
ĠK os
ĠÃ¾r Ã¶ng
ar ÃŃ
Ġat riÃ°
Ġop nast
vatn s
ĠAld rei
h yr
Ġnot aÃ°ir
bur Ã°um
Ġtrygg i
Ġvand lega
ĠK Ã¡ri
ĠfÃ©lag smÃ¶nnum
ĠlÃ¶greg lan
Ġb Ã¸r
hÃ¦ ft
st efnan
Ġendur heim
Ġlyf ta
ĠkÃ¦ ft
ĠG rÃ³
ĠW ind
ĠÃ¾ri svar
h yl
ast Ã¶Ã°um
Ġt afar
Ġor gan
Ġmikil la
gerÃ° in
ĠLeif s
ĠT ex
ĠvinsÃ¦ ldum
MiÃ°viku daginn
irk om
Ġfer sk
ĠG etur
ĠmÃ¡l smeÃ°ferÃ°
Ġkynn tar
ĠverÃ°bÃ³l gum
ĠlÃŃf vera
Ġraun inni
ljÃ³ st
rannsÃ³k na
ĠA ss
ĠSÃ¦ var
Ã³ pa
st undir
ĠSam bands
ĠTrygg vi
w ay
Ġst yrkur
ĠHÃ¡ skÃ³lann
Ġbank ar
ĠguÃ° s
ĠsÃ¶f num
Ġein dreg
ĠÃģ stral
ĠSam band
E M
Ġskip aÃ°ur
Ġskal t
ĠSam an
Ġhand verk
ĠvÃ¡trygg inga
Ġkennil eitum
F D
vin ir
d rÃ¡
Ø §
Ġb ikar
ĠÃŀ jÃ³r
andi c
ĠÃ¾Ã½ ska
ĠhÃºsnÃ¦Ã°isl Ã¡na
fl Ã¦Ã°i
is e
Ġsaf nast
ĠD onald
ĠkjÃºk ling
K R
f ulltrÃºi
Ġskil virk
ĠbÃŃ ll
Ġhag rÃ¦Ã°
irkom ulag
Ġs Ã¶kk
ĠB or
Ġfl ey
Ġmann rÃ©ttindi
ang an
Ġsamning sins
ĠH ildur
ĠsjÃ¡ i
ĠnÃ¦ sti
ĠGr afar
k affi
Ġk orn
ĠÃ¾eir a
tÃŃ nu
hÃ¦kk anir
ĠKF UK
ĠInst agram
ĠGÃŃsl ason
ĠrÃŃk jandi
hlu tum
Ġors ak
ĠEyr arb
ĠÃŃ huga
Ġsk jald
Ġhef Ã°um
ĠN Ã³
Ã¶f lun
Ġ16 0
ĠÃ³g n
ark i
Ġmorgun inn
ĠtÃ¦kif Ã¦riÃ°
Ġkenn sla
ĠI CE
Ġgam ans
ĠmÃ³t or
ĠGuÃ°m undar
breyt inga
Ãŀess ar
veit ingar
Ġmeng un
Ġverk inu
Ġspenn t
Y rÃ°i
Ġr Ã¸
ĠB ollu
bÃº inn
Ġskip ulÃ¶g
ĠÃĵ lymp
bur Ã°a
Ġfl Ã³knar
frÃ¦ gir
ĠÃ³ met
Ġmiss ir
Ġuppfyll ir
Ġdeili skipulag
ĠBlÃ¶nd u
ning ja
Ġpa bbi
ĠhjÃ³last Ã³l
ing anna
framleiÃ° sla
rÃ¡Ã°uneyti sins
Ġf lutninga
re tta
ĠsÃ©r sniÃ°
Ġgjaldeyris mÃ¡l
ĠleiÃ°t oga
ĠL yf
ĠHÃ¶ ddi
Ã°u Ã°u
Ġafs Ã¶kunar
m ing
Ġhug ar
ĠumrÃ¦ dd
ĠÃ¾rÃ³ aÃ°
ĠE KK
fr eÃ°
Ġhorf Ã°i
vit und
herberg jum
brjÃ³ sta
ĠN A
Ġalvar legar
ĠMin jasafn
Ġeng ir
ĠklÃ¡r lega
ĠV ÃŃkur
tÃŃ mar
Ġeinstakl ingi
Ġk u
Ġbir tust
ĠVeg agerÃ°
ĠJ Ã³la
Ġleik ja
ĠKrist ins
ĠLand ssam
Ġh rygg
Ġsk rÃ½
ĠSk inka
ĠJÃ³n ssonar
ĠleiÃ° ar
Ġf Ã¸
al inn
Ġb at
gar Ã°i
ĠrÃ¶k stuÃ°
ĠnjÃ³ ti
ĠvÃ¶kv a
ĠS ey
sn Ãº
R af
k onur
Ġupp tÃ¶ku
vÃ¶r un
b akka
ĠÃ¡ minn
Ġheilsug Ã¦slu
E g
Ġfyrir liggjandi
im skip
Ġnefnd inni
Ġr ÃŃÃ°a
Ġsum arfrÃŃ
Ġa um
ĠskjÃ³l stÃ¦Ã°
ĠhÃ¶f Ã°ing
Ġung lingar
Ġb ey
ex ÃŃk
Ġung menni
Ġsveitar stjÃ³r
Ġgei sl
ĠÃ³Ã¾ ol
ĠMan chester
ur Ã°ar
rÃº nar
ĠFor eldrar
ĠAt la
j endum
ĠW est
Ġd i
ĠMÃ¡l vÃŃsindi
Ġdoll ara
6 00
ĠHalldÃ³r sson
Ġbotn inn
ast jÃ³rn
Ã¶nd in
ĠFÃ¸roy a
Menn ta
en tur
ĠÃ¸ Ã°rum
ĠinnviÃ° a
ĠverÃ°bÃ³lgum arkmiÃ°
ĠstrÃ¡k arnir
ĠvÃŃ Ã°s
skyld an
ĠgrÃ¡ Ã°ur
ĠÃį R
Ġb indi
Ġtil nefningar
hug mynd
Ġf agn
ĠSt aÃ°a
menn ska
Ġfre sta
ĠUmhverfis mÃ¡l
Ġversl aÃ°
ĠÃ¾Ã¦g ilegt
Ã¡ kv
ĠD ar
f ulltrÃºa
ĠaugljÃ³ slega
w e
ĠTÃ¶l v
sm Ã¡
Ġlist amanna
ĠÃ¡nÃ¦g Ã°ir
ĠAthug iÃ°
V it
b ifreiÃ°
ĠmiÃ° ri
ĠÃ¾or p
ĠendurskoÃ° unar
ĠFinn b
Ġverk sins
ĠsÃ¦ tum
ĠG arÃ°
ust an
Ġfrumvarp inu
fÃ³lk s
U ms
g unar
ĠÃ¡h Ã¶fn
Ġsl Ã¦r
Sigur Ã°ur
ĠN em
veg ur
Ġset u
ĠaÃ°alf undar
ĠHÃ©r aÃ°sdÃ³m
Ġhand tek
ĠsÃ¦ tiÃ°
ĠG rÃŃm
ĠT om
afÃ©lag inu
ĠÃ¾urr k
Ġeinf Ã¶ldum
ĠÃ¾ing manna
ĠÃ¾yk ja
ĠBol ungar
Ġfram leitt
ĠsÃ¦ tta
sv eitir
ĠHÃ³l ma
Ġfram tak
ĠL Ãį
ĠstrÃŃ Ã°s
ĠsÃ³k n
stir Ã©ttur
ĠfjÃ¶lmÃ¶r gu
Ġmann rÃ©ttind
Ġ16 3
ĠLand eyja
ĠfjÃ¡rhag s
ĠÃ¾akk lÃ¡t
ĠlÃ¡gmark s
ĠleiÃ° i
ax ta
Ġb Ã¶n
Ġskrif um
Ġfors enda
6 4
Ġk asta
Ġaf greidd
Ġendur bÃ³ta
Ġmill j
ĠkjÃ¶r tÃŃmabil
i er
Ġsl ysa
Ġgjald daga
samning sins
Ġatvinnurek stur
ĠLeiÃ° bein
lÃ¡ na
Ġupp tek
Ġdag urinn
ĠnÃ¡ iÃ°
ĠGrÃ¦n lands
T Ã³n
Ġhlut hafa
ĠgagnrÃ½ na
Ġk lÃŃn
ĠM on
Ġvan alega
skÃ¶p unar
M ig
unn ur
ĠbÃŃl skÃºr
Ġb ull
Ġmann rÃ©ttinda
ĠÃ¾jÃ³Ã° fÃ©laginu
ingast arfsemi
Ġflu ttu
I M
Ġ9 1
Ġheimil anna
H in
ĠH raun
ningar nar
Ġlyf jum
ĠfÃ¦r Ã°i
00 00
ĠK affi
st rey
Ġb rygg
Ġverk fall
Ġbekk jar
Ġupp tÃ¶k
Ġvan taÃ°i
ĠAnnar svegar
hlutverk i
ĠÃ¡vÃ¶x tun
Ġsk ÃŃÃ°a
ĠF rum
ĠSk aft
ĠÃ¡ tÃ¶k
Ġteng i
ĠdjÃº pt
Ġf asta
ĠEg ils
ĠÃºtl anda
B Ãº
ĠB ill
ĠÃ¶ nn
ĠlÃŃk ar
ĠÃ¡ skrift
Ġgjald skrÃ¡
ĠstaÃ°sett ur
ĠÃ¾Ã¡tttak enda
ras il
Ġvar amaÃ°ur
ĠÃºt rÃ½
skur Ã°
l ana
ĠÃ¶ku tÃ¦ki
yn ni
ĠSk Ã³
Ġvarafor maÃ°ur
Ġkl Ã³
Ġhring du
Ġ197 5
ĠhÃ³tel inu
Ġfyrir sjÃ¡
jÃ¶r num
ĠÃ¾urf tu
Ãŀ ing
ÃŃ uleik
ĠkrÃ³ nan
ĠfrÃŃ stund
ĠB la
Ġskemmtileg um
ĠfÃ¦ra st
iÃ° naÃ°
ol es
f jÃ¶l
ĠF S
ĠÃ¾arf nast
Ã° unar
Ġh ik
Ġmerk ingar
ast arf
Ġof l
ĠveÃ°ur far
ĠÃŀÃ½skal and
Ġpr enta
ĠFisk istof
sÃ¡Ã¦tl unar
ĠDav id
m andi
Ġum b
en u
9 8
Ġmynd bÃ¶ndum
Ġlos unar
ĠhÃ¶f und
ĠlÃŃkam inn
GuÃ° mundur
ĠfÃ©lag anna
ĠMenn t
ĠmÃ³tt Ã¶kust
Ġm orÃ°
ĠFyr stu
Ġhv ol
Ġg ista
ĠsÃ½ ndar
Ġenn fremur
ĠkÃ¦ li
Ġhn eyk
ĠEndurvinnslu kort
ĠH on
Ã¾ yr
Ġlista verk
Ġk ak
ĠD Ã¦mi
Ġleg gi
Ġf iÃ°
Ġum gengni
Ġums agnar
Ġh app
ĠfÃ³t um
ĠvinsÃ¦ ll
ĠParÃŃs ar
D r
ak e
Ġfal legar
Ġviss um
ĠBer brjÃ³sta
Ġfell t
Ãįslen ska
SÃ¶gu frÃ¦gir
ĠpÃŃts astaÃ°ir
v arf
at er
Ġkr em
ĠÃŀess u
ĠHallg rÃŃm
Ãĵ laf
g agna
Ġn eg
ĠÃŀ ekk
Ġsn iÃ°i
Ġalmenn ra
ĠKri sti
Ġv eidd
Ġeink ennum
ĠljÃº ff
ĠskÃ³la starfi
ĠÃ¾rÃŃ fa
Ġvott un
ĠMark aÃ°
Ġband alag
ĠC re
Ġvit na
Ġh un
Ġmerk jum
Ġkort iÃ°
ĠumsÃ¦k jandi
b it
Ġbak ter
Ġnot andi
M inn
Ġbygg jast
ssv Ã¦Ã°i
Ġ ag
ĠÃ³h jÃ¡
Ġtil gangur
Ġtil eink
ĠsjÃ¡l v
ĠSmÃ¡ ri
ĠfjÃ¶lbreyt ni
ĠÃ¡h Ã¦tta
ĠÃŀ arf
ang ir
laus ar
Ġatvinnul eysis
ĠN AT
bor Ã°s
Ġk Ã½r
ĠS jÃ³nar
Ġteng il
ĠstaÃ°fest ir
ĠSteing rÃŃmur
b Ã¦k
al engd
Ġsam taka
ĠSt uÃ°
Ġ197 8
Ġbur tur
ĠM eistara
ĠSpar is
Ġst akk
Ġd o
ĠC a
ĠmikilvÃ¦g a
ĠsÃ³lar hr
ĠdÃ½ rum
ĠmarkaÃ°sset ningar
ĠPÃ©tur sson
G yl
ĠauglÃ½s ing
ĠheimsÃ³tt i
Ġm innar
Ġat burÃ°i
veg inn
ĠM or
ĠD u
jar nt
ĠStein ar
ĠÃºtl Ã¶nd
ĠÃºt rÃ¡s
pa kka
ĠfÃ¦ kk
E IN
ĠaÃ°geng ilegar
Ġsamein ast
on an
ĠÃ¦sku lÃ½Ã°s
S mÃ¡
Ġnefnd i
ĠaÃ°stoÃ° aÃ°
Ġspurning unni
aut sb
Ġumsv if
v ita
ĠB Ã¦kur
ĠhÃ©r aÃ°sdÃ³m
Ġsamning num
ast er
rÃŃ r
Ġvirk ir
9 3
ĠA b
araÃ¾ on
Ġsem sagt
lÃ¡ tur
ĠfjÃ¶lbrey tta
ĠhÃ¸v du
Ġbir tingu
Ġflokk num
ĠkynferÃ°is brot
on gu
ĠL Ã½Ã°
tr ans
ĠBÃŃ Ã³
ĠdrÃ³ st
bÃº sins
Ġrit stjÃ³ra
Ġst jÃ¶rnur
Ġeinhver ri
ĠhvÃŃ ta
ĠÃ¡ratug a
ĠheiÃ° urs
Ġstill ingar
myn stur
ĠB Ã¶rnin
li p
ĠsveitarfÃ©lag inu
verndar samtÃ¶k
Ġuppfyl li
sl Ã¡n
Ġflug vÃ¶ll
ĠkjÃ¶r inn
ri tum
Ġnokkur t
ĠR ek
Ġnor rÃ¦na
Ey jar
sm eÃ°
ĠleiÃ° rÃ©tta
ĠÃ³hjÃ¡ kvÃ¦m
Ġmynd arinnar
Ġsk el
ĠbÃ¡ Ã°a
Ġstel pan
ĠEgil sstÃ¶Ã°um
Ġv oÃ°a
Ġr of
ĠBr agi
Ġsvefn herbergi
ĠK KÃį
ĠsÃ¶g Ã°
isk os
Ġli tir
ĠsjÃ¡lfbÃ¦r ni
Ġl am
Ġst rÃ¦tÃ³
Ġinn ilega
arfÃ©lag a
ĠHau kur
unt y
Ġg all
Ġsam bands
ĠN afn
stÃ¶Ã° ina
bÃº um
ĠHer mann
ĠbÃ¦ti st
ĠK i
Ġundirrit aÃ°ur
Ġf Ã¦Ã°a
Ġung ra
Ġsv Ã¦Ã°a
ĠM ars
Annar s
Ġtvenn skonar
ĠF jÃ¶ldi
Ġsterk t
ĠG rÃ¦na
Ġhel sti
Ġsend iÃ°
ĠÃ¡ ferÃ°
ĠDan ÃŃel
ĠhÃ¶fuÃ° iÃ°
ĠleiÃ° um
Ġfyl k
ĠbÃŃ lar
ĠAt vinn
p ÃŃ
ĠbÃº um
ĠvÃŃsind amenn
b anda
k al
sl Ã³
Gyl fi
Ġst yr
ĠrÃ¡Ã° gefandi
sn Ãºmer
ĠsjÃ¡varÃºtveg i
h Ã¶ld
skip tin
Ġhag kerfinu
Ã¾jÃ³nust an
Ġpott inn
& #
O N
Ġh all
end ar
Ã¾ urr
T akk
et riÃ°
Ã°u Ã°um
ans inn
Ġsig ra
Ġrek inn
ĠS Ã¶l
Ġform legt
Ġf Ã¦Ã°i
Ġp ress
Ġhann a
Ġfl otta
aÃ° ferÃ°ir
ĠÃ¾ekk jum
Ġtil boÃ°i
s eg
v aÃ°i
ĠJ ÃºnÃŃ
yk t
Ġinn sÃ½n
Ġfre staÃ°
sb otn
de Ã³
Ġs Ã³ma
Ġ9 7
ĠbÃ¦jar stjÃ³ri
ĠsÃ©rstak ri
ĠrÃ¦kt uÃ°
ĠH ilmar
ĠstuÃ° lar
ĠtÃ¦p um
ĠvefsÃŃ Ã°an
ĠH it
ĠD om
ĠbÃŃ Ã³
Ġfr an
ĠhÃ©r aÃ°i
ĠtÃŃÃ° kast
Ġvelkom iÃ°
ĠDrott ins
Ã¶g nuÃ°
ĠG agnrÃ½ni
ĠumboÃ° smann
Ġrit gerÃ°
Ġsamh l
l ynd
Ġv atna
Ã¡l iÃ°
las ir
a el
ank anum
Ġdraum a
Nor Ã°ur
Ġm aga
sk ja
NÃº na
ĠÃŀaÃ° an
Ġskynd ilega
b ann
ĠskrÃ¡ ning
ĠÃ¡ liti
Ġgam lar
ĠjÃ¶rÃ° ina
ĠmeÃ°hÃ¶nd la
ĠÃ¡skor un
h al
ĠgerÃ° inni
Ġheil sa
ĠsjÃ¶ unda
ĠSnÃ¦fell s
h et
ĠÃ¾ okk
Ġgeg nir
Ġverkal Ã½Ã°
am anns
Ġd ey
Ġy tra
ĠlÃ¡ tinn
ĠÃįsland smÃ³t
ĠHag stofan
ĠFrank furt
Å ¥
ĠL yr
Ġ9 4
lukk an
aÃ° sÃ³kn
Ġhlu st
deild arinnar
frÃ¦Ã° innar
Ġl ung
ĠsamÃ¾ykki s
ĠsauÃ° fjÃ¡r
Ġh rÃŃÃ°
Ġsvon efnd
ĠferÃ° amÃ¶nnum
ĠskÃ½r slur
Ġlist amann
ĠhefÃ°bund na
NÃ¦st komandi
Ġgre indi
skip iÃ°
hÃ¦f ingu
Ġraf rÃ¦n
Ġskulda brÃ©fa
g Ã¦ti
Ġfor manni
Ġumhverfis mÃ¡l
unarf rÃ¦Ã°i
Ġt aug
in f
ÃŃ Ã°ur
l eÃ°i
ĠmÃ¦l ingu
Ġ198 7
ĠNesk aup
j aÃ°ur
Ġatvinnurek stri
ĠfjÃ³rÃ°ung i
Ġveg u
B re
Ġupp sker
Ġkirk juna
Ġst okk
ĠT er
ĠmÃ¡l m
ĠljÃ³ sa
ĠAll ur
li starf
ĠSuÃ°urnes jum
L ÃŃkt
Ã¶r Ã°ur
Sn jall
st raum
jal p
ĠliÃ° um
ĠfrÃŃ verslunar
ĠÃºtvarp s
Ġtil bÃºnir
el ag
ĠM undu
ĠfÃ¡ rÃ¡n
ĠhÃ¶f n
Ġspur ninga
Ġkann ast
Ġskemmtileg ri
fÃ³lk i
Ġrefs ingu
ĠrÃ¡Ã°her rar
vÃŃ ti
Ġinn blÃ¡stur
Ġsy stir
ĠGunnar sdÃ³ttir
tt um
ĠHÃ¡ skÃ³lanum
ĠmarkaÃ° num
svÃ¶r un
Ġbl Ã³Ã°i
fyrirtÃ¦k jum
ĠÃ½ Å¡
lend i
Ġalvar legt
Ġ8 3
ĠÃ¶ mur
Ã³k us
% )
ÃŃ num
ĠM ay
Ġopinber s
ĠgjÃ¶r samlega
ĠljÃ³sm Ã¦Ã°ra
Ġh Ã½
stjÃ³rn endur
ĠÃļ tl
ĠslÃ¡ tur
Ġm ess
ĠÃ¡f rÃ½
sker fiÃ°
ĠS if
ĠnÃ¡l Ã¦g
ĠAnd rÃ©
Ġmannvirk i
ĠviÃ°skiptal ÃŃfi
Ġborg in
Ġkrakk ar
ĠvÃ©l in
sk ila
sÃŃ mi
ĠAl manna
ĠkjÃ¶r um
svÃ¦Ã°i s
Ġhreyf ingar
ĠGam la
ei sla
ald i
ĠSt ar
Ġ25 6
ĠbÃ³ ginn
sv elli
ĠfjÃ¶l gaÃ°i
ĠbÃŃÃ³mynd a
ĠslÃŃk an
ĠmeÃ°li mir
ĠVilhjÃ¡l m
Amer ÃŃku
exÃŃk Ã³
o pa
ĠhvÃŃ ld
atrygg ingu
Ġt Ãºn
ĠF ro
Ġv ex
ĠH vert
ĠljÃ³smynd um
ĠHÃ¶f uÃ°
sam bandi
ĠhÃ¦g ra
Ġalvar leg
ĠT jald
Ġpen ingar
ĠIn ni
gjÃ¶r Ã°
Ġbjar gaÃ°
ĠSk yndi
ĠmiÃ° ja
ĠAlÃ¾jÃ³Ã°agjald eyrissjÃ³Ã°
ĠÃºtskrif aÃ°ist
Ġb akk
ĠGre en
ĠÃ¡r angurinn
ent s
ĠvÃ©l um
Ġg ald
Ġbe inu
Ġher ra
ĠÃ¾Ã¡tttak andi
ĠL of
ĠÃ½mi skonar
9 4
ĠlÃ¦ t
ĠAirb us
Ġtey g
ĠrÃº ma
ĠfÃ¡tÃ¦k t
et h
Ġgef um
ĠumboÃ° smanns
Ġum hugs
k en
Ġgrein ina
ĠBar cel
Ġh ert
ĠmiÃ° borg
tÃŃma bili
h Ã¶nnu
s ch
Ġt ykk
ĠPÃ¡l ma
Ġ ..
ĠvÃŃ Ã°ast
ĠtÃ¶lv una
ĠvÃ¶x tur
Ġgr afa
Ġbr ag
fr jÃ¡l
Ġ197 0
Ġforn leif
Ġlyf jaf
ĠfÃ¦ri st
Ġrafmagn s
ĠD es
Ġmann f
ĠSvein sson
Ġ7 1
Ġeld hÃºsi
sÃŃm afor
V iku
Ġv angaveltur
ĠD o
ĠLyr ics
ĠÃŃ tal
ĠÃ¾ol inm
G Ã³Ã°
L eiÃ°
ind ar
ĠÃŀÃ³r Ã°ur
ĠlandbÃºnaÃ°ar ins
bylg ju
r Ã¶nd
ĠvÃ¶ll inn
Ġb ili
sl ys
eng un
ĠhefÃ°bund num
ĠÃ¾ raut
i u
ĠnÃ½ tir
sleg ur
Ġrit stjÃ³ri
ĠvÃŃsind amanna
Ġg Ã³m
ĠÃŀÃ³r hall
ĠfjÃ¶leignar hÃºs
M L
verÃ° iÃ°
Ġbyl tingar
ĠsÃ©reignar spar
ĠEyrarb akka
Ġkon Ãºn
Ġsvok Ã¶lluÃ°u
Ġh esi
ĠnÃ½ liÃ°
ĠSigur geir
Ġlest rar
Ġ andar
sk amm
ĠskÃ³ lag
Ġb oÃ°ar
ĠfjÃ¡rfest ingu
Ġpass ar
ĠbÃ³k unar
ĠdÃ½r mÃ¦
ĠlandsbyggÃ° inni
Ġh reind
Ġkost um
ĠfÃ³tspor um
ĠM Ã³s
ĠHag frÃ¦Ã°i
Ã¡ttar Ã¶Ã°in
ĠHÃ¡l f
ĠSt Ã³ra
Ġ12 3
Ġung um
Ġb u
Ġsam bÃºÃ°ar
verk stÃ¦Ã°i
amÃ¡l arÃ¡Ã°uneyti
ĠAnd ri
ĠSelt jarnar
ss ins
ĠÃ¾ÃŃn s
ĠverÃ°lag s
r anum
ĠN e
ĠmÃ¡ ttu
Ġleit aÃ°i
Ġblogg inu
Ġb ert
Ãºra t
ĠfyrirtÃ¦k in
ĠÃŀÃ³r s
ĠhÃ¦tt ur
ĠBÃº iÃ°
ĠendurskoÃ° endur
ĠskrÃ¡ ir
Ġsta ddur
B ygg
ĠÃºt ÃŃ
ĠSjÃ¡lfstÃ¦Ã°isflokk urinn
ĠÃ³lÃŃk ar
Ġk la
ag arÃ°
gang s
Ġfeng ist
ja k
sm ÃŃÃ°
Ġfisk im
ĠP ep
ĠviÃ°skip tarÃ¡Ã°
Ġc on
hr aÃ°a
ĠHÃ¶f undur
Ġsl Ã³Ã°um
ĠsÃ¡ st
tion s
Ġ ilm
ĠhÃ¡tÃŃÃ° inni
Ġsamstarfs verkefni
Ġupp sp
ĠT Ã¶lu
ĠslÃŃk ur
arÃ¶Ã° inni
Ġsk ÃŃÃ°
ĠbÃ¡ tinn
Ġvins Ã¦l
ĠSvÃŃ Ã¾jÃ³Ã°ar
ĠE vu
at aliÃ°
Ġkjall ara
il sins
ĠborÃ° iÃ°
Ġmest i
ĠglÃ¦s ilega
is ion
ĠT opp
bÃº Ã°in
Ġhreins un
Ġeil ÃŃf
Ġb ata
Ġfyrir sÃ¶gn
ĠF ann
ĠviÃ°bur Ã°um
Ġheimsk autsb
Ġver uleik
ĠFyr sti
ĠS ur
ĠnÃ¡ttÃºr una
ĠGuÃ°jÃ³n sson
Ġsaf nar
Ãº a
ĠÃ¾jÃ³Ã° garÃ°s
Ã¶kk unum
ĠHeildar aÃ°sÃ³kn
Ġstelp urnar
ĠÃ³ vÃ¦n
ĠKri stur
Ġr Ã©Ã°
ĠfrÃ©ttamiÃ° ill
Ã¾ jÃ³n
ĠW illi
afur Ã°a
F inn
Ġs uÃ°a
gr und
Ġset ningu
breyt ingum
ĠL ag
ĠFinn landi
d o
Ġhaf Ã°u
ĠV ir
Ġtak ti
skÃŃrtein i
I P
samt Ã¶kum
Ã½s ingu
ĠA sÃŃu
ĠÃ³ skil
ĠICE LAND
Ġhlu staÃ°
ĠP u
Ġh nit
Ġb lasir
ĠÃ¡r Ã³Ã°ur
gt ext
ĠRÃ¡Ã° gjafar
ĠĠ ĠĠ
ĠSon gtext
Par oles
L etra
ef a
Ġeinn ar
sm anni
Ġnefnd ur
b einn
w ood
as e
ĠEy ja
b reiÃ°
kun nu
ĠhÃ¡lend iÃ°
Ġd ygg
ĠL und
Ġmann inum
Ġvit und
ĠÃ¾Ãºs undir
sst aÃ°a
ĠÃĸlfu si
eig nir
Ġh natt
Ġst ÃŃf
Ġ10 8
Ġgrunn skÃ³l
ne sku
gef in
ĠendurnÃ½ ja
stund is
o nu
Ã³n ÃŃu
Ġkepp ninni
an es
b eina
Ġg Ã¶tum
tu stu
flokk a
Ġvilja yfirlÃ½singu
Ġsk yr
Ġstarfsm anni
Ġs lapp
ĠT eng
Ã¶n skum
Ġhug bÃºnaÃ°
ĠSam gÃ¶ngur
ĠN ik
Ġsn ill
Ġmat vÃ¶ru
ĠleiÃ°bein ingum
ĠviÃ°urkenn ingar
ĠÃ¦t last
ĠÃļ l
ĠÃ¾ rau
arg jald
Ġaug lÃ½
sÃ½ sla
ĠÃºti vist
rÃŃ ka
arfÃ©lag s
Upp lÃ½singar
ĠlÃ½s ingar
RÃ¡Ã° uneyti
Ġsamhl jÃ³Ã°a
st efn
ĠhÃ¡ riÃ°
ĠSnor ri
N G
ĠV E
ĠkÃ¦r leika
NÃ½ lega
ĠM ogg
Ġmeiri hlut
?? ??
b ekk
Ġt est
Ġk vart
ĠS ind
ĠbiÃ° jum
frÃ¦Ã° ings
E nd
Ġeink enna
ĠDan merkur
Ġseina sta
Ġvil jiÃ°
h Ã¶nnun
and ur
Ġr Ã³tt
ind iÃ°
Ġhag frÃ¦Ã°i
ĠÃŀÃ³r dÃŃs
framleiÃ° slan
Ġ19 00
Ġhug takiÃ°
Ġvon ir
ĠÃ³g eÃ°
Ġuppfyll t
ĠÃºtflutning s
Ġhrik alega
âĢ ĭ
ĠfÃ©lag sf
sl eyfi
il e
ĠViÃ° skip
trygg ingu
ĠklÃ¡r t
ĠÃ¾ em
rÃ¦ nn
Ġc o
Ġkjar arÃ¡Ã°
ĠstÃ½r ir
ĠsÃŃ mi
Ġatvinn ugrein
l Ã¦kkun
Ġp Ã¶nn
ÃŃn ur
Ġnef nir
heil brigÃ°i
ĠaÃ°gerÃ°a Ã¡Ã¦tlun
ĠÃŀÃ¡tt takendur
Ġeldg os
Ġundir stÃ¶Ã°u
laus nir
ĠprÃ³ tein
Ġsm ÃŃÃ°i
ĠfriÃ° ar
Ġb ana
Ġsk Ãºl
mÃ¶r kun
= "
v iss
al an
Ġskemm tilegar
drÃ¡tt ur
Ġinn stÃ¦Ã°u
Ġein sk
ĠâĢ º
ĠhvÃŃ la
ĠHar aldur
Ġvel ti
jÃ¡r hÃ¦Ã°
Ġvirk um
Ġvel linum
mÃ¡ nuÃ°i
ĠkvÃ¶ld mat
ĠJ Ã¶fnunar
sn es
ĠPh en
hor ni
verk iÃ°
h ljÃ³msveit
Ġt am
Ãį s
Ġb Ã³t
Ġpr ins
ĠaÃ°geng ilegan
Ã¾r ot
Ġe inna
ĠB if
Ġtel jist
ĠhÃ¡lend is
aÃ° il
Ġr Ã³s
Ġreg lna
stofn unum
ĠvÃ¦ nd
ĠS unnu
Ġeig endum
eit ni
yrk ju
Ġheimild a
Ġt er
ĠÃį SÃį
sÃ½ ki
ĠFri ed
ur e
frÃ¦Ã° in
Ġmarkv isst
ĠÃ¡Ã°r enn
Ġ197 9
sÃŃmafor ritiÃ°
Ãº tt
ĠV irk
sh lu
Ġl eir
Ġgjald ker
Ġteir ra
C T
Ġskor iÃ°
of b
Ġnu dd
ĠL if
Ġsett ist
ĠhÃ¡tt aÃ°
Ġlist amaÃ°ur
greiÃ° slur
i an
p ort
ĠH or
rÃ³ fi
ĠkjÃ¶ ri
ĠEinars dÃ³ttir
Ġgif t
Ġ ands
sk Ãº
Ġskrif uÃ°
ĠtÃ¶lv ur
Ġkra bbameins
al y
ĠB Ã³ka
Ġborg um
br ans
lÃ¡ Ã°u
ĠÃ³v issu
ĠSÃ½ ningar
Ġt Ã¶ku
ĠÃ¦f ingum
Ġreynd u
ÃŃ nar
ĠViÃ° ar
hÃ³p num
ĠbarÃ¡tt unni
c ol
VerÃ° bÃ³l
Ġborgar stjÃ³rnar
Ġw ith
d el
Ġtil tÃ¦k
ĠN Ã½r
Ġv ond
Ġf Ã³Ã°
Ġb eyg
ĠlÃ¶greg lunnar
t Ã¦ka
ĠlÃ¡ tin
ĠhjÃ³n in
auÃ° lind
ĠSov Ã©t
Ġsam sett
ĠframkvÃ¦md um
Ġlist anum
Ġsafn inu
ĠNÃ¡ttÃºru verndarsamtaka
Ġsam eina
6 3
samband sins
Ġfrumvarp sins
Ġstand ast
bar n
sv ald
ov e
Ã½s ingar
m ennar
ĠÃ³ Ã¡nÃ¦g
ĠK Ã¶
Ġsum rin
ĠsamÃ¾ykk tum
Ġhins egin
Ġ198 8
Ġhans ara
Ġskam ms
Ġein bÃ½lishÃºs
Ġtim bur
tinu e
stÃŃ g
ĠV R
bund inn
ynd ÃŃs
sk rey
Ġhand an
Snjall sÃŃmaforritiÃ°
ĠkÃ¦r leik
Sam gÃ¶ngu
Ġg Ã¡l
Ġk Ã¶r
Ġafh endingar
ĠfÃ©l lu
Ġv as
ĠS im
ĠÃĵ mar
Ġdug leg
ÃŃ bÃºÃ°
Ġskip aÃ°i
ĠGr andi
grein ar
b ox
Ġ10 5
ĠLÃ¡ g
j end
p lÃ¡ss
Ã¶ skur
Ġnem anda
amÃ¡l iÃ°
ĠframleiÃ° endum
ĠJam es
B est
c s
Ġfl Ã¦Ã°i
ĠfjÃ¶r u
ĠumsÃ¦k janda
Ġmeng unar
ĠNAT O
ma ti
Ġeignar rÃ©tt
Ã³ si
Ġst imp
sg reiÃ°slur
Ġatvinn um
esti val
ĠTek iÃ°
ĠÃºrgang s
T R
Ġr unniÃ°
ĠÃŃs skÃ¡p
Ġeitur efna
ĠV opn
ĠrÃº ll
ĠhÃºs n
Ġfast ur
Ġv Ã¦rum
Ġs Ã¶lum
Ġkyn janna
ĠuppÃ¡ hald
Ġtilfinn ingu
ĠskuldabrÃ©f amarkaÃ°i
Ġtilskip un
ĠAng el
Ġf ur
ri sta
af jÃ¶rÃ°
Ġhita stig
ĠhÃ¦tt um
Ġsvig rÃºm
ĠÃģstral ÃŃu
v extir
ĠsÃŃ trÃ³
veg in
jan lega
Ã³ sa
Ġl Ã³g
skoÃ° unar
ĠfÃ¦Ã°ingarorlof i
ĠF und
U ng
Ġn eita
ĠnÃ½ j
ĠO n
Ġsveit arinnar
Ġmis jafn
. <
ĠB rim
7 3
Ġ ax
ĠB ri
r uÃ°um
ĠÃ¡ star
av innu
ĠnÃ½skÃ¶p unarf
fram kvÃ¦md
jÃ¶ll um
J afn
Ġl endir
Ġsk aut
fl ex
ĠRey ni
ĠMagnÃºs dÃ³ttir
SÃŃÃ°a sta
Ġs Ã¶gum
ĠÃ¡r anna
tal a
Ġfylg d
ĠframtÃŃÃ° ina
Ġdeig iÃ°
Ġ 00
ĠnÃ½ jung
os e
ĠÃ¾Ã½ sku
d en
ĠstjÃ³rn in
Ġverkefn in
ĠÃ¦ tÃŃÃ°
Ġgeg nt
al em
ĠlÃ¡ ni
af gangur
Ġupp eldis
ĠG yÃ°
Ġheim sÃ³knir
M att
Ġt ro
Ġleik hÃºs
ĠsambÃ¦r ileg
Ġfullyr Ã°a
Ġfleir um
Ġm essu
ĠEr ling
NÃ½ tt
Ġnein ar
s eta
Ġfylg du
ĠsÃŃÃ°a sti
Eftir farandi
S V
Å ĳ
Ġd j
Ġfyrr nefnd
ĠHvÃŃ ta
Ġs ul
Ġtil grein
geng t
ĠEin stak
ĠStarf sfÃ³lk
ĠElÃŃs abet
Ġefnahag slÃŃf
L Ã¡
ek tir
Ġuppf Ã¦ra
Ġsk ygg
ĠÃŀÃ³r ir
Ã¾Ã¡ tta
Ġlof a
ĠvÃ¶rum erk
ĠÃŀing eyjar
ĠÃ³mÃ¶gu legt
an Ã¡mskeiÃ°
mÃ¡ nuÃ°
fl ey
Ġset jiÃ°
amÃ¡l i
ĠEy j
ĠPort Ãºg
b y
rÃ¦ nir
ast Ã¶Ã°u
ĠnÃ¡m u
ĠGau ta
Ġal tÃŃÃ°
Ġmann lÃŃf
Ġhugs anir
isku p
d es
au ta
ĠbÃºs etur
m Ãºla
sk rar
ĠsjÃºkra hÃºs
ĠEir ÃŃkur
L a
ã Ģ
veg g
Ġalmenn ri
hrun sins
SiÃ° mennt
T ak
Ġvirk i
ĠPÃ³ll andi
- )
el t
eistar ar
la unum
ĠE imskip
Ġmarg s
ĠfjÃ¡rhag sÃ¡Ã¦tlun
Ġhver rar
Ġleik rit
ĠLandsb anka
boÃ° smaÃ°ur
ĠÃ¡ fall
ĠendurgreiÃ° slur
Ġst Ã¡
ĠEf ni
heim inum
ĠtungumÃ¡l um
L augar
ĠlÃŃ tra
sÃŃ Ã°an
ĠHeim ilt
Ġnem end
bar Ã¡ttu
sjÃºk ra
ĠDi ego
ĠV Ã¶l
rÃ¡ k
ĠrÃºm um
Ġg en
Ġsk amma
lu gu
sp rÃ³f
trans form
Ġskemm ri
ĠaÃ°gang i
Ġgu fu
ĠF undurinn
Ġp izz
ĠSamfylk ingin
F er
Ġf Ã³Ã°ur
ĠJ ar
ĠiÃ° gjald
Ġsameigin legu
Ġapp elsÃŃ
Ġauk inn
ĠfÃ³tspor a
ĠFljÃ³ t
Ġsn eri
for maÃ°ur
Ã¸g num
Ġsla ka
ĠfrÃ¡bÃ¦r ir
u e
Ã¦k ir
byr jun
un andi
ĠÃģ kv
Ã¾jÃ³Ã° garÃ°
ĠReykjanes bÃ¦jar
ug e
rÃº t
St ef
ĠhljÃ³ mar
ĠviÃ°urkenn t
Ġbol ta
ĠnÃ½rnas jÃºkra
Ġm isk
Ġafh enti
Ġbund iÃ°
ĠsÃŃ ggja
Ãºt hlutun
vÃ¶ld um
Ġskref iÃ°
K ol
Ġkepp t
ĠÃŀing vÃ¶llum
Ġrey nist
stÃ½r ing
Ġr Ãºst
smÃ¡l arÃ¡Ã°uneytiÃ°
shygg ju
Ġk ara
ĠÃºr vinnslu
ĠTÃ³ma s
rÃŃ fa
Ġ198 5
Ġstytt ist
r on
ĠBl Ã¶Ã°
Ġsam fellt
Ġmik it
ĠvandamÃ¡l um
r of
em p
rÃº tt
Ġteik ni
ĠsjÃ¡ Ã°u
Ġaukaverk anir
ĠSkar ph
H inn
ĠMatvÃ¦la stofnun
. âĢĵ
Ġk Ã½s
arf or
ĠF ra
Ã¾ing iÃ°
sjÃºk dÃ³ma
Sum ir
Ġg Ã¶ngum
ag ist
Ġsp ort
stof um
Ġgef ast
Ã¡r dal
Ġskemmtileg ra
ĠSet jiÃ°
g am
ĠA L
Ã³t ek
Fyr st
Ġveit ingu
Ġbrot in
c ed
Ġr aÃ°a
Ġd ram
ĠB oÃ°iÃ°
Ġey stra
ĠsviÃ° s
ĠBir na
skuld a
ĠandrÃºmsl of
s ung
str eng
ĠfrÃŃstunda hÃºs
ĠG K
ĠP l
jÃ¶f nunar
ĠlÃŃfsskoÃ°un arfÃ©lag
For seti
Ã¦ ll
ĠviÃ° sta
ĠBarcel ona
BÃ¦ jar
ĠPÃ¡l s
Ġsyn gur
Ġrang ar
er Ã°ur
ĠL os
ell e
ĠNorÃ°ur lands
ĠbÃ³kstaf lega
Ġinni halds
ĠmikilvÃ¦g u
Ġbank anum
ĠgagnrÃ½ n
brau ta
ÃŃ sku
Ġupp ÃŃ
ĠM ed
ĠfjÃ¡rfest inga
ĠerfÃ°abreytt ra
Ġtil ein
Ġkom mun
ĠgÃ¶gn in
ĠBreiÃ° ablik
Reg lugerÃ°
ĠKÃ¶ ben
f il
Ġm Ã³Ã°
ĠhÃ¶f unda
Ġel stu
ĠdÃ³m smÃ¡larÃ¡Ã°herra
Ġhvers dag
Ġv Ã¶t
sl Ã¡tt
Ġeld ur
V efurinn
ĠÃŀ jÃ³Ã°ar
ĠC O
ash ington
Ġstefnum iÃ°
Ġeil ÃŃ
Ġtilvil jun
Ġver r
ĠB ur
Ġmill il
Ġkaup andi
borÃ° inu
Ġm jÃ¶k
rÃ¡ Ã°an
ĠvÃ¶r Ã°
Ġhlut laus
Ġhim in
ĠBald vin
Ġvitne skju
ĠhÃ¡l s
ĠalÃ¾jÃ³Ã° leg
Ġskipulags skrÃ¡
ĠB ra
Ġber g
viÃ° skipta
Ġskor tur
ĠveiÃ°ig jÃ¶ld
iÃ°naÃ°ar ins
ĠG rett
veg um
Ġinni fal
ĠBr Ãºn
Ġfrumvarp iÃ°
ĠHÃ¶f Ã°a
Ġfinn ist
ĠVott unar
Ġv inni
ĠM ont
ĠiÃ° ju
Ġfag leg
Ġtilkyn ning
Ġholl t
Ġkenni tÃ¶lu
n em
o dd
Ġ198 4
ĠCon tinue
Ġhav i
ĠskoÃ° anak
bjÃ¶r gu
Ã¶rf um
sy kur
Viku legt
Ġ8 2
ĠApp iÃ°
Ġb rÃ¡tt
kom um
Ġnor ska
ĠÃŃ mÃ³ti
ĠH rÃ³k
Ġd y
NI C
Ġv ide
ĠF Ã¶stu
ĠSt ra
Ġleit um
kyn s
ĠÃ¡hrif in
Ġfyrir mÃ¦lum
Ġgr jÃ³t
Ġkv itt
ĠleiÃ°t ogi
Ġorkum Ã¡l
ĠG lit
haf ar
ĠskoÃ° unum
Ġvand aÃ°ar
ĠnÃ½skÃ¶punar rÃ¡Ã°uneytiÃ°
al eig
or ka
ĠÃŀjÃ³Ã° leik
ĠBre tar
Ġkeyr ir
ĠA u
Ġvir Ã°ingar
Ġerlend ri
I A
R it
af nar
ĠÃ¡hygg ju
leit ni
punk ti
Ñ ĥ
ĠT ur
ĠhÃ© ldum
ĠFjÃ¡r mÃ¡l
samtÃ¶k in
Ġfull an
ĠtakmÃ¶rk uÃ°
ĠS Ã¶ng
jÃ¶f nuÃ°ur
ĠaÃ°ildar rÃŃki
b ÃŃu
Ġher naÃ°ar
ĠH um
Ġinn k
ĠbÃº ning
ĠskÃ½r sla
Ġel sku
Ġgei sla
Ġk uld
Ġsk raut
ug ar
Ġraf rÃ¦nt
Ġstopp a
ĠskrÃŃ tiÃ°
ĠVor u
t la
Ġk Ã¶nnunar
Ġleik skÃ³lanum
Ġk all
vÃŃ ra
ĠstÃ³r ir
ĠvÃŃ ta
Ġteik ningar
ĠBryn jar
Sk Ã½r
ĠStarf smaÃ°ur
Ġheimav inn
Ġinnan hÃºss
ĠdÃ³m ari
j Ã¸gnum
ĠG y
ĠG old
hring inn
ĠaÃ° skild
Ġd Ã¸
Ã¶g un
on gur
jÃ¶ ra
sÃ½ ningu
Ġkenn ingar
jÃº kur
smÃ¡l arÃ¡Ã°uneyti
au ga
Ġlyf jal
ss veit
enn andi
ĠAr c
Ġvetrar ins
heim i
ĠfjÃ¡rhag slega
ĠvÃ¡trygg ing
vet na
Ġbakv iÃ°
ĠÃŃslensk ur
Ġhugmynd a
Ġyfir n
ĠRey Ã°
ĠsÃ³larhring inn
Ġtrygg Ã°
Hag stofan
Ġhor fiÃ°
ĠfjÃ¡rlag afrumvarp
ĠN jarÃ°
Ġumtals vert
k Ã³
ch en
ĠDan i
Ġtil komu
ĠH eiÃ°ar
ĠÃ¾jÃ¡lf unar
ak stur
fÃ¦r ni
ĠrÃŃkisfjÃ¡r mÃ¡lum
il is
Ġd Ã¡nar
Ġgreiningar aÃ°ilar
ĠleiÃ°t og
Ġakk Ãºrat
skyld ur
G jald
Ġfal list
Ġeinang run
ĠEn gar
jÃºk dÃ³m
na sta
skrÃ¡ ningar
Ġheimild amynd
ĠbÃŃ llinn
f ra
Ġauk innar
St aÃ°
Ġa c
Ġsm jÃ¶ri
ĠhÃ¦ stu
ers Ã³n
ĠsÃ¡ um
ĠkÃ¶f lum
ĠauglÃ½s ir
P M
Ġstarf sst
ĠtjÃ¡ Ã°
K r
M aÃ°ur
sl ista
jan leg
ĠstaÃ°fest i
j uÃ°
launa vottun
ĠÃ¡ Ã°an
ĠorÃ° alag
ĠblaÃ° amaÃ°ur
ĠMynd bÃ¶nd
Ã¦tl an
ĠP rÃ³f
Ġhl eypa
ĠFlug mÃ¡la
st il
laÃ° ur
fÃ©lag ar
ĠAl la
Ġg ÃŃr
eftirlit s
ĠV ÃŃn
sleg an
ĠfjÃ¡rfest ing
Ġp ort
ĠlÃŃk um
L of
m ag
ĠhÃºs ak
Ġ24 00
ÃŃ p
Sam Ã¾ykk
Ġtengd ar
an e
ĠÃºr lausn
ĠEn gu
ĠIcel andic
v op
Ġf a
Ġvar ar
ĠandrÃºmsl oft
bund na
sÃŃÃ° unni
ĠEg yp
ĠbÃ³ nda
yfir valda
Ġlauna Ã¾rÃ³un
ĠAlÃ¾jÃ³Ã°agjaldeyrissjÃ³Ã° sins
k orn
Ġgef nu
Ġsamstarf saÃ°
ĠSkrif aÃ°u
k g
om a
Ġm ust
Ġfl etta
ĠskÃ¶p un
ist an
verÃ° ri
ĠÃ¾ vo
ĠdÃ¦m t
Ġbrott fÃ¶r
ĠVer Ã°i
ĠÃ³l st
ĠÃįbÃºÃ°alÃ¡nas jÃ³Ã°s
Ġb iÃ°ur
ĠGer ist
Ġeig ur
ĠmÃ¡l tÃŃÃ°
Ġann ara
ĠÃ¡rsverÃ°bÃ³l ga
et s
er n
Ġgagn virkum
f yrirtÃ¦kja
sh orn
sf jarÃ°ar
ĠfÃ©lags skap
ĠAtl antshaf
h lÃŃ
Ġh Ã¶nnuÃ°
ĠljÃ³smynd un
Ġs Ã³lk
ĠL H
h im
Ġkv Ã¶r
ĠÃ¡kv arÃ°
Ġgef nar
Ġvit nis
set ri
Ġto gar
Ġflutt ur
ĠinnleiÃ° a
Ġf ra
N okk
Ġf fl
Ġkirk jur
ĠLa un
Ġpo liti
h eildar
ĠS Ã¦l
Ġfl ot
Ġsend ingar
ĠjÃ³ lum
ĠÃ¡ lita
ĠferÃ°a skrif
ĠRÃºss lands
Ġerf Ã°
ĠbrÃ¡Ã°abirgÃ°a spÃ¡
H ef
ViÃ° skipta
Ġalmenn ilega
ĠmÃ³t sins
ĠSuÃ°urnes ja
eÃ° riÃ°
Ġdr egin
ĠframkvÃ¦mdast jÃ³rn
ĠtÃ³nleik ar
Ġhv Ã¡r
sam a
epp ninni
ĠWind ows
J A
ing ina
Ġsamband iÃ°
uk nattleik
Ġundantek ningar
n or
Ã³t iÃ°
sv ik
ĠviÃ°skipta jÃ¶fnuÃ°
ĠtÃŃmabund nar
ĠSÃ½ ningin
ĠSauÃ°Ã¡r krÃ³
m eistari
Ġstund aÃ°i
ĠÃ³sk ir
ĠÂ ©
Ġ197 4
Ġgar Ã°i
m inu
Ġspur ningin
vÃ¶r n
ĠgÃ¦ slu
Ġkyl f
s Ãº
ĠerfiÃ° ar
ĠaÃ°ildarviÃ° rÃ¦Ã°um
Ġraf rÃ¦num
h tt
Ã¾ Ã¦ttir
net u
ĠAustur landi
Ġaf rak
ver jum
ĠjÃ¶f nu
ĠSkÃº li
ĠrÃŃkis borgarar
Ġheim urinn
ĠP aradÃŃs
ĠNorÃ°ur Ã¾ingi
bÃ³k um
Ġskilgrein ingu
Ġfj Ã¦r
ĠRang Ã¡r
ĠF ast
ĠG erÃ°
ĠÃ¾jÃ³Ã° garÃ°
Ġre ading
Ġuppbygg ing
ĠStu tt
s Ã¶fn
ĠvÃ¶r slu
Ġraun in
Ġraunver uleik
Ġl Ã³
ĠH Ã³la
ĠK raf
ĠsÃ© ns
ark ost
Ġbar daga
ĠnÃ¡m inu
ĠHÃ³l um
reif ing
jar lÃ¦g
Ġveg an
tar innar
ĠfrÃ¡bÃ¦r ar
f eng
Ġm old
Ġvernd un
ĠFerÃ° amÃ¡la
ĠM bl
ĠÃ¡kveÃ° nu
Ã¾Ã¡tt ur
ĠArn Ã³r
ĠB Ãį
Ġeinhver skonar
od y
ĠmÃ¡l sl
Ġtilheyr ir
ljÃ³msveit in
Ġsv eifl
yn ur
par naÃ°ar
teg undir
ĠÃ¡r ini
ĠlÃŃ v
vind u
sen al
stein sson
stÃ¶rf um
l ingi
Ġbygg inga
ĠerfiÃ° a
ĠeÃ°l ileg
ĠbrÃ¡Ã°abirgÃ°a Ã¡kvÃ¦Ã°i
ĠÃ³bein t
E L
ĠSt yr
Ġof s
âĢ¦ .
ĠJÃ³ s
Ġheild ina
ĠlÃº x
ĠgÃ¦lu dÃ½r
ynd ir
Ġauk nu
ĠvefsÃŃ Ã°ur
bund nar
M orgun
ung r
ein ingar
br ota
gar Ã°ur
Ġskipulag t
d ans
is a
Ġ8 1
Ġsafn aÃ°ar
Ġtekju stofna
il ÃŃf
Ġt ri
ĠS K
ĠC am
ĠdÃ³m stÃ³la
stu Ã°u
Ġmat seÃ°
ĠsiÃ° ferÃ°
ĠÃ¡lit sb
ĠsÃ©r stakur
Ġrey num
Ġeld i
ĠLok s
Ġs ey
an legri
ĠN efndin
Ġg Ãºm
sk ey
ĠVinn umÃ¡la
ĠHjÃ¡l mar
kast iÃ°
ĠmÃ¡naÃ°ar ins
ĠEur op
am Ã³ta
rÃ¦Ã° iÃ°
P a
st aÃ°ir
ĠlÃŃ Ã°i
ĠÅĻ Ã¡
Ġfund a
ĠW ashington
ĠfrÃŃstunda byggÃ°
Ġv Ã©
sh Ã¶ll
op inber
ĠboÃ° skap
ĠÃŀjÃ³Ã° skrÃ¡
Ġsk ep
rÃ¡Ã° uneytinu
ĠjÃ³ ga
an otkun
ot e
Ġlit ur
ĠEr f
od e
ĠÃ³f ull
Ġathyglis vert
3 00
Ġsk ildu
ĠSv ip
ĠSkyndi hjÃ¡lp
Ġk afl
ĠÃ¾Ã¡ verandi
Ġskip stjÃ³ri
liÃ° inn
ĠjÃ³ g
F ull
sÃ½ ningar
ĠvÃ¦nt anleg
z e
ĠstÃ¶Ã°ug ri
ĠVik tor
Ġlaun agreiÃ°
af und
ferÃ°ar rÃ¡Ã°uneytiÃ°
Ġblogg a
hÃ³p i
9 5
Ġsp rau
ĠÃ¡h eyr
ĠstaÃ°fest ri
ĠpersÃ³nuupplÃ½singar nar
an leika
ĠÃĵ l
sveit ar
il y
ĠÃ¶ sku
ĠbÃ½ sna
ĠÃºtbÃº iÃ°
ĠsjÃ³narmiÃ° um
ĠhleÃ° slu
ĠjÃ¶f nun
ĠskoÃ°unar menn
ĠS or
ĠstaÃ° setning
Ġ196 9
ĠgarÃ° inum
ĠbrjÃ³ sti
ĠÃºts endingu
ĠMic rosoft
dÃ³m stÃ³l
yfir lit
Ġsyst k
Â ·
ĠiÃ° ulega
Ġm Ãºr
ĠL Ã¡ra
Ġset jum
ĠÃ¡r eitni
els en
bÃŃ lar
ux ur
ald s
ĠnÃ¡ nustu
av efur
Lands framleiÃ°slan
Ñ ĭ
Ġfl Ã³Ã°
K yn
Ġn as
reiÃ° ar
ĠlÃ¦ s
ĠfjÃ¶lbreytt um
sset ning
t exti
ĠS ala
ĠP Ã³l
Ġalm ennu
6 1
in er
Ġtil vist
ĠH otel
ĠflugleiÃ° sÃ¶gu
M eira
ĠÅ ®
ĠEl vÃŃra
Ġkeppni s
ĠHÃ¶r Ã°ur
Ġpan tanir
Ġstarf rÃ¦k
ĠvinsÃ¦ld a
ĠÃĸ g
ĠljÃºff eng
R I
Ġt exti
Ġtek nir
ĠsveitarfÃ©lag iÃ°
ĠFjÃ¶l miÃ°
Ġol li
ĠR eb
ĠskÃ¡ ta
ĠprÃ³ fi
Ġb ac
Ġk redit
sl urnar
ĠF ÃŃ
fÃ¦r um
Ġkeyp tu
ĠvÃŃ deÃ³
und in
ĠlÃ¶g gil
skur Ã°i
ĠÃ¡fangast aÃ°ur
Ġh urÃ°
Ġk Ã³
S P
Ġhaf naÃ°i
skrÃ¡ ning
St Ã¶ndum
Ġfisk ur
ĠpersÃ³nuupplÃ½s ingum
Ġgjaf ir
Ġk eÃ°
ĠhÃ¡ vaÃ°
ĠfjÃ¶lskyld unnar
ĠmeÃ°ferÃ° ir
Ġvelkom na
ĠlÃ½Ã°rÃ¦Ã°i s
ĠÃ¾v ag
A M
v all
Ġst Ã¦kkun
Ġal Ã¾
er finu
Ġt rÃŃ
am un
ĠfrÃ¡bÃ¦r lega
Ã¾Ã¡tt tÃ¶ku
Ġe m
Ġt enn
Ġhaf sbotn
ĠvÃ¡trygg ingastarfsemi
h rygg
st ÃŃl
Ġk lif
ĠK Ã³r
Ġfund ust
M agn
eld a
ĠrÃ¦k tunar
ĠBorgar nesi
Ġeinb eitt
Ġhnit miÃ°
ĠOr Ã°
Ġfermet ra
Ġhjartan lega
ĠframkvÃ¦mdastjÃ³rnar innar
ĠÃº Äį
sf r
Ġd a
Ġstarf rÃ¦kt
Ġbreytingar nar
ein i
rau sta
Ġsterk ur
Ġm sk
ĠÃ¦ r
Ġjafn aÃ°ar
Rey kja
ĠsÃ© ra
Ã¸ ku
ĠsekÃº ndur
ĠBrey ting
ĠÃ³sn ortiÃ°
f ri
Ġm Ã¦r
Ġ19 18
Ġ19 50
Ġber um
Ġspur Ã°ur
ĠE dda
ĠCo unty
Ġtil h
ĠS agan
ĠÃ¡nÃ¦g ja
G r
p x
ĠB irk
Ġumhverfis rÃ¡Ã°herra
n af
ĠbÃº ist
ĠnÃ¡ttÃºru verndarsamtaka
ĠLÃŃk lega
NÃ¡ttÃºru verndarsamtÃ¶k
ĠÂ ·
ĠtilbÃº ins
Ġton na
g rÃ³
ĠB ÃºnaÃ°ar
ĠÃģ sb
Ġjafn gild
ĠMÃ½vatn s
ĠÃ¡rek stri
g Ã¦Ã°i
h Ã¡mark
ĠÃŀ jÃ³nust
ĠvÃŃÃ° erna
end iÃ°
Ġkann t
V A
Ġl yg
Ġk urt
is m
Ġm etur
at eng
grein um
ĠSjÃ³nar horn
vÃ¦Ã° ingu
shÃ¡ tÃŃÃ°
Ġung s
Ġof angreind
ĠaÃ° gerÃ°ar
ss i
Ġmynd as
H B
sl aug
ĠÃģlf tan
ĠOb ama
Ġs est
ver um
Ġ17 8
Ġannar rar
ĠgrÃ¡ ta
ĠEndurvinnslukort s
ĠKristjÃ¡n sdÃ³ttir
and yra
Ġ6 58
los un
st ed
ĠÃºt fÃ¦rslu
Ġfund ir
Ġval inu
arb raut
ĠhÃ¦g ja
N Ã¡Ã°u
r aÃ°ir
ĠEftir lit
ĠVottunar stofan
ar ann
iÃ° ju
ĠsÃŃ Ã°um
deild in
ĠLeik urinn
sk inn
ĠH ÃīR
Ġ6 57
ĠsjÃ³ inn
Ġork ug
Ġsvak alega
ung i
Ġfull gild
ĠRey n
hÃ¶f um
ĠfjÃ¶lmÃ¶r g
ĠnÃºtÃŃm ans
Ġe i
Ġlist i
ĠBÃ¡ tar
Ġm on
Ġn Ã¶fnum
jÃ¶ Ã°
ĠsÃ©r Ã°
ĠtÃ¶lv uleik
ĠfrÃ¦ n
renn sli
d ÃŃ
il inu
bÃº ning
ĠÃ¡skor anir
ĠH y
ĠmeÃ°al tal
lu p
ĠstjÃ³rnar and
ĠvÃ¶ru f
ĠvÃ¶x t
H ar
k Ãº
Ġst Ã¸r
ĠfÃ©kk st
Ġsty kki
Ã¾ votta
Ġlag inu
Ġ4 50
dag skrÃ¡
Ġskemm ta
legu stu
Ġ197 3
ĠSmÃ¡ ra
ĠSamkeppni s
Ãŀ Ã¡tt
ÃŃn s
bl Ã³Ã°
ĠplÃ¶n tur
ĠE B
ug erÃ°
Ġsaman ber
ĠdÃ¦m dur
ĠKvikmynd a
h em
ĠÃģ n
Ġmerk ilega
uk aup
ĠhÃ¶fuÃ°borgar svÃ¦Ã°isins
v efnum
ĠgrÃ¦n na
! )
ĠStur lu
b ungu
Ġ7 50
ĠrÃ¦Ã° st
G unnar
jÃ³ ti
ĠV II
Ãºs alem
ĠhÃºsnÃ¦Ã°i smarkaÃ°i
Ġhlu tu
Ġspurning una
Ã¶ num
Ġtil hneig
ĠsniÃ° ugt
h jalp
ei sta
Ġef sta
ĠsÃ©r hver
if orn
skÃ³ ga
7 00
Ġr Ã½r
ver Ã°an
ĠC al
ĠbÃ½ Ã°st
Ã¶r um
ĠM i
Ġskil i
hÃ¡tÃŃÃ° inni
ÃŃ Ã¾rÃ³tt
v ina
al yf
ĠmÃ³ttÃ¶kust aÃ°i
ĠÃį var
Ġsl Ã³Ã°ir
ĠÃĸll um
ĠlÃ¦r ir
Sam tÃ¶k
ĠsjÃ¶ tta
Ġ196 1
ĠSauÃ°Ã¡rkrÃ³ ki
Ġhver jar
ĠÃĸ ld
Ġhugmynd in
ĠviÃ°rÃ¦Ã°ur nar
Ġumhugs unar
Ã¶k in
ĠfjÃ¶lmarg ir
p e
ĠE mb
ĠBjar t
ĠFr jÃ¡l
bjÃ¶rn sson
ĠtrÃº ir
ĠÃ¶rlagar ÃŃka
Ġl oy
Ġ3 50
ĠtÃ¶l va
ĠsjÃ³ Ã°urinn
ĠÃ³ d
menn tunar
ars on
Ġreg la
Ġupp eldi
ĠHvÃŃ t
Ġhag kerfi
ĠÃŀing valla
ĠBaug s
aland sliÃ°
B jÃ¶rn
amÃ³t in
Ġblogg sins
Ġfyrirhug aÃ°
Ġundantek ning
Ã³re u
d s
Ġfr Ã¶nsku
Ãŀ Ã¡ttarÃ¶Ã°in
ĠÃºtivistar samtaka
S aga
Ġsk ild
ĠhvÃŃ tum
Ġ; )
I ng
hv arf
HÃ¡l endi
j e
sk emmt
Ġd el
sam rÃ¡Ã°
jaf ir
ker fum
ĠFor seti
vert on
Ġkv iÃ°
ph p
Ġb Ã³m
ĠÃģ sta
Ġyfir lÃ½singar
Ġraf hl
Ġloft rÃ¦
Ġst k
ĠÃ¾e y
Ã³r Ã°u
ĠU PP
ĠÃ¶flug ur
l und
Ñ ı
Ġst inga
Ġheim sku
Ġs ungiÃ°
Ġtil b
Ã¶f lu
Ġund ra
rek stur
sf er
ost on
vÃ©l in
ĠR ak
Ġmat argerÃ°
Ġbor Ã°um
Ġkrist ni
Ġeindreg iÃ°
skip um
ningar frestur
ĠGrinda vÃŃkur
mÃ¡ naÃ°ar
ĠÃ¾jÃ³ f
gl er
ĠFramsÃ³knar flokksins
Ġfram boÃ°i
ĠL jÃ³st
Ġsveit inni
Ġli ti
ĠMiÃ° aÃ°
w ard
Ġo man
ĠVer jum
ĠHa hn
Ġheimskautsb augs
t ans
an Ã¡mi
Ġp ys
aflokk urinn
ĠJÃ³h Ã¶nnu
ĠfrÃ¦ nda
Ġst Ã¶ndum
Ġmynd unum
L jÃ³st
am erk
ĠN jÃ¡l
ĠhÃ©r aÃ°s
for rit
Ġyfir sÃ½n
Ġfor varnar
sst aÃ°ar
ĠfullorÃ° num
ĠhÃ¡lendis Ã¾jÃ³Ã°garÃ°
O T
ĠSkrÃ¡ ning
ĠMich ael
ĠÃ³ vin
ĠÃ³ per
Ġtilvit nun
M ark
am eÃ°ferÃ°
vald s
ĠLands virkjunar
ĠsamtÃ¶k um
ĠFrÃ©tta blaÃ°iÃ°
Ġskyndi hjalp
ĠÃŃvil nanir
Ġung lings
ĠmikilvÃ¦g ar
Ġ36 5
ĠM et
ĠSamfylk ingar
Ġtilnefnd ur
an u
Ã¡ rum
sk Ã³g
af yrirtÃ¦kja
Ġsam stundis
ĠmeÃ°al lagi
Ġrek sturinn
skif ti
ĠÃ¾ rett
af er
ĠF rÃ³Ã°
ĠfÃ¶ stum
ĠFram halds
hraun i
ĠSkyndihjÃ¡lp ara
c er
r unni
am i
ig ur
Ġeig naÃ°ist
ĠstjÃ³rn andi
ljÃ³ ma
ĠÃ¡k Ã¦ru
Ġhal ast
ĠSkyndihjÃ¡lpara ppiÃ°
k Ã¦r
ĠÃºt liti
ĠÃ¡n ni
fang iÃ°
ĠstÃ¶Ã° unni
ĠmjÃ³lkur framleiÃ°slu
Ġumfangsm ik
v anda
ĠH en
Ġmismun un
ĠhÃ¡lf an
Ġalmann atrygg
ĠÃ¦sk ilegt
Ġaf rita
ĠK ÃŃnver
sb ar
ac e
Ã¡ rÃ¡s
at ÃŃu
ĠkjÃ³s endur
Ġh ill
ĠfÃ¡ ein
ĠjÃ³lag jafa
ĠEKK I
h und
st Ã¦r
ĠKyn ningar
Ġf lag
ĠS y
arf ram
Ġskrif borÃ°
Ġbir tur
k unum
ĠB aÃ°
ak sÃ³knar
Ġfel i
laf ram
ĠtÃ³ bak
ĠÃŀ Ã³ra
Ġforeld r
ĠauÃ°lind arÃ¡Ã°herra
Ġstefnd i
Ġb all
Ġb as
Ġ19 60
ĠÃ¾r Ã½
flokk s
ĠÃŃÃ¾rÃ³tt um
ĠbifreiÃ° a
ĠH Ã¶fn
Ð° Ð
Ġg i
Ġeftir minn
Ġ10 2
ĠbrÃ© fa
s il
Ġk nÃ½
ĠD jÃºp
ĠLÃ¶g Ã°
ĠpÃ¡ sk
I V
Ġkynn tist
4 00
Ġreg n
hjÃ¡lp ar
ingastof nunar
hÃ¡tt um
N N
b ita
Ġk ok
ĠGuÃ° nÃ½
f Ã¶llum
ĠS Ã³tt
ĠsnjÃ³ fl
Ġfry sti
ag ga
Ġefn inu
ĠrÃ¡Ã°stefn unni
ĠM ore
ĠlÃ¶g frÃ¦Ã°ingur
Ġtald ir
lei fur
ĠH rein
ĠsÃ¡rs auk
ĠR ann
ro id
ĠVilhjÃ¡l mur
Ġf aÃ°
ĠviÃ° haldi
Ã©tt u
naÃ° ir
samning num
in st
Ġo hf
ĠlÃŃk legri
ĠPat rek
l yk
sm iÃ°ur
Ã¦g ur
Ġ9 00
ĠfÃ¦r sla
Ġsel janda
h est
ak i
Ġsp Ã¦
Ġleit in
ĠsjÃ¡lfst raust
ra bbamein
Ġhring inn
ĠlandbÃºnaÃ°ar vÃ¶rur
K Ã¦r
ĠL ogi
ĠNÃ½ tt
ĠdÃ½ pi
uge ot
Ġfor dÃ³m
Ãģ b
ĠW ar
brag Ã°a
Ġkaup m
sst efnu
aÃ° staÃ°a
Ġv eiti
Ġgreidd i
ĠHvann eyri
C C
ĠlÃŃ ma
Ġlit ar
ĠsjÃ¡varÃºtveg s
Ġyfir maÃ°ur
ÃŃs gr
sam takanna
ĠmÃ¶rk uÃ°um
Ġk jaf
Ġopinber ar
ĠsÃ½ ndur
ĠÃ¾Ã¡tttak endum
ĠC arl
Ġhr yll
ĠÃ¾ekk ti
Ġtak iÃ°
ĠdÃ³m ur
ĠT o
stÃ½r ingu
egg iÃ°
Ġuppskrif tum
Ġvalko stur
ĠsÃ©reignarspar naÃ°
v or
ĠÃ³ lÃŃ
rÃŃ Ã°i
ĠskrÃ¡ r
ĠjÃ¶f n
Ġskilgrein t
ĠÃ¡ na
ĠkÃ¦r Ã°i
L ÃŃ
ĠbÃ¡t num
ĠFjal laÃ°
ĠÃļ kra
Ġgjald Ã¾rot
Ġstaf ar
Sveit ar
ĠvinsÃ¦lu stu
Ġsk oÃ°ar
eyr iss
ĠÃĸ ku
Ġvop n
ĠV etrar
200 5
ĠTrygg va
ĠYou tube
ĠklÃ³ sett
staÃ° num
ĠkÃŃsil ver
b la
Ġf emÃŃ
Ġfull ur
ĠÃ³Ã¾ arfi
ĠkjÃºk linga
Ã¶l luÃ°um
tug ur
ĠnÃ¡gr enn
Ġfasteigna veÃ°
ĠfiskveiÃ° i
ĠsannfÃ¦r ingu
ĠAx el
B rey
C h
M ann
Ġn ag
yfirvÃ¶ld um
h ÃºÃ°
ĠSt raum
ĠC ap
ĠEvrÃ³pu Ã¾ingsins
ĠsÃ³l ina
Ġly ft
ĠmÃºs ÃŃk
Ġsel ur
ĠskÃ¡ p
v ig
Ã° inum
na p
ĠV o
ÃŃk tu
ĠP ri
ĠInd landi
Ġh yg
Ġsk Ã¶mmum
Ġlagi Lesa
Haf Ã°u
ĠsjÃºkling atryggingu
Ġb lÃŃ
ĠhvÃŃ tu
web kit
G rein
st undum
Ġy n
Ġmark s
ĠAr senal
aleg ri
ĠrithÃ¶f undur
Ġ jÃ¶
ĠnÃ¡gr ann
ĠrÃ¶Ã° un
ĠglÃ¦s ileg
ĠVeÃ°ur stofu
ĠsamtÃŃm ans
ĠprÃ³sen tu
Ġo st
bÃº ningur
Ġdul arfull
ĠKennar a
Ġfull veldis
Ġlok uÃ°
Ġorku pakk
astof u
ĠHlÃŃÃ° arf
Ãĵlaf ur
ĠrÃŃk t
ĠframleiÃ° andi
Ġvak naÃ°i
ssam band
kon an
tak ar
ĠsÃ¡tt ur
ĠHÃ¶f undarÃ©ttur
ĠsmÃŃÃ° aÃ°ur
ĠhlutafÃ©lag alÃ¶g
Ġupp hit
Ġ0 9
ĠÃ¦ s
kom iÃ°
Ġundanfar nar
ĠÃ¶f lugu
h ildi
Ġf laug
ĠB li
ĠbÃ¦ n
t Ãºni
ĠB rasil
ĠsÃŃm anum
Ġb ik
end ingin
ett e
safn iÃ°
vo gi
ĠGer ald
ek jur
ĠRÃ¡Ã° herra
Ġframl eng
kepp ninni
f Ã¦
v ini
en z
ĠT op
Ġopinber ir
ĠÃ³g ley
af ell
Ġtil ver
ĠsÃ©r tÃ¦k
ĠÃ¾jÃ³Ã°ar bÃºsins
d em
m una
Ġf Ã½
ĠÃģbyrg Ã°a
sp Ã¡r
ĠalÃ¾jÃ³Ã° legt
Ġtit ilinn
ĠFÃ¸roy ar
ĠfjÃ¶lmarg ar
ĠHug s
ĠJÃ¶fnunar sjÃ³Ã°i
ĠumsÃ¦k jendur
J Ãĵ
rÃŃk t
ĠJer Ãºsalem
8 4
Ġveg inum
lÃŃk t
ĠInter net
Ġr Ã¶kum
at us
ĠEf na
hÃ¶f undur
Ġhau sti
Ãº rum
ĠB oston
Ġsum t
Ġvet ra
vir ka
ĠundirbÃºning inn
lÃŃ nar
leik in
set ningin
Ġskemmtileg an
tÃŃm inn
Ġkli ppa
ĠflugvÃ©l ar
ĠHl jÃ³Ã°
ĠÃŀjÃ³r sÃ¡r
i ma
Ġsam di
Ġhlu tl
rÃ¡Ã° sins
ĠÃģr s
til gangi
ĠjÃ³ lab
od af
ĠFl eiri
ĠÃ³s ann
skip tingu
Ġkrakk arnir
sk aga
ĠniÃ° an
ĠÃºrskurÃ°ar nefndar
F lat
Ġs orp
Ã¡ ta
re et
Ġein ir
Ġbr eitt
ĠfrÃ¦Ã° ileg
ĠsjÃ¡lfseignar stofnanir
Ġv eig
ĠHag stofa
ĠMarg ar
Ġheit um
Ġb li
Ġfr iÃ°ur
ĠP an
Ġgjald eyri
Ġver aldar
ĠLit la
Ġpla ta
b is
b all
r Ã¶st
ÃŃ ur
Ġop nu
Ġlist ir
ĠHÃ¦ stirÃ©ttur
ĠÃºtgÃ¡f una
Ġv andi
Ã¾ unn
dd an
Ġleik mÃ¶nnum
nas afn
Ġum bÃºÃ°um
Ġmun urinn
Ġath Ã¶fnum
Ã¦ nt
Ġl Ãºt
ĠÃ¡tt unda
Ġleng ing
t Ã¶ldum
Ġh Ã¶ll
ĠS Ã¶m
Ġat burÃ°
Ġho lu
Ġkon una
Ġtoll kvÃ³ta
ĠAlmenn ingur
ĠV ak
ĠnÃ½ fjÃ¡rfest
ĠÃģ Ã¦tlun
ĠÃ¾ekk ta
ĠskoÃ° ana
ĠauglÃ½s ingum
bar Ã¡tt
dÃ¦m um
Ġprent un
Ġheill andi
jÃ³ Ã°urinn
ĠR Ã¶g
ĠstaÃ° greiÃ°slu
ul t
ĠrÃ¡Ã° uneytiÃ°
Ġk Ã³n
ĠS w
sv eif
ĠÃļ lf
ĠBjar kar
ĠkartÃ¶f lur
U S
Â ®
ĠfÃ¶ tum
Ġpl Ãºs
Ġkl Ã¦
Ġskar tar
ĠhjÃ³lastÃ³l num
g mail
ĠsjÃ¡lf boÃ°a
ĠferÃ° amÃ¡la
ĠIS O
Ġsam nÃ½
ot ur
Ġverk frÃ¦Ã°i
Ġkvar ta
s o
Ġsvip uÃ°
ĠkveÃ° ja
M E
ar Ã©tt
Ġb Ã¦ri
laus nar
ĠL yfja
ĠbÃ¦jar stjÃ³ra
Ġtiltek na
sv ettv
Ġkr Ã¶kkunum
ĠÃ¡kvÃ¶rÃ° unum
ĠB au
Ã¶r num
bÃ³k ina
ĠHag kaup
ĠflugleiÃ°sÃ¶gu Ã¾jÃ³nustu
Ġfyrir mÃ¦li
ĠÃ³ not
sam ir
Ġber ja
ĠferÃ° alÃ¶gum
Ġatvinnur Ã©ttindi
Ġ78 7
har Ã°s
Ġh jÃ¶r
Ã¡ Ã°ur
sem d
oll ar
ĠÃŀjÃ³Ã° kirk
Ġein tak
sam starf
ĠsÃ½ningar innar
ĠÃ¾ingmenn sku
afre lsis
Ġk eis
ĠH auka
ĠSv eins
Ġkost aÃ°i
Ġh ek
Ġhaf ist
ĠrÃ¡Ã° in
ĠLand bÃºnaÃ°ar
ĠVaÃ°la heiÃ°i
Ġfr yst
ĠslÃ¶kk va
Ġhar m
Ġveru leg
Ġs aka
ĠÃ¾ Ã¶kk
ĠÃ¾ vott
eÃ° li
ĠF L
greiÃ° sla
ĠsviÃ° inu
Ġh Ã¸
Ġhjar taÃ°
eir anum
Ġskip s
Ġsamstarf ssam
ĠÃŀriÃ° ja
Ġleng ja
ĠfrÃŃverslunar samning
p andi
Ġheil u
ing jum
ĠH lÃŃÃ°ar
Ġhag vÃ¶xtur
ĠafgreiÃ° a
hald iÃ°
Ġ17 0
Ġhugs ar
ĠJÃ³na sson
r inn
ĠhÃ¡ um
for mi
ĠgreiÃ°slum arki
vÃŃsinda sviÃ°
ill e
Ã½r u
ĠrÃº tu
ĠEvrÃ³pur ÃŃki
Ġgr ann
ĠÃ¶r n
ĠfagnaÃ°ar er
D F
Ġk olt
ĠE s
ĠMagn Ãºss
ĠMÃ¶r g
Ġ unnar
Ġf Ã³ta
ri ka
au gu
Ġvil lu
Ġminn ist
ĠvÃŃ tamÃŃn
199 8
Ġvenju legum
ĠnÃ½skÃ¶punarf yrirtÃ¦kja
ĠF jall
ĠT ey
ber ja
dr ott
angre indum
Ġf Ã³
Ġt Ã¦m
ĠÃ³ end
laÃ° ar
ĠÃ¾ a
ann ski
Ġkr u
Ġhlut afÃ©
ĠskrÃ¡ setningu
ĠViss i
ell ur
Ġald ir
Ef ni
ĠgrÃ¦ Ã°a
ĠA v
Ġvit ley
ĠrÃºm ar
ĠhÃ¡tÃŃÃ° lega
ĠN Ã¡ttÃºr
mÃ¡l inu
ĠÃ¶flug a
M amma
sk in
Ġof ar
jÃºk run
ĠÃ³sam mÃ¡la
ĠFasteig nas
ĠL agt
ĠR Ã¦tt
Ġhugs unar
ĠHeim speki
f elli
v ing
Ġ yrk
Ġr Ã¶l
ĠK ast
Ġfag naÃ°
ĠBjÃ¶rn sdÃ³ttir
nal ÃŃf
Ġsig lingar
ĠÃ³v issa
ĠstÃºd enta
d is
f at
m Ã¦tt
Ġf Ã¦ti
Ġinn tak
Ġtilkyn nir
eistara ti
ĠMa in
odaf one
ĠA LL
Ġpott i
ĠÃ¶f ugt
ĠaÃ°ildarviÃ° rÃ¦Ã°na
d Ã¦ma
z y
Ġr ÃŃsa
ĠmÃ¡l skost
Ġvik urnar
art h
ĠgÃ¡l eysi
Ã¡l l
ey inga
ĠbÃº nar
Ġra uÃ°a
ĠhÃºsnÃ¦Ã°i ss
Ġs en
Ã¾ rÃ¡
ĠumrÃ¦ Ã°an
SÃŃ Ã°ustu
Ġlykil orÃ°
ĠMÃ³t iÃ°
h iti
Ġs om
Ã¡ vÃŃsanir
bol ti
ĠÃºtl Ã¶ndum
Marg t
an Ã³tt
Ġd ottiÃ°
Ġstarf sins
ĠhvÃŃ tt
ĠjÃ³la svein
sk y
Ġinn bygg
vÃ¶r Ã°ur
samning inn
ĠSigurÃ° ssonar
Ġk yni
ĠR Ã³s
sv o
ĠSkag afirÃ°i
Ġ78 6
ĠFjÃ¡rmÃ¡la eftirlitiÃ°
ĠhagskÃ½r slugerÃ°
ĠH av
ĠnÃ½ ting
ĠorÃ° nar
ĠEr lend
Ġkringum stÃ¦Ã°um
Ġb Ã³nus
ĠheilbrigÃ°is starf
ĠKristin sson
ĠS Ã³k
ĠB ig
Ã¾ or
up er
ĠskjÃ¡ skot
ĠTrygg ingastofnun
Ġtilra una
aÃ° iÃ°
Ġf e
Ġ198 3
Bjar ni
kom inn
ĠÃ³Ã¾ arfa
ĠPep si
af elli
Ġfr om
tur e
menn tir
ĠdÃ¦m iÃ°
Ġfel ag
ĠtÃ³m stund
g rÃ¦Ã°slu
Ġlang varandi
ĠK ven
ĠN u
Ġlag ar
ul lu
Ġho ld
Ġundirrit aÃ°
Ġrak st
ĠTim es
ĠHjÃ¡lp ar
s in
ĠB rÃº
Ġv asa
ĠÃ¶ sk
ĠrÃ©tt an
veg na
ĠsjÃºkratrygg Ã°ra
ĠverkalÃ½Ã° shreyf
ĠFlugmÃ¡la stjÃ³rnar
ĠfjÃ¡rm agni
ĠBelg ÃŃu
Ġkast aÃ°i
ĠBlÃ¡ a
ĠbrÃ¡Ã°abirgÃ°aÃ¡kvÃ¦Ã°i s
ĠheilbrigÃ°i srÃ¡Ã°herra
ĠS alt
ĠverÃ° skrÃ¡
hygg ja
ĠfrÃ³Ã° legt
SÃ³l rÃºn
ĠÃ¡b endingum
vell ir
ĠS afna
Ġyfir borÃ°i
Ġbygg i
ĠRo bert
Ġverkal Ã½Ã°s
E ndur
ing num
sl ysi
Ġgr il
Ã¡r in
Ġvirk ur
Ġvinnust Ã¶Ã°um
Ġein skonar
ĠK jÃ¶r
Ġat burÃ°ar
ĠlÃ¶g gÃ¦slu
Ġsum ars
Ã¡r unum
tek jum
ĠSÃŃ ldar
Ġheit u
Skip ulag
Ġfram fÃ¦rsla
Ġskil mÃ¡lum
ĠÃ¡hygg jum
ĠsÃ¦n sku
stand andi
jÃ³ lu
kun Ã½
ĠhefÃ°bund in
ĠTra vel
verk efniÃ°
Ġheil la
t una
ĠmÃ¡l verk
Ġse pt
ĠHv or
Ġtilnef ningu
Ġf atnaÃ°i
ĠviÃ° leitni
Ġvinn inga
Ġvatn sb
ĠÃģbyrgÃ°a sjÃ³Ã°
il ju
et iÃ°
ĠR un
Ġhit inn
ĠA T
sb Ã³ka
kr afna
ĠBr ansinn
ĠdÃ½r t
berg s
Ã¶dd um
ĠbifreiÃ° ar
ĠÃŃ ÅĻ
Ã¾ etta
ro w
Ġtiltek in
ĠMÃ¡l iÃ°
k repp
Ġv Ã©la
Ġall rar
sp jald
Ġhen t
ker fa
ĠfÃ³t bolt
ĠhÃ¡mark s
Ġdeili skipulagi
ĠsamfÃ©lagsmiÃ° lum
Ġs h
Ġum Ã¶nnun
ĠR ich
Ġgest ur
Ġhagn aÃ°i
ĠÃŀorlÃ¡k shÃ¶fn
ĠV en
Ġp rÃ©
vÃŃs indum
ĠuppfÃ¦r Ã°
Ġhlutfall slega
ĠMart einn
t ru
ĠLand helgis
ĠnÃ¡Ã° st
Ġver st
upp fÃ¦rslur
ĠSÃŃ Ã°ast
ĠS Ã³
ĠfrÃ¡ vik
Ġveitt ar
ĠÃºtreik ning
ĠR ut
rÃº mi
ĠÃ¶ku tÃ¦kja
ĠmÃº sl
enn ilega
ik e
ĠÃ¦ Ã°a
Ġfal legur
ĠÃģr mann
c ent
h Ã³lf
and ÃŃs
ĠK ap
ĠK yrr
Ã³k ra
samÃ¾ykk tir
il eika
Ġ198 1
stjÃ³r ans
staf anir
on es
ĠrÃŃkisskatt stjÃ³ra
p unni
ĠS endi
ĠSt Ãºd
ĠJÃºlÃŃ u
Ġframs Ã¦k
8 00
g va
ĠAl bert
Ġfal legri
ĠfÃ¶ st
ĠStarf iÃ°
ĠBo eing
Ã¾yng d
an legu
ĠrÃ¡Ã° ningu
Ġinnan rÃŃkis
ĠBir g
Starf smenn
ĠtungumÃ¡l i
ĠPe ugeot
ĠFiskistof u
rÃ¦ mi
Ġundir stri
ĠT aliÃ°
ĠMeÃ° ferÃ°
na uÃ°ar
Ġhen ti
Â ²
ul iÃ°
amann i
ĠJakob sdÃ³ttir
sk Ãºl
ĠDag skrÃ¡
Ã¡st and
Ġb Ã³lk
Ġg rÃ¦na
ald ir
ĠÃ¶r t
ĠnÃ¦r ingu
Ġs afni
irk ja
ĠMo sk
Ġill t
ĠStefÃ¡n s
ĠEr la
Ġathaf nir
ot um
ĠÃĸ x
ĠvÃŃ tt
ĠfatlaÃ° s
ĠstÃ½r t
ĠFried rich
s und
Ã¸ ld
ĠstÃ½riv exti
ĠKal iforn
Ġr enni
ĠundirbÃº ningur
ĠseÃ°lab anka
G am
Ġhug bÃºnaÃ°ur
ger a
ĠpersÃ³nu leg
ĠhÃ¦Ã° inni
Ġyng stu
AuÃ° vitaÃ°
Ã¾ Ãºs
ĠG ef
Ġfel li
ĠvÃ¦nt ingum
Ã³ i
ĠÅ Ħ
ĠrÃ©tt ri
Ġskuld astÃ¶Ã°u
ĠsveitarfÃ©lag s
skÃ³ gi
Ġaf li
auk in
ĠSÃ³l veig
ĠkostnaÃ°ar lausu
Ġs ax
Ġm unar
ĠB ein
fest ing
ĠfjÃ¡rfestingar heimildir
ĠsÃ¦n ska
Ġheims Ã¦kir
ĠD Ã¶gg
ĠtÃŃÃ° indi
Ġe kk
Ġt aum
fi mi
Ġkref ur
Ġtoll alÃ¶gum
ĠÃºtgÃ¡f ut
ĠÃ¡gÃ¦ ta
Halld Ã³r
Ã¡Ã° ir
ĠsjÃºk lingar
ĠÃŀess a
il ig
ĠM exÃŃkÃ³
ĠA fl
ĠSig mundur
ĠHeil sa
ĠEitt hvaÃ°
ĠhÃºsnÃ¦Ã°issamvinnu fÃ©lÃ¶g
bÃ³k in
m agni
sl Ã¡ttar
rÃŃk jum
ĠSa ur
ĠfjÃ¶lbrey til
m ÃŃn
Ġm Ã¦Ã°
ĠviÃ° brÃ¶gÃ°um
sp lÃ¡ss
Ġley ni
ĠdÃ³m arar
ĠH T
ĠlÃŃk ja
ĠneÃ° ar
h jar
ĠmjÃ³lkur iÃ°naÃ°i
ĠnÃ½fjÃ¡rfest inga
8 5
Ġend ingu
mÃ¦l ingu
Ġn umiÃ°
ĠH enni
vÃŃk inga
Ġvald ir
kr af
ĠhÃ¶fuÃ° stÃ³l
ĠhljÃ³ ma
Ġri sa
Ġhring di
Ġfullkom inn
rÃ¶Ã° un
Ġb Ã¶kunar
ĠHÃ¡ kon
ĠNÃ¡ ms
ĠHÃ³lma vÃŃk
v unar
Ġkr afna
ĠSv eitar
ĠLandspÃŃtal ans
ĠGam an
S unnu
af rÃŃ
ol e
p lan
al eysi
Ġskil st
F asteig
Ġok t
reik ninga
ĠljÃ³smynd ari
ĠH els
ĠÃ³ hag
ĠÃ¾urr ka
eiÃ° slu
ĠEvrÃ³p sku
skrÃ¡ ningu
Ġinnihald iÃ°
l la
Ġv Ã¶l
viÃ°ur lÃ¶g
ĠÃ³hugnan legt
ir inn
ĠfrÃ¡bÃ¦r um
b elti
t Ã³k
Ġk lapp
Ġfl og
rÃŃ n
Ġtr ef
Ã¾jÃ¡lf ara
Ã¾ings Ã¡lyktunar
ĠÃ³ Ã°
ĠmÃ³ tta
sal i
Ġsamkeppni s
ĠÃ¾yr f
bÃ¡ ta
Ġk Ã¡l
ĠG a
Ġvef kÃ¶kum
Ġd imm
ĠM od
ĠðŁ ĺ
Ġmann slÃŃk
Ġhorf um
Ġb ÃºnaÃ°ar
ĠG Ã¶ngu
ĠL A
rÃŃk ja
Ġskemmt unar
nalÃŃf eyrir
bÃº i
Ġdeild ir
ĠÃºrval i
Ġtap aÃ°
jÃ¶fnunar gjald
Ã¾ingsÃ¡lyktunar tillaga
Ġm il
kenn t
Ġhar Ã°a
ĠLau f
slÃ¶g reglu
J Ãº
laÃ° ir
itt u
fi skur
leiÃ° a
lÃŃn unni
F A
jar i
is p
ip l
sam an
Ã¸ n
Ãŀess a
g ast
n o
ĠE ina
ĠÃºt fÃ¦r
Ġhell ing
uÃ°s yn
c al
Ġinn lÃ¡
Ġhugs jÃ³n
ĠhÃ© Ã°an
Ġpre sta
SK R
ĠÃ¾votta vÃ©l
ĠRagn heiÃ°ur
Ã¦r in
Ġinn tÃ¶ku
bÃ³k inni
Ġo ng
sl iÃ°ur
ĠbÃ¸r n
ĠP Ã¡
ĠBer lÃŃnar
Ġh at
leiÃ° rÃ©tting
ĠfjÃ¡rm unum
SR B
f li
Ġum bÃºÃ°ir
Ġtakmark anir
ĠK ona
Ġheimilis fang
Ġaf hverju
Ġseg ul
mÃ¡l smeÃ°ferÃ°
ĠÃ³lÃ¶g mÃ¦
ÃŃ skt
ĠaÃ° lag
Ġst end
Ġupp Ãºr
Ġhlut inn
Ġskatt greiÃ°
ĠupplÃ½sing afrelsis
Ġhepp in
ĠbrÃ½ nt
ĠHek lu
Ġs Ã¸
Ġfr eist
ĠboÃ° in
ĠLÃ¶g reglan
sÃ©r stakt
re s
trygg ing
ofb eldi
B yr
ĠD ala
ĠfÃ¦Ã°ingar Ã¡ri
ĠframtÃŃÃ°ar sÃ½n
Ġheim amenn
Ġof ni
Sch engen
b anki
ĠkÃ¦r umÃ¡la
ĠAlex ander
Ġlyfjal Ã¶g
m ennum
Ġfyr ram
ald iÃ°
ĠÃį rak
ĠrÃ¡Ã° gjafi
ĠSk or
Ġgrunn inn
ĠFrakk lands
Ġeldsneyti s
Ġalmann arÃ©ttur
ĠstÃ¶Ã°ugleika skatt
Ġhafsbotn sins
Ġe ggja
em s
ĠJ en
ĠÃ¡kv Ã¡Ã°u
jÃ¶ld in
Ġkos ningu
ĠumferÃ° ir
ĠÃ¾or sk
eys ist
ĠstrÃŃ Ã°a
Ġr ÃŃs
Ã¾ Ãº
ĠÃ¡tt ir
Ġstofnun inni
ĠHÃºs nÃ¦Ã°i
Ġkveik ja
ĠhÃºsnÃ¦Ã°issamvinnu fÃ©laga
ĠhÃ¡ u
eignar hald
Ġdyr nar
b jarnar
g Ã³Ã°ur
ĠÃ© Å¾
ĠSt an
ĠO R
Ġmill jar
Ã³lf r
Ġhendur nar
stÃŃma bil
drÃ¡ p
ĠAl freÃ°
ES S
ĠBryn jÃ³l
T rygg
U T
marg ir
Ġmeg um
ĠDal vÃŃkur
ĠnÃŃ unda
Ġkara kt
ĠK jÃ³s
ĠmiÃ° laÃ°
ĠfullorÃ° ins
ĠsveitarstjÃ³rnar rÃ¡Ã°uneytiÃ°
Ġklukkust unda
ĠÃ¦Ã° stu
Ġhlekk inn
ĠPau l
al is
ĠplÃ¶n tu
ĠÃįS OR
ĠhÃºsnÃ¦Ã°iss parnaÃ°ar
jÃ¡r n
els ea
Ġhring t
ĠtrÃºar brÃ¶gÃ°um
Ġst ak
Ã°ar a
Ġsameigin leg
ĠHÃ¶ skuld
re st
ĠB BC
ĠaÃ°al skipulagi
Ġefnahag sÃ¡Ã¦tlunar
Ġs eÃ°
Ġf ol
sk e
ĠA p
ĠBorgar leik
Ġvir Ã°ing
ĠkjÃ¶ tiÃ°
ĠIÃ° naÃ°ar
Ġathaf na
g jÃ¸r
sl ynd
ĠlÃ¶g un
ĠhÃºsaleigu lÃ¶gum
ĠBand alag
Ġv Ã³rÃ°u
ĠÃ³ merk
Ġbygg Ã°i
Ġfund urinn
ĠÃģr mÃºla
ĠjarÃ° gangna
rÃŃkis borgarar
ĠGl er
ĠÃĿms ir
Ġh rÃŃ
ĠF in
ĠsÃ½ ningum
Ġloft inu
ĠBarna verndar
Ġk undi
ĠM ax
laÃ° a
flutning s
S pur
re kki
ĠÃį A
Ġlaun ak
ĠviÃ°bur Ã°ar
Ġf ingur
al es
na uÃ°syn
Ã¶r ur
Ġsann i
Ġfyrirlest rar
flu tt
Ġv agn
Ġv ika
ĠL eita
Ġeigin fjÃ¡rmÃ¶gnun
ĠG at
ĠÃģ huga
all y
ĠkjÃ¶r sÃ³knar
horf ur
ĠgrÃ¦ nt
Ġkjara samningum
ĠbÃºsetur Ã©ttur
d Ã½
FÃ©lag iÃ°
L iÃ°
ĠV ill
Ġleik stjÃ³ri
Ġev rur
ĠÃŃbÃºÃ°ar rÃ©ttar
Ġfund u
s yni
Ã¾ arf
Ġmis notkun
ĠvinsÃ¦la sti
ĠviÃ° tÃ¶kur
ĠM e
ÃºÃ°ar regla
ĠF u
sv ip
ĠvÃ¶r unnar
Ġleit ina
ĠSlÃŃk ar
Ġsamstarfs aÃ°ila
Ġflugvallar ekstur
atilkyn ningu
H ins
Ġfr Ã¡l
ĠBif rÃ¶st
Ġr amm
ĠÃ³ rÃ©tt
ĠÃŀÃ³r arinn
ĠgreiÃ°slu uppgjÃ¶r
jafn launavottun
vak t
Ġkirkjum Ã¡l
Ġheimavinn sla
e us
Ġh ild
Ġleik manna
Ġforeld ris
fr jÃ¡ls
ÃŃv lin
rÃ³ t
ĠrÃ¡Ã° gjafa
tÃ¶l frÃ¦Ã°ilegar
Ġdreif ing
ĠalgjÃ¶r t
Heim ilt
ĠflÃ½ gur
amark aÃ°
var ÃºÃ°arregla
ĠlÃ¶g maÃ°ur
Ġand stÃ¶Ã°u
Ġhalast jÃ¶rnu
b akk
ĠK an
ĠdÃ½r alÃ¦k
ĠÃįslen skir
ĠlandbÃºnaÃ°ar samning
ĠbÃ³khald sbÃ³ka
sjÃºkdÃ³m atryggingar
uppfÃ¦rslur Ã©ttur
ÃŃvlin un
eit anlega
Ã¶ld un
bl Ã¶Ã°um
nauÃ°ar samningar
Ġfyrram Ã¡liÃ°
ĠH run
skil mÃ¡lar
ĠsniÃ° ug
ĠLeiÃ° in
u ar
Ġg lat
ĠlÃ¡n veit
Ġgreidd ur
ĠpÃ³litÃŃ ska
ĠskaÃ°a bÃ³ta
ĠStr Ã¶ndum
fyr ningarfrestur
ĠH avn
ĠstÃ¦r Ã°ar
ĠÃºtil oka
Kom iÃ°
lyfja Ã¡vÃŃsanir
Ġv allar
ĠÃ¶ld um
Ġris ast
L ÃŃk
Ġh issa
ĠE S
Ã°syn legt
Ġdans a
Ġmynd un
Ġflutning i
Ġpist li
Ãįsl ands
n Ã¦m
ĠR eiÃ°
Ġskip ting
ĠAl mann
ĠsjÃ¡lfs vÃŃg
ĠMart in
Sm elltu
o ut
Ġf ÃŃnu
ĠR io
Ġ3 000
ĠW e
ĠsÃ¡tt mÃ¡l
ĠTÃŃ ma
ĠLax ness
ĠLandeyja hÃ¶fn
Ġtil n
ĠS jÃ¡l
Ġp h
Ġvit naÃ°
Ġsumar sins
veld iÃ°
ĠÃ¾ung t
Ġupps agnar
heildar lÃ¶g
Ġh om
ĠF Ã©lÃ¶g
yss u
Ġstol iÃ°
nir nar
Ġbak aÃ°i
ĠÃ¾akk aÃ°i
ĠÃ³t vÃŃ
um sjÃ³nar
en tum
av es
Ġsnyr t
Mikil vÃ¦gt
ĠbÃ¦j arf
m undar
Å ¯
Ġk Ãºr
Ġr Ã¶skun
Ġsam eign
tÃ¦k iÃ°
Ġ196 6
V eldu
Ġv Ã¦r
amenn ska
Ġnor sku
Ġsamning urinn
Ġfullkom nu
Ġlegg st
Ã¶k uÃ°
Ġgr en
In gi
Ġfram komu
ĠstaÃ° al
lÃŃ nur
Ġbl ei
Ġfeng in
ĠVerk frÃ¦Ã°i
ĠEyjaf jalla
ĠTilnefningar aÃ°ili
O L
lu b
ĠG i
ĠâĢ Ŀ
ĠtÃŃm anlega
Mynd in
ĠÃ¾ingfara kaup
ĠB ess
amiÃ° lun
ĠH al
ĠJ ac
Ã¶ng ur
verÃ° samrÃ¡Ã°
fÃ³lk iÃ°
ĠVestur lands
bÃºnaÃ° ars
Ġst eÃ°
ĠskÃ½ ja
Ġmark tÃ¦k
Ġflug rek
lÃ¦g ar
ĠkÃ¶r lum
ĠfasteignaveÃ° krafna
st erk
Ġein ar
ĠveiÃ° um
Ġborgar stjÃ³ri
h Ã³la
y c
Ġs verÃ°
Ġsk ey
rÃ¦ Ã°an
mann inum
ĠÃ¡kÃ¦r Ã°a
Ġt en
ĠblaÃ° sins
ĠhÃ¡skÃ³la stigi
g Ã¶gnum
ĠviÃ° mÃ³t
ĠT ind
ol ar
Ġumhverfis vÃ¦
Ġkepp nina
Ġgjaldeyris hrunsins
ĠrÃ©tt ir
frÃ¦Ã° ilegum
Ã¾ro ska
Ġd jÃ¶f
ĠbÃ¡ turinn
Ãįsl endingar
Ġvaf i
Ġlyk lab
umÃ¡l um
hÃ¡tÃŃÃ° in
Ġlamb ak
F r
st Ã¦rÃ°
ĠtÃ¦k iÃ°
dÃ³m ur
ĠÃ¾akk lÃ¦ti
v ent
sk aÃ°
ĠJ Ã¶rÃ°
anleg an
37 5
ĠSÃ³l ey
Ġven ja
Ġhind ra
ĠSÃ¦m und
vÃ¶r ukaup
mÃ¶r kum
Ġgrund vÃ¶llur
O K
Ġvel gengni
Ġeink i
ĠNÃ¦ st
ĠHjal ta
ĠhrÃ³ s
ĠEm il
Ã° ina
Ġt Ã¶k
Ġb Ã¶l
on y
K l
ĠfullorÃ° inna
ĠNet inu
Ġakstur s
ĠkjÃ³s enda
ĠnÃ¡grenn inu
ri c
ĠB ay
ĠÃ¾jÃ³nustu stÃ½ring
Ġskjal i
ĠA uÃ°ur
ning unum
Ġyfir gefa
Ġand dyr
Ġsann aÃ°
net um
Sk il
Ġeinfald ar
afur Ã°ir
markaÃ° ssetning
h aus
m di
al eiga
Ġb lau
Ġ10 9
ĠW il
gÃ¡ fu
Ġkrist na
sh laup
ĠrÃ¡Ã° uney
Atvinnu vega
hÃ¡mark sgreiÃ°slur
M egin
Ġreglu byrÃ°i
Ġlands framleiÃ°sla
smiÃ° ju
hÃ¦f ni
ĠForn leif
Ġfl Ã¦k
fram boÃ°
Ġathug un
sÃ¡ ri
ĠStein Ã¾Ã³r
ĠBolungar vÃŃk
ĠbÃ³m ull
ey slu
Ġund ank
ĠnauÃ°syn lega
Ġheild sÃ¶lu
Ġkynn st
GuÃ° laug
pr ent
Ġr jÃº
ĠB ÃŃl
St undum
ĠsamrÃ¦ ma
ĠÃ¡ramÃ³t in
j er
ĠH eyr
ĠV ÃŃf
ĠvÃ¡ tryggingar
ĠVestur landi
ĠÃŀ Ãļ
ĠkallaÃ° ir
v ettv
ĠFerÃ° in
Ġarkit ekt
Ġk rÃ¦
ĠVerk efni
bar nalÃŃfeyrir
ĠtilboÃ° um
Vel ferÃ°arrÃ¡Ã°uneytiÃ°
ĠskÃ³la stjÃ³ri
ĠÃŃbÃºÃ° inni
eyjargÃ¡ ta
ÃŀriÃ° ju
! "
Ġp yl
mynd a
Ġvon brigÃ°um
Ġskor aÃ°
hÃ³p sins
ĠMark aÃ°s
ĠbrjÃ³ stak
ĠskÃ³g rÃ¦kt
ĠÃ¾ingfara kostnaÃ°
ĠH anna
hÃºsnÃ¦Ã°i sliÃ°ur
ĠÃºrslit aleik
bÃ¦ num
Ġhrun iÃ°
ĠnÃ½j ungar
Ġ rist
itt e
Ġvet ri
z k
Ġg al
ĠstaÃ° la
Ġfer Ã°ar
ĠO lÃŃ
ĠÃ¶r bylgju
ĠsÃ¦ ng
eftirlit inu
ĠLÃ¦k nir
Flat eyjargÃ¡ta
ĠskÃ³la stjÃ³ra
ĠinnrÃ©tt ingu
JÃ³ hann
ĠLaugav eg
kk iÃ°
ĠB Ã¶Ã°var
ĠsÃ½ slu
ĠKjar val
ĠÃ¾ykk t
r ra
at or
ĠsÃ½ ningin
ĠhlÃ½ tt
ĠjarÃ°ar innar
Ġsv alir
Ġveg far
Ġskor ti
Ġam erÃŃ
ĠSnÃ¦fell snesi
ĠLit lu
ĠV ins
Ġkon urnar
bygg ing
ĠkveÃ° st
ĠAD HD
i mi
reiÃ° ur
lÃ¶g Ã°
Ġpott inum
Ġven jum
Ã¾ vÃŃ
ĠD is
as ar
Ġfar sÃŃma
Ġumhverfis mÃ¡lum
Ġam k
Ġkol vet
; </
Ãŀ Ã½
All s
ĠAnd roid
ĠatvinnulÃŃf s
Ġk yr
au Ã°s
ĠK n
ĠstuÃ° laÃ°
ĠAr gen
Ġmeistar aflokk
ĠmeÃ°vit uÃ°
aÃ° ild
ĠtÃŃma punkti
ĠstrÃ¶nd inni
eik ning
Ġkl es
Ġendur bÃ¦tur
ĠsambÃ¦r ilegt
Ġborg aÃ°
Ġdeild a
ĠMat ur
NÃ¦ sta
Ġsk art
ĠviÃ° bjÃ³Ã°
Ġhrein lÃ¦ti
ord s
heimild a
Ġgag nast
I C
v ant
Ġaftur k
ĠblaÃ° i
ĠkartÃ¶f lum
Ġlei kv
ĠdÃ³mstÃ³l ar
v inum
arfÃ©lag sins
ĠEng lands
Ġdreif ingar
Vel komin
f rÃŃÃ°ur
Ġ2 20
ĠlÃŃ st
ĠT our
ĠI V
ĠÃĸ skju
Ġbir ting
ĠAustur rÃŃki
ĠÃ¾rjÃ¡ tÃŃu
ĠVel ferÃ°ar
Haf i
L angar
Ã¡ fang
ĠT R
ĠnÃ¡ms efni
Ġdug ar
Ġhagsmuna aÃ°ila
K ar
Ã¶kk unar
flug i
Ġfull veldi
Ġheg Ã°unar
heimil inu
tar anum
hver fiÃ°
ĠfjÃ¡rmun i
ĠD on
tÃŃ Ã°a
Ġ11 5
ĠdÃ¦m ig
ĠVol vo
Ã¦g sta
ĠhÃ³ fu
leys is
ĠsiÃ°areg lum
ĠÃ¦t luÃ°u
Ġstarfsm anns
ĠÃ¾rosk ast
Ġs ik
Ġum boÃ°i
ĠM ill
Ġein v
rÃ©tt indum
ĠfrÃ¦Ã° sla
ĠHin ir
G ott
f Ãºs
ĠS vart
ĠB arb
Ġfer liÃ°
ĠsveitarfÃ©lag anna
Ġell ilÃŃf
ĠE rum
ĠK lak
Ġtald ar
Ġt org
Ġbar ist
Ġmill jarÃ°
ĠA ma
Ġbyrj unar
ĠgrÃ³ f
ĠPal est
s agna
Ġvit iÃ°
Ġmorg nana
Ġdyr um
Ġskort s
8 9
c her
Ġor ka
Ġgr ind
Ġlif Ã°i
ĠRÃ¡Ã° uneyti
ĠOp iÃ°
ĠfÃ³rnarl amb
Ã¦r ni
ĠÃģ kvÃ¶rÃ°un
frÃ¦ Ã°um
ennar i
For maÃ°ur
sh ire
ĠKol brÃºn
bÃ¡ t
ĠNeyt end
. Â»
Ġung ir
Ġpre star
skild um
Ġk t
ĠS ec
ĠfrÃ©tt irnar
ĠglÃ¦s ilegt
ĠÃ¡grein ing
ĠOl ÃŃs
mynd um
Ġfrem sta
ĠvandamÃ¡l iÃ°
ĠÃ¾rey tt
Ç «
Ãº sm
ĠsÃ©r Ã°u
ĠvÃ¦nd is
an tÃŃ
ark ona
Ã¡tt mÃ¡l
ĠstjÃ³rnar menn
Ðµ Ð
eÃ° ri
Ġeinkenn ir
Ġk Ã³Ã°a
Ġfr os
ĠSl ysa
ĠvÃŃÃ° svegar
Ġeinsk is
Ġh anga
Ġm Ã¶nd
ĠviÃ° rÃ¦Ã°um
ĠsÃ³l inni
ĠCh risti
ĠÃ¾yng dar
Ġhlutir nir
ĠlÃ¶ng un
ĠV eiÃ°i
av atn
ĠveÃ°ur fars
shaf en
z ka
ung s
ĠframleiÃ° sla
ĠnÃ¡mskeiÃ° a
ĠS ara
ĠE verton
ĠljÃ³smynd a
ĠskilaboÃ° um
ĠNokk rir
harÃ°s dÃ³ttir
Ġvel li
Ġgrun ur
ĠÃįsra els
ĠaÃ° lÃ¶gun
at ali
ĠK Ã¶t
Ġgrein arinnar
nas onar
Ġgaf st
ĠÃ¡lag s
ĠstjÃ³rnsÃ½slu laga
Ġk Ã³m
Ġkyn ning
Ġey junni
ĠnÃ¦g ileg
ĠarbeiÃ° a
M aÃ°urinn
Ġu p
rÃ¡ sum
Ġf esti
Ġst Ã¶ku
ast ur
Ġbreyt ileg
ĠveÃ°ur s
ĠÃºtbÃº gv
Ġgagn agrunn
Ġlands vÃŃsu
Ġkap ÃŃtal
k m
ĠT ill
ĠAÃ° rar
rÃŃk in
Ġsumar bÃº
Ġsal erni
ĠSeg ir
Flest ir
k is
sh repp
br ug
Ġdeild um
ĠHver fis
M jÃ¶g
S l
Ã¡l um
R a
Ġv ista
Ġm jÃ³
lest rar
ĠEgyp tal
b ankinn
ĠB lu
ĠB orÃ°
Ġ198 2
ĠflÃ½ ta
ĠS ann
ĠhjÃ³ liÃ°
Vil tu
Ġt olla
jÃ³ la
ĠL ey
gild andi
Ġsjald gÃ¦
Ġendurgjald s
Ġv ot
Ġsam setningu
ĠV enju
skip un
Ġhav t
ĠM jÃ³
ĠtÃ³n listarf
ĠIngÃ³lf sson
Ġlok ar
ĠframleiÃ° anda
brÃ© fiÃ°
ĠskjÃ¡lf ta
Ġg Ã¶t
Ġum hyggju
Ġdr ag
ĠvÃŃ kka
ĠF yrirtÃ¦ki
Ã¡tt um
ĠGuÃ° br
ĠverÃ°bÃ³lgumarkmiÃ° i
ĠS S
Ġskri vaÃ°
ĠR ep
ĠlÃ¡ num
Ġfjall iÃ°
Ġfullkom iÃ°
Ġo nnur
Ġst Ãºt
Ġnau Ã°ung
ĠuppÃ¡ haldi
ĠfÃ¦Ã°u bÃ³tar
ĠFjÃ¡rmÃ¡la eftirlitsins
Ġf ingu
ĠL iss
ĠK im
ĠÃ¾jÃ³Ã° hags
ĠfÃ¦ kka
eym sla
arferÃ° ir
ĠHerjÃ³l fs
ĠeyÃ°ileg gja
Ġgagn legt
h Ã³tel
Ġm u
Ġleik skÃ³lum
ĠfjÃ¡rfest ar
Ġtrey sti
ĠÃºtgÃ¡f an
Ġka ssa
vax tar
Ġsannleik ann
ĠslÃŃk ir
ĠmiÃ° stÃ¶Ã°
ĠbÃº fjÃ¡r
Ġvinnu brÃ¶gÃ°um
Ġlaus num
H and
Ġsk if
nu Ã°ir
leik arnir
Ġ0 8
Ġmerk iÃ°
ĠlandsliÃ° inu
ĠjarÃ°skjÃ¡lf tar
Ġtil vÃŃsun
Ġumhverfis merk
Ġvins Ã¦lt
Ġborgar stjÃ³rn
ĠverÃ°bÃ³lgu Ã¡l
ĠG engiÃ°
Ġend aÃ°
sa um
heim iliÃ°
ĠÃ¾jÃ³nustu aÃ°ila
ĠtÃ³n skÃ¡ld
Ġstr eng
ĠRÃºss a
ĠÃ¡kvarÃ°an atÃ¶ku
shÃ¶f t
am Ã¶rk
viÃ° ri
ĠhljÃ³msveit in
ĠvÃ¦ ng
ĠNeskaup staÃ°
v andamÃ¡l
Â «
ĠB i
ĠÃºt vega
Ġ19 45
ĠerfiÃ° leika
Ġeinb eita
DÃ³m smÃ¡larÃ¡Ã°uneytiÃ°
Ġpant aÃ°
Ġ5 10
Ġung lingum
ĠhljÃ³ ti
hÃ³p s
Ġbreytt ist
ĠRÃ¡Ã°gjafar miÃ°stÃ¶Ã°var
ĠÃŀ jÃ³nustu
Ġmynd aÃ°
iss ur
Ġteng ing
Ġlands framleiÃ°slu
auÃ°lind ir
t Ã³l
ĠkvÃ¶ld sins
Ġalm anak
s rÃ©tt
Ġm l
ĠrÃŃk ari
ĠÃ¡st rÃŃ
stjÃ³rn unar
Ġbyrj uÃ°um
ĠrÃ¦k ilega
ĠlÃ¦k ninga
JÃ³ nas
ĠÃ¶ l
Ġat ferli
UtanrÃŃkis rÃ¡Ã°uneytiÃ°
sl ysa
ĠN okkur
ĠÃ¦ x
Ġ urÃ°
Ġp Ã¶r
ĠJ Ã³r
mann sins
ab on
ĠStjÃ³rn sÃ½sla
ET TA
ĠLÃº x
ĠmarkaÃ°ssetningar tilgangi
j anir
Ġl etriÃ°
ĠE IN
Ġ2 30
ald ast
Ġ196 8
vest an
Ġs essi
Ġh u
ĠviÃ° bragÃ°s
ĠÃº l
est um
Ġfor dÃ¦mi
Ġand litiÃ°
ĠbÃ¡ s
ĠumferÃ° inni
ĠÃ¡fangast aÃ°i
kor ti
gg a
ĠC or
ch t
Ġskor ar
Ġtilein ka
ĠÃŃ sk
et um
Ġrek tor
ĠBr aga
ĠloÃ° nu
m orgun
ĠsÃ¦ t
vÃ¶x t
Ġbisku ps
ss emi
ĠB SRB
Ġendur upp
Ġendur taka
og y
Ġpo stu
ĠtÃ½ d
versl unum
ati ve
Ġh andar
Ġt ikiÃ°
Ġst ar
ĠS ex
Ġsam star
ĠlÃŃf rÃŃki
Hver s
ĠkjÃ³ si
ĠFljÃ³ ts
Ġfer m
Ġtraust i
ĠhÃ³p s
naÃ°ur inn
ne sk
VerÃ°bÃ³l gan
ĠK ross
ĠfÃ¡ na
Ġbein ist
Ġpr jÃ³n
pl Ã¶tu
kennar ar
ĠÃºtskrif tar
ĠGarÃ°ar sson
Ãºb bur
Ġf Ã³kus
Ġn Ã¦Ã°i
Ġum sÃ³kna
skil um
Ġstig iÃ°
ĠGer Ã°u
Ġstefn anda
Ġ' '
ĠStÃ¦rÃ° frÃ¦Ã°i
frey ja
htt p
r ag
Ġhef Ã°ir
av ef
ĠfÃ©lag smiÃ°
ĠhljÃ³Ã° fÃ¦ri
ĠhÃ¡ skÃ³lans
ĠraÃ° aÃ°
ĠÃĸrygg i
brans ann
ĠKaliforn ÃŃu
ĠÃ¾r ennt
ĠHalldÃ³r s
ĠblÃ¡ sa
ĠsÃºr efni
ĠhÃ¦kk unar
ĠsjÃºk raf
arl eyfi
ĠsÃ¡l ar
ĠhÃ¡tÃŃÃ° ina
f alla
f ekt
Ġal a
ĠÃ¡hÃ¦tt um
MÃ¡ nu
ĠHrÃ³k sins
Ã¡ miÃ°
ĠÃ³ um
ĠL ou
Ġinn byr
sÃŃ um
Ã°ast Ã¶Ã°
brey ta
Ġlif rar
ĠjÃ³lag jÃ¶f
s Ã³su
vÃŃk ingar
ĠhlÃ½ Ã°a
ĠmarkaÃ°s aÃ°ila
Ġlei kk
ĠÃŀ ver
ĠE li
Ġfjall inu
ĠIng im
lÃ¦k na
ĠmÃ³t um
ĠmÃ³tt ek
natt spyr
ĠtÃ¶f lur
ĠÃºtboÃ° smÃ¡la
F Ã¶stu
Ġal Ã¾Ã½Ã°u
Ġk lÃŃ
kk um
Ġkaf li
ĠalÃ¾jÃ³Ã°a vÃŃsu
Ġb elg
en e
verk efna
Ġvirk t
ĠHÃ©r aÃ°s
E I
F jÃ³r
ĠCan on
Ġinn ritun
Ġfl ÃŃk
ĠmÃ¦ tast
ĠpersÃ³nu grein
ĠSigur Ã°i
ĠtvÃ¶f alt
h irÃ°u
Ġheim amanna
ĠnÃ¡ Ã°ist
Ġney ta
ĠSÃº Ã°a
ĠstÃºl ka
Ã¡Ã¦tl anir
ĠPortÃºg al
E x
ÃŃ la
Ġupp sÃ¶gn
Ġhef jist
ĠT Ã³r
ak on
ul eysi
ĠmikilvÃ¦g um
ĠgrÃ¦ num
ĠmetnaÃ° arfull
ĠT oll
Ġhver skyns
Ġvel tir
Ġho pp
Ġly fiÃ°
ĠÃ¾jÃ³n andi
Hlut verk
Ġminni hluta
ĠÃ³g ild
ĠÃŃ hug
ĠF annar
sm orgun
Ġsner ti
r ing
v ana
ĠtrÃº aÃ°
Eng in
Ġeinkenni st
Ġkjarn orku
ĠE R
ĠsÃŃÃ°astliÃ° iÃ°
IF F
à ¸
Ġraf rÃ¦nu
Ġ ins
ĠFram leiÃ°sla
jÃ³s iÃ°
ĠhÃ¶nd unum
Ġb el
Ġgl Ã¶g
yg l
Ġsvar ta
Ġ197 6
Ġald a
ĠRÃ³ bert
ĠÃ¡ m
ĠÃº re
Ġhv a
yn t
AÃ° sÃ³kn
Ġstig u
nÃ¡m skrÃ¡
ĠfrÃ¦Ã°a st
bandalag iÃ°
c m
e kkur
Ġs las
Ġvott orÃ°
Ġn Ã³t
ei d
Ġ10 4
ĠsmÃ¡ sÃ¶lu
ĠÃĨ f
Fyr stu
Ġupp boÃ°
tug t
ĠfÃ³rnarl Ã¶mb
menn ing
Ãºl la
ĠCh rist
ĠsmÃŃÃ° aÃ°
ForsÃ¦tisrÃ¡Ã° uneytiÃ°
L i
Ã³ ni
am mi
ĠrÃ¡Ã° lagt
ĠpersÃ³n ur
ĠM aÃ°urinn
ĠhefÃ°bund nu
h at
ĠR Ã¡s
ic o
ĠE p
lÃ¶g in
ĠAr t
ĠLands virkjun
ĠsnÃº ist
ĠEl net
Ġpark et
Ġs li
ĠnÃ¡ ist
Ġ10 6
ein ing
ĠVerk al
hl Ã©
Ġsp rett
vÃ¶r num
B S
ĠviÃ° ar
ott inn
ĠEf n
Ġeigin leikum
ĠstaÃ°ar ins
ĠCh elsea
t eig
ĠmÃ¡nuÃ° inum
ĠPet er
ĠV odafone
ĠT V
afl Ã³a
ĠfljÃ³t andi
Ġbreg st
ĠGreiningardeild ar
Tv eir
Ġb irk
skilyr Ã°um
Ġl Ã³n
skyld um
hv Ã¸r
ĠlandsliÃ° s
ĠVÃ©l sl
g iÃ°
laÃ° ist
ĠfÃ¦r slur
ĠlÃ¦kk andi
Ġ197 2
ĠbÃºs ett
ĠÃģÃ¦tlun in
g et
ĠorÃ° inu
Ġlok un
Ġeinstakling sins
Ġrig ning
Ġlof aÃ°
ĠBir ta
ĠÃ¡grein ingur
Ã¨ r
Ġs eldu
Ġst or
kom una
ĠRagnar sson
s d
agn Ã½
19 18
Ãºl kur
Ġpl Ã¶tunni
ĠStein unn
Ġhro ssa
st j
Ġveg alengd
ĠlÃ© n
ĠÃ¡kvar Ã°a
ĠBÃ¦ nda
Ġkol efni
na k
Ġtal an
Ġkvikmynd agerÃ°
Ġja v
Ġt af
Ġsp enna
rÃŃ mi
Ġbl Ã¦
ĠÃ¾urr t
O k
t li
x i
Ġk Ãºl
Ã¡Ã° iÃ°
Ġsak sÃ³knar
ĠUn ga
Ġbind andi
Ġh em
ĠÃ¡ leiÃ°is
lag ningu
ĠJ Ãĵ
ĠÃ¾ung a
Ġkal k
Ġm und
ĠS pa
ĠL ett
ĠT raust
tak erfi
Ġhluta brÃ©fa
Ġhygg ja
Ã³ iÃ°
Ġgreidd ar
ĠIÃ° n
S e
Ġk rÃºtt
Ġst eig
10 3
Ġinnflyt jenda
ĠBÃ¡rÃ°ar bungu
Ġk Ã¶llum
ĠN otkun
Ġsel jandi
Ġteg unda
um mi
Ġv Ã¶f
Ġt Ã¶p
Ġb jÃ³Ã°
ĠH A
Ġgr ennd
Ġskil ningur
Ã¶ll un
rau tar
ĠbÃ³l gu
ĠlandlÃ¦kni s
Ġskrifstof ust
g el
g Ãºst
ĠS lÃ¡Ã°u
ĠK Ãį
ĠmatvÃ¦ lum
Ġsykur sÃ½ki
Ġmak rÃŃl
ĠatkvÃ¦Ã°agreiÃ° slu
af jÃ¶l
Ã¾jÃ³nust unni
ĠstÃ³ra uk
l ingast
J Ãĸ
p all
Ġkann aÃ°
ĠfjÃ¡rmagn shÃ¶ft
c ia
un num
and ina
ĠF B
ĠK Ãº
ĠO G
Ġla bba
ĠaÃ°geng ilegt
ĠÃŀ ETTA
ĠF ir
Ã¾jÃ³nust una
stig um
Ġb aug
ĠR ef
her ji
ĠÃŀork ell
al eiti
Ġg ÃŃ
Ġst eins
ĠK jal
ĠtÃ¦k nin
Ġbor inn
ĠUr riÃ°
f eÃ°
an ar
Ġtil greina
til inn
ĠFriÃ°rik sson
ĠhÃ¦li sleit
Ġf Ã¸r
Ã³ num
ĠGuÃ° rÃºnu
Ã¦f ingu
ĠfÃ©lag sheim
rig ht
Ġheims styrjÃ¶ld
ĠgÃ¶ngu leiÃ°
T Ã¡
r yk
ĠSam Ã¾ykk
Ġgagn s
ĠBandarÃŃk ja
ĠfjÃ¡rmÃ¡l um
sum hverfi
ĠlÃ½Ã° veldisins
Ġbyg d
Ġgervi h
ak erfiÃ°
Ġ19 44
Ġteng ir
ĠÃ¾r eng
ĠT Ã©kk
ĠfjÃ¶l f
viÃ° miÃ°
ĠskoÃ° aÃ°ar
ĠlÃ¦kk unar
Ġupp h
eld ra
Ġsameigin legum
vis ind
st ÃŃÃ°
yn num
Ġsig ling
ĠC FD
ĠBorg arfjarÃ°ar
ĠSl Ã³
9 6
Ġ amma
Ġs ub
Ġb iblÃŃ
sl ÃŃfi
Ġfl Ã¶sku
Ġlag Ã°ist
Ġveg gi
epp a
Ġgef andi
ell t
lof t
Ġpr ot
Ġsk Ã³li
ĠÃģ fram
ĠhÃ¶f Ã°a
Ġgeg ndi
Ġflu gu
ĠstÃ¡l i
ĠRÃ¶g nu
ĠA ut
ĠF estival
ĠSt el
menn ingu
Ġbir st
Ġflokk inn
ĠkjÃ¶r in
Ġskamm ta
ĠÃ³n eitanlega
vÃŃsind astof
f rÃº
am eistari
ĠL oka
ĠAllt af
gjald iÃ°
Ġbeit ingu
ĠaÃ° ven
ĠT rÃºar
ĠD Ã¦m
Ġskip un
Ġ10 7
ĠsÃ³ su
ĠbÃ³kmenn tir
ĠThom as
ĠÃ¾ en
Ġb og
Ġsam bÃºÃ°
ĠA dam
Ġmynd bandi
leik inn
ĠJÃ³n sdÃ³ttur
ĠSteing rÃŃms
ĠNÃ¦ sta
Ġs erÃŃ
Ġst Ã¶dd
ĠB el
ul iga
Ġs mi
af undur
lega sta
ĠfÃ¦ kkaÃ°
Ġopinber ri
ĠstaÃ°fest ing
ĠHeim ilis
ĠblÃ³Ã° Ã¾rÃ½st
ĠBirg ittu
d ro
ĠE ddu
Ġald arinnar
Ġheil ag
Ġlyf taranum
Ġsynd a
ĠhÃºm or
s Ã³l
Ġf o
st Ã¶f
Ġst ri
jÃ¶r u
ingur in
Ġm Ã¦ti
ĠÃŃ Å¡
Ġp ap
Ġbrey tti
Ġheil an
ar Ã°a
Ġinn gang
Ġbyr juÃ°u
skil in
Ġsamkynhneig Ã°ra
NÃ¡nar i
Vor um
9 7
Ġinn sig
Ġveg in
Ã¸ ldiÃ°
Ġstof unni
ĠbÃ³k mennt
ĠSig ga
Ġinni faliÃ°
Ġker fisins
bÃŃ lum
j inn
Ġh att
st ygg
ĠK Ã½
ĠT Ã¦k
ĠBandarÃŃkj amenn
ĠrÃ¦ tast
sl Ã³Ã°um
Ġr Ã¦Ã°um
Ġfyrir gef
ĠB ekk
sv irk
ers on
ĠborÃ° aÃ°
hÃ³p um
Â ©
Ġg aum
ĠM is
ĠbÃ¦r inn
Ġsp rey
ĠsjÃ¡ iÃ°
Ġmilli bili
ĠÃºtlend ingar
IK B
Ã¾ jÃ³
Ã¦tt is
ĠC D
ĠhjÃ³l andi
Ġpist il
o us
Ã¦ ld
ĠaÃ° far
ĠR ad
Ġfl Ã³tta
ĠsÃ½ nis
Ġendur hÃ¦fingar
Ġsamstarf iÃ°
gjÃ¶f um
ĠK u
br eidd
ĠmÃ³t mÃ¦li
Ġlyf tari
tÃŃm um
ĠSÃŃÃ°a sta
li e
ĠleiÃ° sÃ¶gum
tra ust
ĠfÃ©lÃ¶g in
IF T
ĠverÃ°mÃ¦ ta
ĠKlak svÃŃk
T Ã¶lu
ĠK ong
Ġbrey ttu
sviÃ° inu
ĠMarg t
ĠstÃŃ g
ĠtÃ¦kn ilega
Bir tir
c ess
o si
ĠF Ã³t
ĠferÃ° afÃ³lks
ĠflÃ½ ja
ĠrÃ¡Ã°uneyti ForsÃ¦tisrÃ¡Ã°uneytiÃ°
ĠmargvÃŃ slegum
ĠkÃ¦m u
ĠEyjÃ³l f
ĠefnahagsrÃ¡Ã°uneytiÃ° Mennta
ĠauÃ°lindarÃ¡Ã°uneytiÃ° UtanrÃŃkisrÃ¡Ã°uneytiÃ°
ĠmenningarmÃ¡larÃ¡Ã°uneytiÃ° SamgÃ¶ngu
ĠnÃ½skÃ¶punarrÃ¡Ã°uneytiÃ° DÃ³msmÃ¡larÃ¡Ã°uneytiÃ°
ĠsveitarstjÃ³rnarrÃ¡Ã°uneytiÃ° Umhverfis
ĠrÃ¡Ã°uneytiForsÃ¦tisrÃ¡Ã°uneytiÃ° Atvinnuvega
ĠauÃ°lindarÃ¡Ã°uneytiÃ°UtanrÃŃkisrÃ¡Ã°uneytiÃ° VelferÃ°arrÃ¡Ã°uneytiÃ°
ĠnÃ½skÃ¶punarrÃ¡Ã°uneytiÃ°DÃ³msmÃ¡larÃ¡Ã°uneytiÃ° FjÃ¡rmÃ¡la
ĠP ost
ĠSt ep
Ġkl Ã¦Ã°i
Ein hver
ĠÃ¦Ã° sta
mund sson
ĠFÃ¶stu dag
Ġkles stum
Ġg jÃ¶ra
sl Ã¶gum
her rann
ĠÃĵlaf i
visind avefur
ĠaÃ° bÃºnaÃ°
Ġstefn ur
ĠEyjaf jarÃ°ar
Ġlek tor
Ġs aut
Ġl und
Ġflutning s
ĠÃ³Ã¾Ã¦g indum
ĠrÃ³tt Ã¦k
y ft
Ġst aÃ°urinn
el sson
su Ã°u
ĠHeim ildir
ĠskjÃ¶l um
ĠEirÃŃk sson
K aup
h Ã¶gg
er nis
Ġh reina
Ġg atn
el ix
ĠA uka
Ġfor ritun
Ġhr ÃŃsgr
ĠSÃŃ Ã°ar
eink enni
af jÃ¶lda
ĠF ylg
Ġseg jum
Ġbygg ingum
Ġendur greidd
ĠveiÃ° it
Ġbyl ting
ĠLiss abon
Ã¡l linn
ĠE iÃ°
Ġundir vÃŃs
z on
Ġb uÃ°u
li mir
at Ã³n
Ãºs a
ĠnÃ½ t
ĠbrÃ¡ st
s enda
Ġvax tal
Ġstutt an
ĠJÃ¶kul sÃ¡r
y nir
ĠS tik
ĠL am
srÃ¡Ã° uneyti
ĠupplÃ½sing amÃ¡l
ĠkveÃ° ju
ĠMik ill
ĠKyrr stÃ¦Ã°ur
Ġb ylg
Ġk re
ĠSt af
ĠfjÃ¡r lÃ¶gum
ĠÃŃtar legri
sveif lu
b Ã¶rnin
ĠÃ¦tt ingja
ĠÃ¾yng ri
ek ta
Ġbanka hrun
Ġinnflyt jendur
Ġsnert ingu
Ġs oÃ°
ĠÃºt skrift
leiÃ° ingar
Ġumhverfis merki
ĠmiÃ°bÃ¦ num
Ġvide o
h ir
ĠTil laga
ĠfrjÃ¡l sum
Ein ar
ĠRe ad
ĠÃ¾ ik
ĠÃºt g
Ġflott ur
Ġum rÃ¡Ã°
ĠferÃ° in
Ġmill ig
nefnd in
fÃ©lÃ¶g in
ĠS H
ĠSt reet
Ġfullkom in
ah a
met iÃ°
ĠÃºthlut unar
ĠeyÃ° il
ĠL yk
Ġmynd efni
as onar
ĠfÃ³lk sf
ĠhÃ¶r ku
ĠÃŀur ÃŃÃ°ur
Ġaf borg
Ġfar tÃ¶l
hÃ¶f Ã°a
Ġrekstrar aÃ°ila
Ġfram sÃ³knar
ĠL amb
Ġfisk eldis
ĠhlÃ½ nun
ĠklÃ¦Ã°a st
v at
ĠhvÃŃ lir
Ġri tari
ĠsjÃ¶ undu
HvaÃ° a
rannsÃ³k nar
ĠNÃ¦r ingar
o e
ĠÃŀ at
Ġvin Ã¡ttu
ov ision
ĠHar pa
stÃ¶Ã°var nar
ĠvirÃ°isaukaskatt s
i al
Ġh ata
Ġundir skrif
ĠÃ¾jÃ³Ã° frÃ¦Ã°i
ĠY ng
ĠfrÃ¦Ã° slum
Ġhepp inn
ĠÃ¡lag ningu
I D
ĠK onur
ĠÃŀÃ³r unn
ĠÃºtgÃ¡ fur
ne v
ĠVerk iÃ°
Ġkunn Ã¡ttu
ĠÃ³Ã¾ol andi
Ġf Ãº
ĠÅĳ ÃŃ
Ġkveik t
A ug
Ñ Į
Ġlands hluta
ĠÃŀing eyinga
ĠÃŃsl endinga
Ġgri mm
es ar
ĠHr Ã¶nn
Ġbreytt ar
ĠÃ³lÃŃk indum
Ġsyk ri
ĠskipulÃ¶g Ã°
f undir
Ġv eir
ĠF R
bl and
kost naÃ°i
ĠflÃ³k in
Halld Ã³ra
ĠÃ³ jafn
ĠnÃ½ tingar
gerÃ° um
ĠGeir harÃ°sdÃ³ttir
Ġhorn iÃ°
Ġdoktor sn
Ġ196 3
ĠsuÃ° vestur
Ġ Ø
ĠB ylg
frÃ¦Ã° ingurinn
ĠviÃ°skipt anna
ĠvÃ¶nd uÃ°um
ĠÃ¾ agnar
ĠJ et
reg lugerÃ°
ĠBr ag
ĠkÃ¶rf uknattleik
Ġbot ni
L it
Ġs lak
Ġein inga
ĠT eir
ĠtÃŃ und
Ġskip stjÃ³ra
ĠhÃ³tel um
L ang
ĠV ina
ĠL eir
ĠÃ¡r eiti
Ġhald nar
Ġel sti
E G
s Ã¡l
Ġm ore
Ġminn stu
ĠfÃ³tspor anotkun
Ġframfyl gja
u la
Ġbr agÃ°i
rÃ©tt ingar
mÃ¦ liÃ°
Ġhr Ã¦riÃ°
sb Ã³ta
Ġeftirlit snefndar
Ġlyk t
ĠaugljÃ³ s
ĠfÃ³stur ey
ĠC ost
ĠmÃ³t aÃ°
Ġviku lega
Ġgeg g
Ġtiltek inna
ĠhÃ¡lf tÃŃma
Ġvelkom inn
ĠSkÃ³g rÃ¦kt
ĠS ol
Ġkl Ã¡
NÃ½ veriÃ°
ÃĿ ms
ĠFriedrich shafen
ĠH ill
Icel andair
ĠSka tt
Ġh rÃ³p
ĠA k
ĠmiÃ° lar
ĠÃ³lÃŃk ra
ĠklÃ¡r aÃ°i
ĠstjÃ³rnarskrÃ¡r innar
U ÃĲ
ĠK en
Ġ15 00
skrif stofur
arÃ¡Ã° uneytinu
ĠMynd list
Ġinnflutning s
Ġv Ã¶n
Ġum gjÃ¶rÃ°
ĠsamÃ¾ Ã¦tt
Ġborg arar
ĠÃĵsk ars
Ġun s
Ã¦knis frÃ¦Ã°i
Ġtilgrein t
sk v
ĠlÃ¶g mÃ¡l
ĠU N
ĠC ent
ĠskrÃ¡ Ã°ar
trygg inga
ĠmÃ¦tt ur
8 6
Ġland bÃºnaÃ°
arÃ¡Ã°uneyti sins
ĠsjÃ³nvarps bransann
Ġleidd u
Ġkomm Ãºni
ĠT her
ĠfÃ¡ anleg
ĠhÃºs rÃºm
sf jÃ¡rhÃ¦Ã°
ĠÃ¾jÃ¡lf ar
ĠstuÃ°ning smenn
ĠaÃ°ferÃ° afrÃ¦Ã°i
min ja
ĠferÃ°alag iÃ°
ĠPÃ©tur s
Ġors Ã¶k
ĠfjÃ¶lmenn ingar
Ġsanng jarnt
Ġfram farir
ĠÃºr bÃ¦tur
Ġhi ka
ĠBretl and
h ur
Ġf Ã¶l
Ġk Ã½st
ĠM eiri
ĠstÃºl ku
r anir
Ġd Ã¶nsk
Ġyfir standandi
ĠfÃ¡ Ã°u
.... ..
ĠsÃ¡tt mÃ¡la
ĠbÃ¦k urnar
h epp
riÃ° a
ĠSp Ã¡nar
Til gangur
Ver g
Ġkl of
ĠÃģr bÃ¦jar
Ġsv ind
ĠM Ã³Ã°ir
ĠG esta
ĠbÃº skap
si on
leik num
ĠEld hÃºs
ĠÃŀorvald ur
af ulltrÃºi
ss Ã¶g
menn ingar
Ġleik listar
ekk ja
ĠhvÃŃ tur
ĠÃ¡Ã¦tlun arflug
Ġbreg Ã°a
ĠbrÃ½ tur
ĠNÃ¡ttÃºrufrÃ¦Ã°i stofnun
m inni
jÃ³ nir
Ġgrein ilegt
ĠyfirvÃ¶ld um
ĠfrumkvÃ¶Ã° la
H Ã¦tt
h anna
ĠÃģ hersla
at hug
ĠG rÃ³Ã°ur
of fice
Ġvenju legt
Ġkennil eiti
m Ã³Ã°
ĠauÃ° kenni
Ġtiltek nu
sker finu
ĠfrÃ¦Ã°i menn
Ġstol tur
m ons
ma ÃŃ
Ãºr rÃ¦Ã°i
Ġsveit in
list ann
ĠSigurÃ°ar dÃ³ttur
Ġors aka
Ġrig ningu
st rÃŃÃ°
ĠÃ¶ gn
ĠT Ãº
leik urinn
stjÃ³r anum
hel m
ĠlÃ¶greglum enn
Ġlag g
Ġlof orÃ°
ect ed
ĠstÃºlk na
Ġs uÃ°u
Ġg las
Ġverk in
skeiÃ° i
Ġrannsak aÃ°
F L
Ġs okk
ĠÃ¡ set
ĠA ÃĲ
ĠD em
Ġmag naÃ°a
ĠumhverfisÃ¡hrif um
Ġfagn aÃ°i
Ġ andi
ĠaÃ° fÃ¶ng
Ġl eÃ°ur
al ok
eÃ° in
ĠD eild
Ġfar nar
ĠBerg lind
Ġbolt inn
ĠÃ³ brey
ch i
Ã¶rygg is
s agnar
v Ã¦Ã°a
ĠV ÃŃÃ°i
ĠÃģ hrif
sv akt
kjÃ¶r dÃ¦mi
ĠhjÃ³na band
a a
Ġst Ã¶ng
Ã¡r inu
Ġvill andi
ĠnÃ¡ttÃºru verndar
Ġskipulag ningu
Ġkross inum
Ġmel tingar
Ã° andi
ĠÃ¶ skra
Ã°an um
ars Ã½
veg inum
ĠsjÃ³ nd
ley fis
Ġfjal li
hel g
Ã¦r Ã°a
ĠR IFF
ĠverÃ° mÃ¦lingu
ĠÃ¶r yrk
ĠUm sÃ³knar
ĠbÃ¡ tar
Ġend anleg
ĠVatna jÃ¶kuls
ĠÃ¾ jÃ³nu
ĠviÃ° st
Ġsp ek
ĠW ord
ĠalÃ¾jÃ³Ã° legri
Ġpl Ã¶tur
ĠfÃ¶tl un
ÃŃ us
naÃ° inn
Ã¦l ingu
vÃ©l um
ec tion
Ġgir n
ĠGunnlaug sson
Ġleys ir
j arf
ĠH n
ĠT F
Ġstyrk leika
Fyr sti
Ġpru fa
ĠMad rid
Ġn enn
orÃ° num
Ġteng iliÃ°
Ġhim ni
ĠrÃ³m antÃŃ
ĠlÃŃt illi
S el
ĠSam ningurinn
Ġopinber t
ĠLand bÃºnaÃ°ars
Ġhitt ir
ĠfÃ¦Ã°ingarorlof s
Ġstarfsst Ã©tt
Ġt augar
ĠH eild
kvÃ¦m i
ell ir
vÃ¦g is
yp e
8 3
s dal
af rÃ©ttir
ĠA li
ĠT engi
Ġkl Ã¡m
ĠÃ¡fangast Ã¶Ã°um
ĠÃ¡rangurs rÃŃk
ĠvinsÃ¦la sta
ĠSÃ½r landi
ĠS af
ĠH era
Ġfor sÃŃÃ°u
sÃ³knar tÃ¶lur
8 7
v Ã¶xtum
Ġk nÃº
ĠMYND IR
p df
an ema
ĠSt Ã½ri
ĠstjÃ³rn inni
Ġgam al
Ġ197 1
pl Ã¶n
Ingi bjÃ¶rg
ĠN Ã¡tt
vÃŃ u
eik um
tÃŃ Ã°um
ĠI m
Ġset ningar
Ġbyrj uÃ°
Ġatvinnurek enda
StjÃ³rn vÃ¶ld
ĠVel ja
Ġind ver
Ġfram vindu
Ġkaup in
ĠviÃ°tÃ¶l um
ĠF it
ilt on
t op
ĠS P
Ġr Ã¡k
Ġd rÃ¡
ileg ast
ol ogi
ĠN ey
ĠÃ¾r em
ĠsjÃºkdÃ³m um
Ġhress andi
al ÃŃn
ro ll
hÃºs inum
ĠSig gi
ĠBorg arfirÃ°i
saÃ° ili
ĠfrÃ¦g a
Ġbrenn andi
Ġvirk jun
vÃ¶r Ã°u
ĠreglugerÃ° um
um sjÃ³n
Ã© n
Ġsvo sem
jaf ors
ĠmenningarmÃ¡l arÃ¡Ã°herra
gre indum
ast arfi
Ġfor dÃ¦m
sv eita
Ġskip tin
ĠiÃ° naÃ°ur
ĠfÃ³l gin
ĠVÃ©l ar
G er
Ġfram fÃ¦rslu
tic s
ĠE A
Ã³Ã° ann
Ġles andi
Ġvand rÃ¦Ã°
Sam starf
Ġteg undar
ĠKr afa
ĠumsÃ¦k jenda
ĠH Ã©Ã°
ĠSigurjÃ³n sson
ĠsÃ¡rs auka
g ra
Ġsk ÃŃt
Ġvef umsjÃ³nar
Ã¶gn in
ĠGr en
Ar nar
Ġsam runa
ĠrannsÃ³knar innar
in ki
st oÃ°ar
Ġheim ur
tu daginn
Ġveitinga hÃºs
Ġef t
sli ma
B erg
ĠL SH
ĠÃºt koman
ĠCh arl
Ġ196 5
ĠatvinnulÃŃf inu
f andi
p una
st Ã¦Ã°ar
ang e
Ġ19 30
Ġbir gja
Ġfylg is
strey mi
Ġ anna
Ġt ik
ĠG rei
sp rÃ³fi
frÃ¦Ã° slu
ĠsamÃ¾ykk tir
Ġhugmynd ina
ĠtÃŃm amÃ³t
ĠHeim iliÃ°
ĠjÃ¶f num
Ġser liga
Inn an
ĠHallgrÃŃm skirkju
Ġheyr i
ĠHv amm
Ġglugg um
k eyr
ĠdÃ³mstÃ³l um
ĠuppgÃ¶t va
Ã¶ stum
Ġhel t
Ġminn ingu
ĠaÃ°skild a
H M
ĠfrÃŃ ar
ĠLÃ¦k jar
ĠÃļkra ÃŃnu
ĠfÃ©lag srÃ¡Ã°
Ã¶kk un
ĠUpp haf
ĠgarÃ° inn
k Ã¶nnun
Ġv indi
Ġt Ã¶sk
ta p
Ġupp ist
Ġflug miÃ°a
Ã¦kk anir
bjar gar
w aves
am agn
sl Ã¡ttur
annsÃ³k nir
ĠVer slunar
Ġskamm ti
er y
ĠF a
mynd un
ĠfjÃ¶l gar
Ġtrygg Ã°i
ĠHin rik
SjÃ¡ var
Ġm unni
ub e
ĠÃ¡hugasam ir
Ġinnifal in
Ġt d
ĠL jÃ³Ã°
ĠJ a
ĠU SB
Ġfyrirkomulag i
er o
Ġein kun
yfirlÃ½s ingunni
ĠsveitarstjÃ³r na
Ġsk af
Ġmann drÃ¡p
H Ã³p
ĠH alda
eiÃ° ni
Ġeftir fyl
ark aÃ°
Ġhug bÃºnaÃ°ar
Ġbein an
ĠlÃº ti
rÃ¡ Ã°um
ĠstaÃ° setningar
Ġfer skt
Ġsum a
ĠÃ³f yrir
PM G
J Ãģ
Ġg rÃ¦Ã°
fram lag
ĠrÃ¦ st
? )
l Ã¦gt
s firÃ°i
ĠL eig
Ġyfir valda
ĠAÃ° sÃ³knartÃ¶lur
ĠfjÃ¶ll um
d reif
af erli
ĠH Ã¶nnunar
Ġyfir heyr
yl e
Ġminn um
fest ingar
ĠY o
ĠNÃ½ skÃ¶punar
Ġf lau
Ġb ei
kr em
ĠSl eÃ°
ĠsÃ³knar pre
ĠÃ³n Ã¦m
Ġ {
ĠM Ã¦l
veg gja
Ġel li
ĠÃ¾riÃ°ju dÃ¶gum
ĠHam ra
ĠSigf Ãºsson
ĠR oy
ĠnorÃ°ur ljÃ³
!! !!
ĠHval eyr
ĠnÃ½st Ã¡r
Ġal g
ĠM eg
ĠK e
Ġund ur
Ġskrif uÃ°u
Ġey jar
ĠskÃ³l anna
ĠSm ith
Ġgleym t
ĠÅ¾ Ã¡
ĠEx cel
ĠÃŀvÃŃ lÃŃk
ĠÃ¦tlaÃ° ur
ĠsÃ¶f nunar
ĠgrÃŃÃ°ar leg
torg i
ĠÃ¡r stÃŃma
Ġhl eypt
ĠlÃŃkams rÃ¦kt
un es
ĠS uÃ°
Ã¶rÃ° unar
deil t
Ġg il
Ġvand aÃ°
ĠD anir
Ġkenn ingu
ĠÃ¡her slum
Ġvins Ã¦lir
ĠsÃ¡tt ir
ĠhljÃ³msveit inni
ĠHorn afirÃ°i
Ġ13 8
Ġfylg dist
ĠhvÃŃ ldar
ĠHelga dÃ³ttir
ed i
Ġkost aÃ°
Ġvan lÃŃÃ°an
ĠMosk vu
Ġf ak
Ġundir ri
ĠgreiÃ° ist
Ġfors e
Ġlist um
re t
ĠB Ã³
stof una
as i
Ġgl ampi
Ġumhverfis mÃ¡la
Ġveitingast aÃ°
v unum
ey Ã°u
ĠKeflavÃŃkur flug
ĠÃ¶nd unar
ĠlÃ¦ri svein
Undan farin
Ġsam d
stjÃ³r um
Ġtilra unum
vÃ¶r unar
ĠÃ¡l f
ĠBaug sfÃ³lk
Ġstarfsem inni
tt ri
Ġsk ÃŃn
ĠG oÃ°
ĠÃºt borg
ĠVÃŃs indi
ĠreiÃ° a
ĠÃ¡kÃ¦r Ã°i
v Ã¦r
eg Ã°un
gar Ã°urinn
ĠviÃ° gerÃ°ar
Ġvatn sh
ĠÃ¾Ãºs unda
brot um
Bl ogg
ĠÃ³dÃ½ra st
Ġundan Ãºrslit
mar it
Ġvan illu
ĠsÃŃÃ° kastiÃ°
brÃ©f in
ĠniÃ°urstÃ¶Ã°ur nar
ĠÃ¡t jÃ¡n
ĠÃģsm und
ĠrÃ©tt ind
ĠslÃŃk s
ĠÃģrna dÃ³ttir
ĠrÃŃkiss jÃ³Ã°i
Ãº Ã°ur
am pa
vÃŃ tamÃŃn
Ġkom mu
Ãŀ iÃ°
Ġfor varnir
ĠsÃ¶f nuÃ°
ĠHeiÃ° a
LÃ¶g Ã°
Ġkarakt er
o va
Ġt ig
ĠH eldur
Ġfram k
sv Ã¦Ã°
mann inn
Ġkaup i
atriÃ° iÃ°
ĠL Ã¡n
Ġ3 60
Ġald raÃ°a
mik la
ĠA C
âĢľ )
frÃ¦ Ã°a
ĠSk oÃ°a
stÃ¶Ã° una
Ã¡byrg Ã°ir
) )
an afn
Ã¶g gu
ĠF ara
ĠF aÃ°ir
Ġbar dag
ĠÃ¾Ã½ ddi
ĠDan mark
Ã¡l ag
ĠrÃŃk u
Ġefnahag sh
ĠÃĨ sku
ĠlÃ¦g st
ĠlÃŃfs skoÃ°
Ġt ort
ĠsjÃ³ menn
ĠsnÃº ning
ĠjÃ³la trÃ©
Laugar daginn
ĠsjÃ³nd eildar
s Ã¶lum
Ġdag legt
Ġblei v
v eislu
ĠÃ¡ orÃ°num
yr Ã°a
miÃ° ill
ĠsÃ³knar aÃ°ila
ĠBÃį L
Ġt eym
Ġb ox
Ã¾ v
Ġgeym ir
ĠFramkvÃ¦md ar
ĠlÃºx us
n Ã¦gt
Ġfram setningu
ĠauÃ° iÃ°
Ãĵ li
ĠOdd sson
Ãºr val
jÃ³l kur
ili pp
ĠstaÃ°sett ir
gir ni
Ġtey gja
ĠfÃ¸roy ska
Ġalheim urinn
SÃŃÃ°ast liÃ°inn
sk Ã¡la
dd ist
Ġgrein ing
aust iÃ°
ĠdÃ¡ samlega
ĠumrÃ¦Ã° una
Ġd ap
Ġ19 57
Ġlandam Ã¦ri
v ang
Ġo v
Ġra pp
ĠtÃŃm ans
ĠLÃ¡ tiÃ°
ĠiÃ°naÃ°ar ins
ĠJÃĵ LA
Ã¦ si
ĠF o
19 72
ĠAr ng
ĠLÃ¶g frÃ¦Ã°i
Ġveitingast aÃ°ur
Ġveitingast aÃ°i
ÃŃ da
ĠD oktor
Ġvan t
Ġbank arnir
Ġinnheim ta
ĠfemÃŃ ni
Ġ qu
jÃ³n in
hugs un
Ġsk in
vÃŃ Ã°
sm essu
Ġhug rekki
Ġhel la
Ġgild um
Ġfangels is
Ġuppsker u
ĠÃģ Ã¦tlaÃ°
Ġgrunn ur
ĠVÃŃs i
Ġtey mi
ĠrÃ½ m
sk erÃ°
Ġsam felld
Ġsp illi
Ġeinhver ra
ĠrannsÃ³kn inni
Ġlagg irnar
ag ildi
sbÃŃ ll
ĠÃ¾ ok
eit ingu
Ġyfir v
Ġkyn num
gjald a
ĠmÃ¡naÃ°ar lega
ĠÃŃ r
Ġkl Ã¦dd
Ġvir t
ĠstjÃ³rnar formaÃ°ur
Ġsak na
ĠsÃ³ f
ĠlandsliÃ° iÃ°
Ġtopp num
O f
Ġ ago
ĠL as
Ġvan rÃ¦k
af rek
ĠveiÃ° im
ĠniÃ° r
ing er
Ġaf drif
Ġhver finu
Ġsaman burÃ°
Ġung menn
j ord
ĠstaÃ° ist
St uÃ°
Ġskor tir
ĠhljÃ³Ã° fÃ¦r
Ġblogg i
ĠmÃ¶gu legu
ĠLandsb ankinn
Ġrak iÃ°
ĠÃģsgeir s
ĠheimasÃŃÃ° una
Ġein hliÃ°a
ĠÅ °
bÃ³k ar
ĠFyr ri
Ġdyr a
brag Ã°i
Vef svÃ¦Ã°i
ĠhryÃ°ju verk
Ġtr ans
Ġhand bolta
ĠReyÃ° arfirÃ°i
sp r
Ġf ilm
rÃ³ s
ĠhjÃ¡lp aÃ°i
jÃ³nar miÃ°
Ġvind ur
ĠBol la
ĠaÃ°al skipulag
Ġlaugar dÃ¶gum
Ġtung umÃ¡la
ĠHÃ¦ star
lei far
ï ¿
Ġver stu
ĠB Ãºr
Ġgr eip
ĠÃ³ tÃŃma
Ġvel tu
Ġvirk junar
Ġhor ni
Ġheyr ist
16 0
Ġstefn an
Ġfyll t
supp lÃ½singar
ĠhÃºsak ynnum
ĠvÃŃs aÃ°i
Ġfimm tÃŃu
Ġkan ski
am erki
Ã½ ni
ĠhÃ¦ Ã°a
Ġflug fÃ©lagiÃ°
Ġteik na
pla y
Ġerind inu
ĠsÃ¶nnunar gÃ¶gn
; -
Ãº Ã°a
Ġst ik
ĠvÃŃ Ã°ari
ĠfjÃ³r Ã°u
ĠsÃ¶gu lega
ĠÃ¶rug gan
ĠrÃ¡Ã° andi
Ġvinn sla
ĠStef nt
Ġhreind Ã½ra
ĠvÃŃs indi
yg d
Ġ24 0
eftir liti
ĠsveitarstjÃ³rnar kos
Ġpla sti
Ġafh jÃºp
ĠDan mÃ¶rk
Ġofn Ã¦mis
Ġ ×
Ġmyndband iÃ°
aÃ°gerÃ° um
Ġh ands
ro ni
fell s
ĠFjÃ¶l skyldu
ĠflÃŃs ar
ĠÃ³hef Ã°
Ġend alaus
Ġley fiÃ°
ĠÃ¾Ã½ Ã°ing
Ġkirk ja
ĠGeorg e
Ġborgarf ulltrÃºa
h ljÃ³ma
w id
ĠÃ³ heimil
ĠT ung
ĠborÃ° inu
ar ans
Ġtil val
ĠÃ¾jÃ³Ã° um
Ġlaus ir
Ġmannesk jur
ĠbragÃ° iÃ°
deil ur
V inn
ĠviÃ° varandi
âĢ ¨
20 20
ĠLand bÃºnaÃ°ur
k enna
Ġk lu
ol s
Ġsn jÃ³r
ĠÃ¶f g
s Ã¦t
in al
ĠÃ¾riÃ° jung
ĠÃ³h rein
ĠAn aly
Ġfre stur
mer ik
ĠpÃ³st inn
Ġtykk um
ka sti
ĠSt jÃ¶rnu
lug i
atn aÃ°ur
reik ning
Ġalvar legum
Ġfyrirbygg ja
ĠLandhelgis gÃ¦
Ġs onar
Ġk alda
Ġverk stÃ¦Ã°i
ĠferÃ° afÃ³lki
Ġaug unum
Ġutan lands
Ġsvok Ã¶lluÃ°
ĠmÃ¶guleik um
Ġh undar
ett um
ĠleiÃ°rÃ©tt ingar
Ġseina stu
ING AR
Ġtilhneig ingu
ĠF elli
ĠtÃŃma bÃ¦rt
inf Ã³nÃŃu
Ġver it
Ã¡tt mÃ¡la
ĠnÃ¦r liggjandi
ĠEyjaf irÃ°i
Ġerind iÃ°
ĠAnt on
Ġl aÃ°a
Ġsk ert
Ġmenn irnir
sfÃ³lk i
supp gjÃ¶r
ĠPÃ³ll ands
ĠEyÃ¾Ã³r s
End ilega
ĠsamnÃ½ ttu
Ġt om
Ġd Ã³t
ĠG olÃŃ
tak mark
ĠlÃ½ si
Sum ar
In ga
ĠlÃ¶g manns
fl Ãºr
ĠlÃŃf fÃ¦r
ĠÃŃsl andi
ĠEggert sson
re en
ĠR u
Ã¶k urnar
Ġsterk um
ĠLÃŃ fiÃ°
ĠHauk sdÃ³ttir
SamÃ¾ykk ja
sk aÃ°a
sam bÃ¶nd
ĠvÃ¶r unni
ĠAr na
ĠrÃ¦ dd
min jar
af Ã©lÃ¶gum
ra kt
Ġsig lt
ĠBlaÃ° amann
ĠaÃ°al heimild
vi ce
ĠfrÃ©tt atilkynningu
ĠBjÃ¶rn s
Ġskyn semi
ĠHT ML
Ġsk Ãºr
sl Ã¦k
ĠH im
ĠF Ã©
opp a
V est
V arÃ°
ĠH raÃ°
ĠÃ³ kunnu
ĠG rÃ¡
ak lÃºbb
ĠÃ¾Ã½ tt
Ġheild arf
Ġkaffi hÃºs
ĠJÃºlÃŃ us
ĠviÃ° unandi
ĠN orth
Ġvit undar
Ġro ynd
f Ã¦dd
Ġleik ara
ott ur
ĠÃ¡tt ina
ÃºÃ° ra
SKR IFT
Ġ19 0
Ġkos inn
ĠHarald sson
ĠGrein in
Ġsagn frÃ¦Ã°i
miss andi
ĠGrett ir
V in
Ġg jÃ¸gnum
eld iÃ°
Ġlag fÃ¦r
ĠO ne
ĠskÃ½r slunnar
ĠstrÃ¡ kur
Ġsyn jun
vÃ¦Ã° ing
t Ãºn
Ġf Ã¶gnum
ĠprÃ³ fiÃ°
ĠHar ry
P Ã©tur
t inum
all erÃŃ
ĠÃ¾Ãºsund um
ĠFjÃ¶l brauta
ĠhÃ¶r m
Ġk ram
ĠS ar
ĠC lass
Ġfeng ju
ĠÃ¡hug asÃ¶m
Ġheyr ast
hÃ³p ar
ĠstjÃ³rnmÃ¡l amanna
F ag
Ġey ja
vÃŃs it
Ġeinfald an
Ġ197 7
Ġsal num
ĠfjÃ¡rmagn s
Ġherbergis verÃ°
r aÃ°ur
Ġs eldur
ĠG issur
ĠsjÃ³Ã° fÃ©laga
Ġhrein um
Ġuppfyll tum
Ġdag in
ĠstjÃ³rn endum
Ġtillit s
ĠleiÃ°t ogar
ĠHÃ©raÃ°sdÃ³m ur
k ust
st atus
Ġfr eista
Ã³n s
ars al
ĠbÃ¡ ga
ĠalÃ¾jÃ³Ã°a stofnanir
ĠUPP SKRIFT
b eins
Ġv og
Ġb eik
ĠH an
Ġd Ã¶Ã°
gang ast
ĠJÃ³hannes ar
d eig
Ġs na
yr irkomulag
Ġsam kv
auÃ° l
n Ã¦r
um ferÃ°
nar r
Ġsam bÃ½li
Ġrekstur s
ĠMagnÃºs ar
Ġupprun alegu
ĠHjar tar
8 2
Ġm erka
ĠL y
bund nu
Ġpl Ã¶tuna
ĠbÃŃl sins
ĠÃºtgÃ¡fut eitiÃ°
ĠGolÃŃ at
in ess
Ġhag naÃ°
bl ind
ĠBe ach
Sveitar stjÃ³rn
sl Ã³Ã°ir
Ġdreg inn
Ġhn ÃŃf
ĠÃ½mi ss
aflutning ur
ĠÃģlftan esi
ĠaÃ°alheimild arkona
Y R
m ega
ka demÃŃ
ĠVest fir
brÃ©f um
Ġherberg jum
ĠTv Ã¦r
d vÃ¶l
ĠviÃ° k
deild ina
ĠTil kyn
Ġvak in
Al mennt
Ġhvat ningu
ĠVerkal Ã½Ã°s
ĠnÃ¦g ja
aÃ°ferÃ° um
um ar
ĠT jarnar
Ġsag Ã°ur
ĠNÃ½ lega
An na
Ġmark inu
Ġhag naÃ°ar
ĠhliÃ° um
ia tion
Ġupprun alega
Ġvarp aÃ°
Ġh rÃº
ĠV on
ĠU l
Ġfeng inn
ĠEr tu
oss i
Ġvon t
ĠÃŃsl endingar
Ġhik laust
en ndi
Ġg Ã¡m
ĠF la
Ġbl okk
Ġlit rÃŃk
St of
ĠJafn rÃ©ttis
, ...
F re
v eitur
ĠD reifing
ĠfrÃ¦ nd
ĠBÃ¦ tiÃ°
p ut
Ġb att
or Ã°s
Ġat burÃ°ur
Ġinn rÃ¡s
ĠÃĵsk ast
ĠEur ovision
ĠpÃ¶nn una
N Ã½r
ĠB Ã³kasafn
Ġland bÃºnaÃ°ur
St aÃ°an
ĠÃ¡g Ã¦ti
ĠEfn afrÃ¦Ã°i
Ġf em
ĠA GS
ï¿ ½
ĠÃ¾ yn
Ġl etur
Ġvar aÃ°
ĠP ass
ĠW i
ĠVilhjÃ¡l ms
Ġm y
ĠÃºr komu
Ġheyrnar laus
Ġk ex
ra ph
sl eysi
ĠÃ³ Ã°um
ĠSk jÃ¡lf
ĠSam hliÃ°a
Ġhr aÃ°i
ĠÃ¡hug amaÃ°ur
ï ¼
ĠR auÃ°
ĠmÃ¡l aÃ°
nefnd u
ĠjarÃ° hÃ¦Ã°
ĠrÃ¡Ã°her r
bre kku
Ġalmanna hagsm
um p
Ġfull nÃ¦gt
Ġbyr jum
Ġathug iÃ°
ĠÃ¦v inni
fall s
ĠMat ar
ĠÃ¡lit s
kepp nin
H vÃŃ
d ep
k nÃº
Ġm p
tir nar
Ġma i
kr Ã¶fu
ÃĲ UR
ĠEld ri
f ug
Ġend ast
Ãģ Ã¦tlaÃ°
leik ari
af greiÃ°slu
Ġat burÃ°um
Ã¡Ã° herra
ĠD ist
Ġsit jandi
Ġtengd ur
ĠnÃ¡Ã° um
ĠsÃ©rfrÃ¦Ã° ingum
Ġra utt
Ġhugs anleg
dal ur
stein i
jÃ³t andi
NÃ¡mskeiÃ° iÃ°
ĠKet il
Ġkant inum
Ġbey gja
I ST
h Ã¦ttir
Ã¶ ddu
Ġr Ã¶Ã°um
ĠF ug
ĠnÃ½ ggja
si c
lend um
kl Ã¦Ã°i
ĠframtÃŃÃ°ar innar
ĠÃŃ hald
Ã¡l eiÃ°slu
Ġp unkt
ĠlÃ¶g gild
Ġverk taka
a i
tur n
ĠI sland
Ġ19 40
ĠhÃºs in
ĠhljÃ³m ana
Ġstaf i
ĠendurnÃ½ jaÃ°
ĠÃŃmynd unar
ĠverÃ°brÃ©f aviÃ°
Set jiÃ°
m erkiÃ°
in ja
Ġp und
Ġsend if
ĠÃĵlaf ssonar
ĠeÃ°l ilegum
ĠviÃ°horf um
ĠverÃ°laun anna
ĠgjÃ¸r dist
ĠSkÃ³l inn
N ot
ĠR Ã¶gn
Ġlag ast
ĠloftrÃ¦ st
ĠÃºt Ãºr
ĠnÃ¡tt Ãºra
ĠfjÃ¡rmÃ¡l afyrirtÃ¦k
Ġtrygging amÃ¡larÃ¡Ã°uneyti
Ar n
ÃĿ mislegt
ĠAug lÃ½singar
ĠSey Ã°is
ĠSk el
ĠÃ¶rug ga
Eig i
ĠStokkhÃ³l mi
S E
af undar
ĠâĢ ļ
ĠstaÃ° in
Ġnot alegt
verk frÃ¦Ã°i
ĠÃŃÃ¾rÃ³tt afrÃ¦Ã°i
aflokk ur
hÃ¦ fur
Ġsunnu dÃ¶gum
Ñģ ÑĤ
ĠfrÃ¡ brug
St jÃ³rnar
s yk
aÃ° stÃ¦Ã°ur
Ã¦ sk
en berg
sal at
Ġfit us
ĠÃ³dÃ½r ari
ĠjafnrÃ©ttis mÃ¡l
ĠsÃ³lk erfiÃ°
f rÃ©tta
g uÃ°
Ġh Ã³lf
Ġgrunn hljÃ³ma
ĠStjÃ³rn skipunar
ĠhÃ¡degis mat
ĠStjÃ³rnmÃ¡l afrÃ¦Ã°i
at ch
ka pp
ip s
ĠÄ Ħ
ĠÃ¾Ã¡tt tÃ¶k
ĠmarkaÃ° inn
ĠtÃ¶lvu skjÃ¡
ĠkÃ³l na
Ġfyrir bur
ĠhÃ¡ marka
Ãºr t
Ġf Ã¶rÃ°un
Ġef nt
ĠG estir
ott er
Ġra uÃ°u
ĠÃºrslit in
ĠÃ¡horf enda
rid ge
j agerÃ°
st Ã¶lur
Ã© Ã°in
ĠJ ack
ĠstjÃ³rnar maÃ°ur
alt h
ab ar
iz ation
ĠgjÃ¸r di
ĠevrÃ³p ska
Ġr osa
bÃºn aÃ°urinn
ĠÃ¡reiÃ° anleika
Ġsmell t
Ġeink an
Ġsterk ar
ĠhÃ¶fundar rÃ©ttar
ur n
ĠÃ¡ li
Ġt y
vald ur
ĠrÃ½ na
Ġheimav elli
Ġ \
Ġund ang
Ġskil uÃ°u
ĠÃ½ tt
ĠrÃ¡Ã° uneytinu
Ãģ kvÃ¦Ã°i
Ġmat reiÃ°slu
ĠSch ool
stÃ³ll inn
Ġsk all
nd ini
Ġmun inn
ĠO slÃ³
Ġge va
ĠjarÃ° frÃ¦Ã°i
ĠbÃŃl aleigu
ĠtrÃºar brÃ¶gÃ°
herberg iÃ°
con om
ĠS jÃºk
ĠN ÃŃ
Ãģ kv
ĠverÃ° andi
ĠNor rÃ¦nu
ĠBr yndÃŃs
stjÃ³r nir
e en
ĠV eiÃ°
ĠbÃŃ Ã°
m es
Ã³Ã° inn
ĠhÃ¶f nina
ĠnÃ¡mskeiÃ° in
ĠFerÃ°a Ã¾jÃ³nusta
ĠlÃŃkams rÃ¦ktar
à ¦
ĠaÃ° hald
Ġt sk
Ġt auga
ĠS agt
ĠÃ¡r amÃ³ta
ĠO kkar
lig um
ĠDag atal
hÃ¡tÃŃÃ° ina
ĠbÃ³kmenn tum
aviÃ° rÃ¦Ã°ur
Ġfasteign amarkaÃ°i
ĠHÃ³p urinn
s eyri
Ġm er
ĠÃ³ sp
Ġ( âĢŀ
Ġsvok Ã¶lluÃ°um
ĠjarÃ°skjÃ¡lf ta
af eng
eng unar
Ġfyrir les
ĠC ast
he illa
ĠR y
jÃºk i
arÃ¡Ã° iÃ°
ĠfrÃ¦ ndi
ĠÃ¡hugaver Ã°ar
ĠGarÃ°a bÃ¦jar
verksmiÃ° ju
u al
Ġf lat
Ġb rÃ¦
ĠP art
Ġleik list
ĠFl Ã³r
ĠFinn st
ĠfÃ³tspora yfirlÃ½singunni
» ¿
Ġjafn rÃ¦Ã°i
Ġlest ri
Ġs un
Ġo sfr
Ġn oti
ĠÃ¡st fang
ĠHalldÃ³r sdÃ³ttir
Ġheg ningar
ĠStik lur
r yÃ°
Ġh Ã¶m
ĠNÃ½ ju
ĠE UR
ĠP i
Ġskip tum
unn in
ĠHans en
Ġverkefna stjÃ³ri
Ġfeg ur
ĠHauk sson
9 2
s ak
Ġse inu
ĠmeÃ°li mur
ĠÃ¦Ã°i sleg
ĠGrikk landi
ĠI SK
Ġraunveru leg
Ġleig um
L ist
Ġsig ldi
ĠskÃ¶p um
ĠsveitarfÃ©lÃ¶g in
s ug
v ei
an ÃŃÃ°
Ġsam ans
Ãŀ jÃ³nustu
arfÃ©lag i
ĠHver su
ĠAt h
ĠfjÃ¶lbreytt ar
Ġbund inn
Ġofn inum
ĠKann anir
Ġst afa
Ġr ot
kv ist
lut ningum
ĠReykja vik
haf s
ĠsÃº pu
ĠkjÃ¶ ti
ĠBÃ¡ tur
G T
in ter
ĠH ell
Ġkv a
heim ur
ĠaÃ°dÃ¡ endur
ĠJÃ³s ef
ĠM ÃŃn
var Ã°ar
Ã¦Ã°i s
ĠHaf iÃ°
Ġvak nar
ĠhleÃ° slumaÃ°ur
ĠbrjÃ³stak rabbamein
skip u
Ġbr oy
ĠsveitarstjÃ³rnar rÃ¡Ã°uneyti
ĠtÃ¡kn mÃ¡l
vill ur
u lu
fer liÃ°
ĠtÃ³nleik ana
Ã¾ yn
og h
ĠfÃ¦r u
lif andi
ĠsjÃ¡lfst Ã¦Ã°a
ĠÃģs dÃŃs
Ġkor ta
H all
Ġl ond
ĠS at
ĠM est
ĠÃ³ rÃ³
ĠÃģ kvÃ¦Ã°i
ark erfi
ĠÃ¶r va
ĠVeÃ°ur frÃ¦Ã°i
Ġodd viti
ĠÃ³ verÃ°trygg
ĠL inda
ĠK jÃ¶t
ber jum
naÃ° inum
ĠHel lu
ĠsjÃ³Ã° inn
Ġbank i
ĠHval fjarÃ°ar
ĠdjÃº pa
ĠSkoÃ° aÃ°u
ĠK rÃŃ
ĠI ce
ĠfÃ¶stu dagskvÃ¶ld
ĠGl ob
ĠÃ¡byrgÃ°ar tryggingu
ĠÃºtilok aÃ°
Matt hÃŃas
ĠsÃ©r kenn
ĠÃ¡hrif arÃŃk
ĠfjÃ¶lskyld na
ĠÃ³h epp
ĠsiÃ° frÃ¦Ã°i
Ġtung l
Ġsamsvar andi
unc tion
ĠÃĸku tÃ¦ki
n na
Ã¡ her
Ġfull s
ĠBandarÃŃk jafors
ĠAir waves
ĠÃ¡f Ã¶ngum
merk t
vÃ¦nt ingar
ĠNÃ¦ringar frÃ¦Ã°i
ĠÃ³ Ã¡
leiÃ° ing
Ġney sla
Ġ0 5
ĠskoÃ° aÃ°i
ĠhÃ³tel i
ĠGuÃ°mund sdÃ³ttur
ĠbandarÃŃ sku
ĠstÃ½r Ã°i
Ġlu kku
ĠÃºtreik ninga
ĠÃ¡r al
15 0
ĠstÃ¶Ã° vaÃ°
ĠlÃŃtil s
ĠFÃ³lk iÃ°
ĠfullnÃ¦g ja
Ġben tu
K at
Ġsp Ã½
ĠÃ¶r lÃ¶g
Ġvafra kÃ¶kum
ĠÃģgÃºst sson
p lÃ¡
varp s
Ġnot uÃ°u
Ġlau su
tÃŃÃ° inni
g ro
ĠÃŀ rÃŃr
ĠI sl
Ġdrykk jar
ĠÃįr landi
al it
ĠM Ãºs
ĠA na
Ġbl Ã¶Ã°um
bÃ¦ nda
stofnunar innar
fel ag
ĠevrÃ³p skra
ĠTe ch
ĠS jÃ³n
rÃ³ pa
ĠLandsb ankanum
leg gur
ĠK Ã¡l
Ġyfir manns
bil un
Ġminnk andi
t Ã¡
ĠV SK
Ġfram gang
Ġeinst Ã¶ku
ĠBÃ¦jar bÃŃÃ³
ĠSÃģ Ãģ
ĠGuÃ°laug ur
Ã ¢
Ġupp Ã¾votta
ĠfrÃ¡ drÃ¡ttar
ollu stu
ĠlandsliÃ° sins
Ġhal tu
Ġseinu stu
ĠS au
Ġsam ver
kr Ã¶fur
ĠG reinar
ĠK ing
ĠU nd
Ġfar veg
ĠÃ¾jÃ³Ã° hag
Ġfil mu
ĠÃŀÃ³ri sson
Ãºtt ekt
ĠmannslÃŃk aminn
ĠL eigu
Ġley nt
Ġjafngild ir
v es
sv ott
frÃ¦Ã° ingum
att ar
Ġw e
ĠsvÃ¶r tum
Ġkvikmynda verÃ°launanna
Ġtug i
afram leiÃ°
ĠJo hann
c le
ĠBl Ã³Ã°
ca tion
ÃŃslen ska
Ġhluthaf afundi
v Ã¶t
v enju
ĠL oga
ĠmeÃ°al stÃ³r
ĠBjar nar
Ġar e
ĠByggÃ°asafn iÃ°
st eik
Ġkom umst
Ġall skyns
ĠR ob
Ġspyr jandi
Ġtilfinn inga
ĠÃŀorg ils
ĠsjÃ¡lfboÃ°aliÃ° a
f alt
Ġsk rÃŃm
sh lÃŃÃ°
ĠGuÃ° bjÃ¶rg
Ġand virÃ°i
Ġsann kallaÃ°
Ġfynd iÃ°
Ġbac on
Ġg eir
ĠviÃ° vÃ¶run
ĠB et
Ġjar Ã°a
ĠguÃ° frÃ¦Ã°i
saÃ° ilar
punk tur
ĠhÃ¶g gum
ĠefnahagslÃŃf inu
ĠÃŀ angaÃ°
ĠÃ³ missandi
Ġhug leikin
lau f
ĠLista hÃ¡skÃ³la
Ġtafar laust
S Ã¦ll
Ġ ]
ag jÃ¶ld
ĠG il
jall s
ĠfjÃ¶ld am
ĠÃĨt li
ĠViÃ°skip tarÃ¡Ã°
Ġver s
ĠrÃ¡Ã° gjaf
Ġeld f
Ġskemm dum
eidd i
ĠSp Ã¡n
ĠnÃ¡mskeiÃ° sins
Ġbjar g
ĠF ulltrÃºar
ast aÃ°a
ĠT afl
ut e
sta d
ĠG Ã¦
ĠG Ã¦ti
skip ting
Ġhug leiÃ°slu
agn aÃ°ur
Ġsm ur
Ġtak ist
ĠCom mons
ĠWilli am
Ġafrak stur
k arl
ĠlÃŃk an
if t
Ġdr jÃº
ĠÃģrnes inga
ĠSeyÃ°is firÃ°i
ig um
ĠH K
Ġupp reisn
ĠC up
9 1
ÃŃ d
Ġk ipp
Ġfyrir brigÃ°i
Ġfall in
ĠÃ¶flug ri
slau su
O ft
er u
Ġaf ritun
Ġ10 3
Ġtrygg inga
ĠljÃ³s um
Ã³lf s
Ġalt jÃ³Ã°a
Ġpart Ã½
ĠryÃ° ja
ĠTrÃºar brÃ¶gÃ°
yn ja
deild ir
ĠaÃ°ild arfÃ©laga
ced es
Ġanddyr i
ĠV eÃ°riÃ°
Ġp df
jal laÃ°
ĠliÃ° inni
ljÃ³ t
ĠGuÃ°m undi
ĠVal s
Ġafl amark
ĠViss ulega
ï »¿
Ġland bÃºnaÃ°i
Ġbor Ã°ar
Ġfasteig nir
ylt ingin
ĠH ulda
Ġp ri
ĠR os
Ġhver r
Ġ19 59
as afni
ĠÐ ¿
fangs efni
ĠvefumsjÃ³nar kerfi
Ġ im
aÃ° al
Ġh ak
ĠÃ¡ skot
iss jÃ³Ã°ur
ĠkÃ¶k unni
Ġrisast Ã³r
Ġb andarÃŃk
ang reint
ĠU gga
Ġsveit um
hÃ¦ fa
ĠkÃ¦r Ã°a
lif e
sÃ¶g unni
SjÃ¡var Ãºtveg
Ġs yr
ĠS ir
Ġat hafnar
Ġheil um
ĠreglugerÃ°ar innar
ĠvÃ¶ruf lutningar
Ġst ang
ĠV ind
Ġrey nast
flokk num
Al Ã¾jÃ³Ã°
ĠKol bein
Ġinnflutning i
ĠviÃ°urkennd um
s j
Ġe ingin
Ġdag setningum
ĠSt Ã³ru
ĠsÃ©rstak s
Ġkar am
ĠmÃº slima
V ER
g h
Ãº f
em e
sv eifl
Ġland nÃ¡m
kkur nar
Ġtals verÃ°a
ĠÃ¶rorku lÃŃf
ĠE isini
Ã¶r kum
sÃŃ Ã¾rÃ³tt
dag sins
bl ock
rÃ¦n an
ĠSjÃ¡lfstÃ¦Ã°isflokk num
ĠNorÃ° menn
ĠRe al
ĠB Ãºst
ĠsÃ¦ tin
ĠOr ri
Ġborgar stjÃ³ra
ĠAnd ra
ĠsamfÃ©lagsmiÃ° la
Ġfor Ã°a
Ã¡k n
ĠstrÃ¶nd ina
G B
Ġlag Ã°ir
ĠÃ¡kv Ã¦Ã°a
ĠStjÃ³rn in
Ġsek ur
ĠsÃ½ni shorn
Ġtilb aka
ĠT rausta
starf a
ĠauÃ° m
Ġvita skuld
F ast
g rÃ¡Ã°u
ag h
Sk Ã³la
Ġsendi herra
ĠflÃ³tt amanna
ĠsÃ©rhÃ¦ ft
Ġstefnd a
ĠtÃŃmam Ã³ta
Ġmal bik
v eita
Ġhef ti
Ã¾ rif
Ġp ennar
ska tti
vin ur
Ġkepp ti
Ġb Ã¦ttu
Ġaf nema
ĠD ig
ol ogy
ĠSam tals
Ġley n
ĠSjÃ¡lf ur
Ġtiltek inn
shaf nar
ĠÃŃmynd a
ĠNÃ¡ miÃ°
Ġauk ins
ĠbreiÃ° a
ĠatburÃ°ar Ã¡s
Fasteig na
Ġteng la
ĠdÃ½r afrÃ¦Ã°i
ĠtvÃŃ bur
Ġglugg ann
ĠJÃ³l in
Ġk ulda
ĠV oga
ĠHÃºsa vÃŃkur
ĠÃĵl Ã¶f
ĠÃ¡strÃŃ Ã°u
Ġh esa
Ġgeng um
ĠhÃ¡tt semi
hÃ¦ Ã°ar
veiÃ° a
ĠsamtÃ¶k unum
Ġtit il
Ġsteyp u
F C
Ã³l s
Ġmynd at
av inn
hÃ³l um
Ġframhalds skÃ³lum
ĠSkot landi
Ġsam spil
ey su
ĠF ang
Ġfar angur
sf undur
ĠsveitarfÃ©lag i
Upp fÃ¦rt
, .
ĠÃ¡ for
Ġhug ur
Ġhel lu
ĠsjÃ³nvarp inu
ĠAnd ersen
ĠReykjan esi
Ġvild um
ĠBla ck
rÃ¦ m
Ġland smÃ¶nnum
Ġhor fi
ĠfÃ©lagsleg um
ĠÃļti vistar
H lu
d oktor
ĠM Ã¦
ĠSk af
ĠÃŀjÃ³Ã° verjar
Ġdug legur
Ġdau Ã°s
Ġheimil aÃ°
Ġlyf tu
Ġmiss i
Ġforset inn
Ġsma kka
ĠHverfis gÃ¶tu
ĠstÃºt full
un efndar
ei far
Ġum burÃ°ar
ĠK jÃºk
ĠrÃ©tt mÃ¦
Ġskuld um
ĠMÃ¡l stofa
ĠSvavar sdÃ³ttir
Ġsv eitir
ĠN av
skrif stofa
Ġvafra kaka
Ġfrels is
ĠhagkvÃ¦m ni
b ikar
ĠG era
ĠR ed
Ġkost ir
) ...
ĠK lapptrÃ©
Ġmann auÃ°s
Ġstel a
Ġkeyr t
ĠafleiÃ° ing
vott orÃ°
H A
N T
Ã¶ skum
Ã°ur nar
Ġend ingar
hlaÃ° borÃ°
S var
g Ã³Ã°a
Ġvir tust
jaf ar
Ġerlend ar
vax andi
ar it
Ġv ett
am Ã³ti
ĠsÃŃ tt
Ġalmenn ur
cel and
Ġgeym sla
nÃ¦g jandi
Ġskrey ta
Ġso ldiÃ°
smiÃ° jan
ĠhÃ¡vaÃ° a
R aÃ°a
l anna
if Ã¦ri
ĠÃ¡tt aÃ°
Ġfylg dar
aleg an
ĠÃ¦tlaÃ° ar
ĠHÃ¡lf dan
D oktor
d re
y wood
in ar
ĠsÃŃ fel
vÃŃs Ã½r
ĠrÃ¡Ã°st efna
ĠleiÃ°bein andi
ĠGÃŃsla dÃ³ttir
F jÃ¶r
[ ...]
j ungur
sk oti
ĠmiÃ° junni
Ġbir tum
ĠDÃ³m smÃ¡larÃ¡Ã°herra
ĠÃ¾urf tum
Ġb ru
sk era
Ġaf kast
ĠH ik
Ã¾ otu
Ġfram iÃ°
Ġfram sal
gja st
Ġhr yss
Starf sfÃ³lk
Hug takiÃ°
Ġreg lurnar
ĠtÃºr merik
Ġsamsvar ar
ĠG Ã¡
ĠstÃ³r iÃ°ju
Ġvega brÃ©f
Ġleyf ilegt
bÃ³ lu
ofn Ã¦mi
sl eiga
Ġmat num
V eg
n urnar
Ã¶r kun
ĠV I
Ġof arlega
Ġung lingast
ĠboÃ° stÃ³l
ĠOr k
Ġframhalds skÃ³l
ĠS agÃ°i
ĠB ad
ĠJ Ã¶r
Ġsaman lagt
Ġber ist
ĠblaÃ° amenn
ĠbiÃ° u
hef Ã°
Ġfer skum
Ġhag vexti
Ġinni haldi
ĠFlat eyjargÃ¡
ĠAlmann atryggingar
L U
n Ã¦
Ġsp arar
Ġvenju leg
Ġhitt ust
Ġv ÃŃkur
ĠS anta
ĠÃ© Äį
sv ir
ĠÃ¡hrif am
ĠhÃºÃ° inni
p urnar
Ġs ver
Ġl Ã©ttar
Ġfyrir rÃºmi
Ġau Ã°s
Ġeink alÃŃf
ĠrÃ³ a
ĠSmÃ¡ ral
ĠpÃ³litÃŃ sk
amynd ir
ĠÃ³dÃ½r t
ĠstrÃŃ Ã°i
n afn
ĠT Ã¡lk
ĠSt jÃ¶rn
ĠSk ut
Ġhel vÃŃti
ĠSÃŃ mans
ĠnÃ³tt u
Ġtilfinn ingum
frÃ¦ Ã°ir
Ġvit laust
Ġ ....
Ã³tt Ã¶ku
ĠSv andÃŃs
ĠslÃŃk rar
yrirtÃ¦k jum
ra pp
ĠG agn
her s
ĠferÃ° amÃ¡l
Ġvin kona
ĠlÃ©tt ir
ĠÃ¶f und
ci al
ĠMatvÃ¦la stofnunar
Ġkrepp u
ĠEvrÃ³p ul
Ġvill ir
ĠrÃŃkisstjÃ³rn ina
Ġja p
ĠstarfshÃ³p s
c ast
o num
ĠS Ã¶r
Ġlausn in
Ãģr ni
Ġdraum ur
ĠÃ¡s Ã¦tt
ĠTÃ¶lv unarfrÃ¦Ã°i
Ġk Ã¶tt
Ġvar nir
Ġp ari
ĠT aka
amik ill
Ã¡l it
ĠD ec
sv eg
ĠÃ¾ing mÃ¶nnum
Ġhn Ã©
ĠRÃº ta
ĠviÃ°skiptavin ur
ĠStÃ¶Ã° var
ĠprÃ½ Ã°i
Austur lÃ¶nd
L agt
j ÃºnÃŃ
am ar
Ġfor na
varp i
ro ta
lÃ¡ ta
ĠÃºti bÃº
Ġofn inn
) {
J o
in es
ĠViÃ° reisn
Ġsann leika
Ã¾jÃ¡lf unar
mÃ¦l endur
ĠnÃ¡ttÃºr lega
Ġar Ã°s
ĠKvikmynd amiÃ°stÃ¶Ã°
tÃ³n list
Ġhnapp inn
Ġv esen
ĠG narr
Ãį N
Ġfor stofu
kom na
eb rÃºar
Ã¡n ni
Ġnefnd um
ĠviÃ°urkenn ing
ĠBjÃ¶rg unar
Ġreikning inn
ĠviÃ° tak
ĠL en
Ġskrif stofur
vald sins
ĠÃ¡s ak
g Ã³
ka ssa
ĠÃ½ tir
Ġand legu
Ġvill ur
kr aftur
jÃ¶k ull
Ġ: -)
ĠÃŃmynd aÃ°
ĠTraust i
ĠB Ã¡Ã°ir
Ġskil rÃŃki
At hygli
ĠHef Ã°i
Ġgag naÃ°
F erÃ°a
Ġkepp enda
Ġfasteigna verÃ°
Ġuppskrift ina
Ġfla tar
ĠveiÃ°ig jald
eg undir
ĠS E
ĠP lan
eig na
ĠSk emmt
ĠÃŃslensk i
ĠvÃŃ x
ĠÃºtgef andi
ĠMerk el
ĠBrasil ÃŃu
m Ã¶guleika
nar a
Ġvef svÃ¦Ã°inu
ĠlÃŃf erni
ĠskrÃ¡ Ã°u
mark aÃ°i
ĠtÃŃm amÃ³tum
Ġerf iÃ°ur
Ġtrey stir
ĠhÃ¶r Ã°um
Ġkosning unum
Ã¾arf ir
A ld
Ġv ol
Ġtek nu
ĠmiÃ° ilinn
Ġc an
arfrÃ¦Ã° ingur
Ġtil hl
ĠÃģ sa
ĠmÃ¦l inga
ĠÃºt lÃ¡na
ĠprÃ³ gram
Ġskref in
El net
A kur
b s
sv atn
ĠSv al
Ġeink aleyfi
ĠÃŀor leif
sÃ¦ tum
m Ã¶gul
Ãº pu
Ġsk Ãºla
Ġd ro
ĠnÃ¡ um
Ġhl Ã¶kkum
Ġfisk eldi
fell ingu
ĠÃ¡l ver
Ġskyn sem
ĠspjaldtÃ¶l va
ĠÃ¾olinm Ã¦Ã°i
ĠHvaleyr arbraut
ĠV og
Ġnem i
he ils
F und
Ġf eta
ĠS yst
vÃŃ gi
ĠhÃ¡ a
Ġmyn stur
Skrif borÃ°
Ġn esti
Ġaf i
sh Ã³pa
Ġstyrk st
ĠhÃ³l mi
Ġforse tak
ĠB ab
her n
Ġho yra
sg eir
Ġt orf
Ġaf num
nu Ã°urinn
ĠV ic
ĠÃ© ta
ĠÃ³ p
ĠG R
Ġsamt Ã¶l
ĠÄº ÃŃ
Ġhlaup i
ĠblÃ¶nd u
alau sa
ĠArc tic
FÃ¶stu daginn
Ġv es
Ġm ett
ĠA B
ĠF rÃ¦
ĠSk er
ĠSigur bjÃ¶rn
ĠGr af
kenn sla
ĠMiÃ° flokksins
ĠVestur lÃ¶ndum
sk unni
ĠV ara
Ã¸ nn
ĠdÃ½r ari
ĠsÃŃm svÃ¶run
ney slu
Ġumfang i
ĠrÃ¡Ã°legg ingar
Ġleik skÃ³lans
ĠbÃ¦ st
Ġmarg an
Ġflutt ir
ĠsambÃ¦r ilegum
ĠauÃ°lind ir
ĠfrumsÃ½ nd
SkrifborÃ° splÃ¡ss
G runn
Ġdreg ist
Ġofn Ã¦mi
ĠAngel es
b ack
boÃ° um
ĠsÃ³l rÃŃk
ĠBÃŃ lar
Ġkapp i
Ã¶pp um
Ġstarfsem ina
o itte
sk jÃ³
Ġy Ã°r
Ġpl ant
pl Ã¶tur
ĠDV D
ĠTrÃº fÃ©lÃ¶g
ĠnorÃ°a ustur
Ġskamma st
Ġmillig Ã¶ngu
Ġv onar
Ġsum ra
ĠrÃŃk janna
Ġskemm dir
ĠdÃ¦m d
fall iÃ°
ĠFjÃ¶l skyldan
Ġkem r
Heil brigÃ°i
Ġundirri tuÃ°u
infÃ³nÃŃu hljÃ³msveit
Ġh na
ĠG ul
Ãģ ÃĲ
gr unni
ĠgrÃ¦ nu
ĠÃ¾ol ir
kk aÃ°i
ĠL ux
Ġ19 53
Ġand stygg
ĠlÃ© ku
ĠOrku veitu
mik ill
ĠStyrk tar
ĠÃ¾okk alega
D Ã¡leiÃ°slu
Ã¦k jum
ĠJ e
ĠC amp
ĠsÃ½ kl
ĠrÃŃk ti
gr afa
Ġskemm tist
ĠsÃ©rstak ra
ĠpersÃ³nu legum
ĠfjÃ¡rmÃ¡l afyrirtÃ¦kja
ĠMann frÃ¦Ã°i
ĠÃģg Ãº
j eppi
ĠT orf
sp ili
Ġvinn ist
fer linu
bÃºÃ°ir nar
Ġkaup endur
eistar inn
ĠframtÃŃÃ°ar horfur
Ġsyn ja
ĠÃģsgeir sson
ĠÃ¾ver fag
ĠdrÃ¡tt ar
__ __
Ġfram kvÃ¦mt
ĠMeÃ° an
Ġhrun sins
T al
rÃ³ tt
Ġvor in
Ġhag sbÃ³ta
Ġkepp in
Ġheila brot
k ell
jar gar
ĠÃ¡tt aÃ°i
ĠLand afrÃ¦Ã°i
Ġvak andi
PersÃ³nu legar
ĠG PS
ĠHeim ir
Ġmeg ni
ĠHels inki
ĠH rÃ³
ist u
ĠI ndi
Ġreik nuÃ°
Ġmein t
Ġth is
Ġb ux
Ġk na
ĠB esta
ĠlÃŃk urnar
ĠSÃŃ mi
ĠmÃ¶gu legum
ĠgÃ¶ngu leiÃ°ir
ĠStjÃ³rnskipunar lÃ¶g
N et
f Ã¸r
l jÃ³Ã°
al Ã¡n
ĠM ur
Ġhl Ã¡tur
DÃ¡leiÃ°slu vika
K vikmynd
j aÃ°ar
Ġs i
Ġk ana
Ġhel ga
ĠÃ¾Ã¡tt ar
ĠHaf Ã°i
ĠvÃ¶k tun
ĠHjar ta
t Ã³m
ir ka
ĠT oy
Ġ11 8
ĠKristjÃ¡n s
Ġfyrirhug aÃ°ar
ĠkÃŃnver ska
ĠFornleif afrÃ¦Ã°i
Ġf ÃŃl
sam keppni
ileg rar
Ġney Ã°
Ġset ji
ĠdÃ³m smÃ¡l
Ġ196 4
ĠtÃŃmarit inu
alÃŃ fi
Ġpip ark
ĠNau Ã°synlegt
S M
V eÃ°ur
Ġ aga
Ġv aÃ°a
Ġf Ã¶nd
ĠÃį ran
Ġein tÃ¶k
Ġlok uÃ°u
Ġbe kkur
heim ar
Ġvirk u
ĠlÃŃklega star
Sv einn
ĠVatns rÃ©ttindi
ÃŀriÃ°ju daginn
Ġskil ji
Ġendur greitt
ĠÃ¾jÃ³Ã° fÃ©lags
ĠÃ¾ak i
Ġdal num
ĠÃļti vist
Ġh atur
Ġt afl
Ã¡l i
ĠK ÃŃktu
ĠSv Ã¶r
ĠbÃ¦jar rÃ¡Ã°s
ĠÃ¶ld runar
ĠrÃº mi
Ġ196 7
ĠFasteig na
Ġsaut jÃ¡n
ĠT ott
ĠO li
ĠfÃ© sbÃ³k
Ġath ygl
di d
ĠÃºrskur Ã°a
ko ti
ĠviÃ°bur Ã°ur
ĠFÃ¦Ã°ingarorlofss jÃ³Ã°s
ĠhnitmiÃ° aÃ°a
ĠL Ã¡ttu
ĠÃ¾ekk tu
Ġraf magni
ÃŃÃ° andi
ĠÃ¾Ã¦g indi
ĠÃºtt ektar
Ġhorm Ã³n
ĠSpur ningum
ĠappelsÃŃ nu
M o
m ari
ĠÃŀ yr
ĠR Ã©ttar
Ġund arlega
ic al
M un
ĠfÃ³r st
Ġupphaf s
ĠendurgreiÃ° a
ĠBlÃ¶nd al
Ġgjafa brÃ©f
g ÃŃ
t eil
y kur
var d
ĠD ana
ĠnÃ¦r mynd
ĠtÃ¶lu Ã°u
Ġhring rÃ¡s
Ġmunn inn
renn sl
b ri
k la
Ġ ang
Ġt em
ĠH ildi
ĠgÃ¦r morgun
ĠskÃ½r ari
ĠMenntun arfrÃ¦Ã°i
SmÃ¡ a
m engun
Ġg Ã¶f
Ġst Ã¶Ã°ur
Ġsk Ã¡r
Ġmynd skeiÃ°
ĠtÃ¶lu legum
sÃ¡ riÃ°
Ġframhald sn
ĠsÃ¡rsauk afull
r ana
ast s
ĠT ann
ĠT ungu
ĠÃįsland ssaga
ĠPÃ©tur sdÃ³ttir
RÃŃkis stjÃ³rnin
Ġuppsp retta
h eiÃ°ar
w n
ĠaÃ° laga
ĠH Ã¶nnun
sp urnar
ĠHv ol
ĠFjÃ¶l nota
Ġundang eng
sk raf
ĠN ap
ol ÃŃa
Ġdr Ã¶gum
Sig rÃŃÃ°ur
an ia
Ã¶ sum
Ġb if
Ġles ning
ĠHÃ©r na
ĠsvÃ¦Ã°i snÃºmer
Ġspyr jendur
Ġframl engja
ĠbÃ¦k ling
Ġskil ti
rit unar
set u
ĠyfirborÃ° iÃ°
Ġbro yt
EC D
ĠGy Ã°a
ĠH aga
ĠL Ã¦knisfrÃ¦Ã°i
ĠfyrirtÃ¦k janna
Ġnam mi
ĠbyggÃ°a heiti
ĠHik aÃ°u
B er
k inn
ĠH ilm
ĠKrist ÃŃnu
Ġvaf ranum
Ġbre kk
Ġdeil um
Ãļt lit
Ġkurt ei
b j
ĠR jÃ³
Ġland inum
Ġra ddir
ĠGuÃ° rÃºnar
Ġvinnu tÃŃma
ĠskÃ½r ar
land inu
Ġbekk num
ĠrÃŃkisstjÃ³rn inni
ĠFerÃ° alÃ¶g
ĠÃºtskrif ast
ĠgÃºm mÃŃ
T it
jÃ¶ ti
Ġgr unna
ĠSel f
ĠklÃ¡ra st
ĠflÃŃs alag
c is
ss var
Ã¦Ã° ir
ĠmÃ¡l sgrein
Ġor Ã°s
ĠljÃ³ mandi
Sk Ã³l
ĠÃ¡v Ã¶xtum
Ġrei s
Ġyfirskrift inni
ĠBekk irnir
Ġosfr v
ĠG Ã¡tur
ĠT ru
ĠfrÃ©tt inni
Ġorlof sleiga
till Ã¶gur
ĠEgil sson
ĠBirgi sson
Ġf ik
Ġum leiÃ°
Ġsk emma
ĠA F
ĠL Ã¦r
ĠupplÃ½sing agjÃ¶f
Ġhn Ãºt
Ġatkv Ã¦Ã°um
Ġhir Ã°
ĠAss oc
ĠFinnb oga
P E
Ġb endi
ra sk
ĠS ennilega
ĠF is
Ġyfir lÃ½sing
Ġ5 000
gr af
Ġraun virÃ°i
ĠfrÃ¡s agnir
Ġheimildamynd a
ĠKjal ar
ĠAnaly tics
h alla
u el
Ġd ÃŃ
ĠF A
arg erÃ°ar
ĠiÃ° gjÃ¶ld
Ġkvikmynd um
ĠsviÃ° iÃ°
rÃ¡Ã°a svÃ¦Ã°i
ĠGauta borg
Ġ Ù
ĠviÃ° rÃ¡Ã°an
ĠfljÃ³ tur
Ġth at
Ġtext ann
N okkur
sl ÃŃ
ey fa
ĠSam tÃ¶kum
ĠliÃ° akeppni
ĠsÃ¦ tur
ĠFor sÃ¦tisrÃ¡Ã°
Ġli fi
Ġheilbrig Ã°
eistaramÃ³t iÃ°
ĠL im
ast efnu
Ġreik ni
kost naÃ°ar
ĠÃ¸ k
ĠEd in
Ġbrygg ju
F i
K annski
g lugg
ĠJ ens
ust aÃ°
Ġraf rÃ¦na
sg jÃ¶ld
ĠsamrÃ¦ Ã°u
ĠlÃŃkam legt
jun i
ĠÃ¶rfÃ¡ um
H ljÃ³msveitin
Ġv oÃ°
ĠH und
ÃŃk an
ĠrÃ©tt inn
lend ingar
skÃ½r sla
ĠSand gerÃ°i
Ġstol ti
ĠKra bbameins
Ã¡fang astaÃ°
g Ã¦f
ĠG la
Ġskatt ar
ĠlÃŃfrÃ¦ nt
ĠSjÃ³ Ã°urinn
ĠhÃ¦fil eikar
ĠvÃ¶t num
Ġkolt vÃŃsÃ½r
r aliÃ°
ĠH alla
Ġkann anir
ĠÃ¾ÃŃ nir
Ãĸ r
Ġin fo
ĠÃ¡skil in
Ġtakmark aÃ°a
ĠTak markaÃ°
ĠkÃŃlÃ³m et
Ġmannkyn ssaga
Ġsaum a
Ġstyrk jum
ĠsjÃ¡lfboÃ°aliÃ° ar
ĠB andarÃŃ
Ã°an ir
Ġkjara samningi
jam eÃ°ferÃ°
ĠÃ¾yrf tu
Ġh ungur
ey miÃ°
ĠA st
Ġp ost
Ġmynd skrey
pa ss
ĠfrÃ¦Ã° ig
Ġfasteigna viÃ°skipti
Hv enÃ¦r
ĠÃ¡byr gur
ĠMagnÃºss onar
w an
on n
Ã¡Ã° sins
Ġminn ti
Ġneyt end
ĠÃºtskÃ½r ir
ĠÃ¡vÃ¶x tunar
ĠForn frÃ¦Ã°i
ĠSÃ¡l arfrÃ¦Ã°i
ĠNjarÃ° vÃŃk
Ġg jarna
ĠniÃ°ur lÃ¦g
Ġsvar tur
ĠrÃº ms
ĠÃ¡hugasam a
ĠVÃ¶ru bÃŃll
ĠK PMG
ĠJ eppi
ĠD aÃ°i
ĠÃ¡kveÃ° inni
sett ir
ĠkjÃ¶r tÃŃmabili
ĠHlu ti
Ġam er
Ġfrumkv Ã¶Ã°u
ĠMÃ½vatn ssveit
ĠviÃ°k emur
H efur
Ġ _
er Ã°i
Ġupp sjÃ¡
Ġkyn bÃ³ta
fre st
ĠHÃ¶f um
rannsÃ³k nir
ĠÃ¡vinn ing
Ġlang fl
ĠsmÃ¡ kÃ¶kur
ennar a
ĠÃ¾yk ist
fr jÃ³
Ġspyr jenda
ĠundirbÃº nings
ĠhÃº sm
Ġpers Ã³na
ĠKrÃ³ atÃŃu
bro ddi
ĠfagnaÃ°arer indiÃ°
b ot
Ġal tar
Ġinn eign
Ã½r ingu
ĠkrÃ³ nuna
Ġvan ur
ĠdÃ½r in
afrÃ¦Ã°i deild
ĠfjÃ¡rhag sleg
ĠmÃ³tt Ã¶kur
Ġafur Ã°ir
V iss
ĠV ita
ĠK ey
ala skoÃ°un
Ãºt gjÃ¶ld
ĠafmÃ¦li sv
ĠdÃ³s ent
ĠM E
Af rÃŃku
Ġbrug Ã°iÃ°
Ġfermet rar
ĠEinf alt
ĠfyrirsjÃ¡ anleg
ark ostnaÃ°ur
Ġ19 47
Ġ11 7
ad e
ĠFÃ©lags vÃŃsindi
ĠJarÃ° vÃŃsindi
ĠFjÃ³r hjÃ³l
ĠStaÃ°rey nda
ĠE ist
ĠverÃ° skuld
if e
ĠÂ ´
ĠrÃºss ne
ĠLiÃ° iÃ°
Ġh ark
Ġg lim
ĠK Ã¡
Ġger Ã°a
Ġof ta
Ġfors jÃ¡
ĠsamfÃ©lag svakt
ĠrÃ¦ ddu
ĠerfiÃ° i
Ġneit aÃ°
ĠFelli hÃ½si
iÃ° kun
ĠÃ³ form
ak ort
skrÃ¡ nni
ĠSp ila
ĠbÃ¦jar bÃºa
ĠbrÃº k
ĠskaÃ° leg
versl anir
ĠVinn slu
ĠKo h
ĠSendi bÃŃll
3 20
H oll
h engi
Ġs litiÃ°
ĠÃ¡ vÃŃs
em en
nd ist
Ġr Ã¶ng
ĠsjÃ³Ã° s
ĠFÃ³lk sbÃŃll
ĠVÃŃsind afrÃ©ttir
Ġdeig lunni
hÃ¶nnu Ã°ur
Å Ĥ
ĠM amma
ĠK oll
ĠAÃ° sÃ³kn
ĠHÃºs bÃŃll
Ġbyggingar leyfi
ĠtungumÃ¡l iÃ°
ĠVÃŃsind afrÃ¦Ã°i
ĠÃ¡horf endum
ĠLei fur
ĠRÃŃkisÃºtvarp sins
ĠTex as
ĠFÃ¶studag ssvar
F ariÃ°
Å Ī
Ġl entu
ĠÃŀ jÃ¡lf
ĠÃį bÃºÃ°in
ileg s
jÃ¶f n
ĠCh ic
ĠÃ¾jÃ³nust unnar
ĠHjÃ³l hÃ½si
Ġgald andi
ĠaÃ°ven tu
um a
Ġk nattspyr
us iness
Ġgagn kvÃ¦m
ĠviÃ°bur Ã°ir
ĠstrÃŃÃ° iÃ°
ĠharÃ° lega
ĠTv Ã¶
ĠPall bÃŃll
Ġm alla
Ġupp tÃ¶kur
Ã¾ rÃ¡Ã°
Ġgreinar mun
ĠvÃŃÃ° tÃ¦ka
ĠpÃ³litÃŃ skum
ĠÃ¾votta hÃºs
Ġnu tu
ĠSkut bÃŃll
f e
far nar
ĠliÃ° nu
frÃ¦Ã° ingi
dÃ³m s
Ġherberg inu
ĠTak iÃ°
ĠBlÃ¶ndu Ã³si
sh op
ĠMÃ¡l efni
Ãŀess ir
ĠkÃº lu
Ġhagn aÃ°ur
hit e
Ġmannvirk ja
ĠTjald vagn
ĠVÃ©lsl eÃ°i
ĠFjÃ¶lnota bÃŃll
K Ã³reu
Ġn afna
ĠB eck
ĠÃºr bÃ³ta
ĠSt rÃ¦tÃ³
Ġ13 5
kirk jan
hÃ³ f
ĠRich ard
ĠNeytend astofu
N AR
s agnir
ann anir
und ag
Ġ12 1
Ġefni slega
Ġhorf ast
Ġvegg jum
Ð¸ Ð
Ġr jÃºp
Ġmerk is
At li
ĠEyjafjalla jÃ¶kli
ĠÃ¡ Ã¾
en su
Ġn jÃ³s
Ġkv Ã¦Ã°i
Ġspil uÃ°u
stum enn
Vef sÃŃÃ°a
ĠLE D
y e
y m
ĠP Ãº
ĠleiÃ° beina
orÃ° in
tek iÃ°
ĠÃŀÃ³r arin
Ġlif um
ĠÃ¡skil inn
Lands rÃ©ttur
ĠÃ¾rey tu
beiÃ° ni
ul ind
Ġgjald i
hÃ¦ tta
ĠEin lÃ¦gar
Ġmerk inu
ĠKaup Ã¾ings
Ġskyn ja
ĠstÃ½riv extir
ĠÃ¡rsreik ning
st illi
ver jal
Ġstarf sumhverfi
ĠvÃ¶Ã°va bÃ³lgu
Ġsp ari
her e
Ġ11 4
y ti
ĠE N
ist il
Ġsig urinn
ĠfjÃ¶l menna
Ġrey kja
Ġap tr
ĠerfiÃ° um
Ġprot ected
k aupa
ĠS afn
ĠH Ã¶nnu
ĠK vik
Ġleik ari
ĠC ra
Ġvef setri
ĠfjÃ¶l bÃ½lishÃºs
ĠalÃ¾jÃ³Ã° legar
ĠHarÃ°ar dÃ³ttir
gil tir
ĠSÃ¦l and
ĠF yll
sm Ã³ti
sb raut
ĠveiÃ° ist
ĠheilbrigÃ°i smÃ¡lum
ĠafmÃ¦li sk
ĠnÃ¦g ir
ĠUgga dÃ³ttir
Ġb lÃŃÃ°
Ãŀ arf
Ġhug arf
as yni
Ġeignar hlut
ĠÃŃbÃºÃ° ina
Ġalmannatrygg inga
E ru
r ari
reiÃ° slum
Ġvef i
Ġald amÃ³tin
Ġheil mikiÃ°
ĠUm sÃ³kn
ĠfÃ³t bol
sviÃ° iÃ°
ĠKarl sson
y tt
Ġh Ã¶rÃ°
Ġm alar
Ġj aÃ°ar
ĠP C
Ġfer sku
ĠhÃ¦ Ã°ar
Ġfag mennsku
di o
hÃ³ fi
Ġo sti
Ġeinfald ur
ĠGunnar i
ĠÃŀjÃ³Ã° verja
Ġkor ti
ĠhagrÃ¦Ã° ingu
b aÃ°
sk ast
re am
lÃ½s a
Ġkv Ã³ta
Ġ0 1
HÃ¶f undur
O kkar
Ġmik li
Ġ12 8
Ġher inn
Ġskjal a
p Ã³l
ÃŃ skri
ag reinar
ĠS uper
ĠE conom
ĠL ÃŃkt
ĠrÃºm u
ĠstÃ³ ri
ĠÃ¡Ã¦tlaÃ° ur
Ãģb endingin
S ki
Ġ19 38
ĠÃ¾jÃ³nustu fyrirtÃ¦kjum
he ill
Ġvirk aÃ°
Ġsit ji
Ġeinkar Ã©ttur
ra p
stÃ¶Ã°u gleika
ĠtÃ¶lv um
ĠÃ¡v exti
Ġhygg jast
ĠsÃ½slum aÃ°ur
ĠjÃ¶ kl
Ġhva tti
or kum
ĠM y
Ġstarf srÃ¡Ã°
ĠHallg rÃŃmur
ĠtÃ³nlistar menn
ĠuppfÃ¦r slu
ĠsÃ¡r t
hlaup i
ĠrÃ¡Ã°stÃ¶f unar
ssp eg
ĠgyÃ° inga
Ġlung na
ĠÃ¾rett Ã¡n
F Ã³r
r ÃŃs
Ġt u
sl iÃ°i
ĠK eyp
Ġ19 20
Ġverk lags
Ã¶ll ur
Ġs lita
ĠferÃ° afÃ³lk
ĠliÃ° anna
Ġher menn
enni s
Ġsal an
ĠpersÃ³nuupplÃ½s ingunum
shlu ta
ĠsÃ½ slunar
ĠstjÃ³rn laga
nÃ½ tt
ĠrÃ¡Ã°st efnunnar
ĠÃĨ var
AT H
Ġhrif in
ĠArgen tÃŃnu
Ġm yg
ĠsÃŃ gild
Ġsn Ã©
ĠnÃ¡m sins
Ġkos in
Ġstra u
laust ri
Ġheildar launa
ĠBjarna dÃ³ttir
ĠEvrÃ³pum Ã³t
ĠPla y
f rÃ©tt
v Ã¶k
yn stur
Ġstofn andi
vax ta
Ġtutt ug
R ek
f jÃ³rÃ°ung
Ġv is
ĠR A
unni st
sv it
Ġvan traust
Ġstofn fjÃ¡r
tÃŃm anum
jÃ³nvarp s
Ġleyndar mÃ¡liÃ°
Far Ã°u
ĠTÃ¡lk n
sv innu
sh ug
Ġeinstak ar
ĠheilbrigÃ°i smÃ¡la
fylk ingin
BÃº iÃ°
V E
m ein
y ssa
Ġkepp endum
Ġkepp nin
ĠFinn ur
ĠSverri sson
Ġg om
ug h
of andi
sv einn
ĠskÃ½r ir
ĠhjÃ¡lp um
Ġfyrirspur num
Ġsjald nast
ĠOf tast
ĠÃ ĺ
sk arÃ°
Ġleg Ã°i
ĠÃ¡rs byrjun
da y
Ġspor na
hreins un
v and
ĠV ala
ĠL eng
Ġdag sett
ĠBr una
ĠlÃ¶greg lunni
ĠfÃ©laga samtaka
ĠRÃºss land
ĠLÃŃ tiÃ°
Ġeil ÃŃtiÃ°
ĠnÃ¡grann al
3 50
b ara
Ġf arg
ĠmiÃ° svÃ¦Ã°iÃ°
Ġvand inn
ĠLeiÃ°bein ingar
n r
ĠV all
ĠL S
ak erra
Ġbr and
Ġflokk anna
MarkmiÃ° iÃ°
Skip iÃ°
Ġspill ingu
m eg
ĠÃ¾ rek
Ã¶kk u
St yrk
staÃ° fest
ĠfjÃ¡rmÃ¡l ager
Ġsner ist
ĠÃįslandsm eistari
Ġskell ti
ĠVilhjÃ¡lm sson
ĠSkarph Ã©Ã°in
er aÃ°
Ġgang ast
ĠsekÃº ndu
Ġg ol
am eistara
Ġsam skip
ĠÃŀ Ã©r
stjÃ³r ann
ĠÃ¾or a
Ġh ang
Ã¦ Ã°ari
leik ja
ĠrÃºm gÃ³Ã°
ĠgleÃ° ja
Ġr Ã¶r
ĠK erra
Ġhug anum
ĠO tt
Ġokkur t
Ġlyf ti
Ġhring ir
ĠtÃ³nleik unum
Ġlykil atriÃ°i
ĠframbjÃ³Ã° endur
V Ã¡
sk ildu
var ar
ĠfÃ¡ ar
ĠJÃ³n ssyni
Ġatvinnu lÃŃfi
ĠGrÃŃms ey
F jÃ¶ldi
f Ã³r
m Ã³Ã°ur
Ġd Ã¶m
ĠÃģ stu
ĠnÃº ll
ĠnÃ½tt ur
Ġeignar hald
ĠSl eÃ°i
ĠVopn afirÃ°i
d ra
Ġn ÃŃt
ĠnÃº gildandi
ĠÃ¾Ã¡tt urinn
Ġa ur
ĠW ood
Ġnet verslun
ĠstÃ¸ Ã°i
ĠgÃŃfur lega
s jÃ¡lf
Ġk Ã¶ldu
ĠF jarÃ°ar
ĠÄ ħ
Ġra dd
virk t
Ġinnheim t
Ġle ka
jar nir
ma s
Ġgrein in
ĠmÃ¡nu dÃ¶gum
ĠdÃ³m ar
ĠHalld Ã³ra
ĠvÃ¶ld in
ĠÃ¶kum enn
ĠspÃŃtal a
ateg or
Ġbat naÃ°
k jarna
ĠF M
Ġfram fara
Ġbar Ã¡tta
ĠrannsÃ³k nin
Ġkepp ninnar
Ġ27 0
Ġkort inu
skuld bind
sheim i
NiÃ°ur stÃ¶Ã°ur
ĠpÃŃan Ã³
w ick
Ġ ara
mynd ina
ĠAkran ess
s vert
æ ľ
Ġbak aÃ°
ĠHug myndin
ĠtÃ¶f ra
ĠFerÃ° ir
ĠFjalla byggÃ°ar
Ġn enni
sf yrir
vÃ¶ru verslun
Ġreynd ust
IR K
lin es
Ãī TT
ĠTek jur
Ġsnjall sÃŃma
ĠskjÃ³ li
ĠSport bÃŃll
Ġdra p
ĠKring lunni
s endingar
ef i
eÃ° ja
Ġal eigu
Ġsumar hÃºsi
ĠFl Ã³
Ġbjar gar
Ġeignar halds
ĠstrÃ¡ ka
Ġforvit n
Ġhvor um
ĠsjÃ³Ã° um
amÃ¡la stofnun
ĠviÃ°tal iÃ°
ĠStjÃ³rnar tÃŃÃ°
ĠSaur blaÃ°
f riÃ°
Ġg Ã¶tunni
mar t
ĠiÃ° naÃ°i
ĠHÃ©r aÃ°
Ġnor rÃ¦n
ĠÃ¡gÃ¦ tu
ĠÃ¾rÃ½st ingi
Ġsvif ryk
ĠkÃ³m u
p ark
t ingin
Ġk Ã¶lluÃ°u
ĠV inna
aflokk sins
ĠFerÃ°a tÃ¦ki
Ġjaf nir
f yrirtÃ¦kiÃ°
ĠM Ã¦li
ung inn
Ġkl etta
ĠSmÃ¡ grafa
Ġgul li
ĠSport jeppi
ĠspÃŃtal anum
ĠHof i
ĠPall hÃ½si
Ġhneyk sl
ĠÃ³end anlega
ĠTengi vagn
ĠSleÃ° akerra
F F
Ġst art
ĠG rÃŃmur
ĠC as
ĠhÃº fi
Ġt efla
Ġg yll
ĠfrÃ¡ gang
ĠT ri
Ġgef ist
ĠÃ¾jÃ³nust an
ĠblÃ¡ siÃ°
ĠFjarÃ°a byggÃ°ar
sk andi
ĠÃ³ Ã¦sk
ind is
ĠD en
Ġhlut unum
Ã¾ing inu
ĠjÃ¶rÃ° in
hreyf ingarinnar
Ġmust eri
Ãº lu
ĠviÃ° hor
Ġfram arlega
ber a
Ġfimmtu dÃ¶gum
ĠvefsÃŃ Ã°um
vill e
ĠÃ¶fl un
ĠÃŃ g
ĠH ita
ĠN efndar
sp ort
ĠbÃ¦ tiÃ°
ĠÃĵ Ã°
Ġgagn legar
ĠBir nu
ĠHoll ywood
ĠSil fur
Ġf li
ĠH eld
Ã³l fi
sp unkt
ĠTil boÃ°iÃ°
ĠfriÃ° helgi
ĠÃ¶x l
wid th
ĠSmÃ¡ral ind
e o
Ġs Ã¡Ã°
Ġsam vinna
sp reng
Ġendur skipulag
ĠÄº Äº
ĠkrÃ¶fu hafa
ĠprÃ³sen tur
ĠKjartan sson
ÃŃ skar
steyp u
ĠLeifs stÃ¶Ã°
Stef Ã¡n
er f
ĠÃ¾ unn
Ġt eppi
Ġinn lÃ¡n
Ġ19 58
ĠsjÃ¡lf ra
Ġatvinnu lÃŃfiÃ°
ĠgjÃ¶f um
Ġskemmti ferÃ°a
eig anda
ĠtÃŃÃ° ind
ĠalÃ¾jÃ³Ã° legra
Ġtap i
ĠFisk ur
Ġhvat ning
ĠJu li
ĠKlapptrÃ© s
Ġb Ã³n
ĠM D
ĠT w
ku p
bÃ¦ ndur
Ġbak stur
ĠAkureyrar bÃ¦jar
ĠfjÃ¶lbrey ttu
slÃ¶greglu stjÃ³ra
T rÃº
an in
ĠÃ¾ enna
Ġfr Ã¦Ã°um
Ġhaf inu
ip edia
Ġfer ju
Ġand lÃ¡t
Ġflokk ast
Ġ13 4
Ġhugmynd afrÃ¦Ã°
ĠkrÃ¶f tug
ĠFr jÃ¡ls
ĠskÃ¡ld sÃ¶gu
ĠSkaft Ã¡r
Ġeftirfyl gni
Ġsv iss
ĠÃ³ vÃŃst
sam fÃ©lagiÃ°
ĠhÃ¦ l
ÃŃf ellt
ant s
Ġsnjall sÃŃmi
ĠhÃºman ista
Ġtext anum
Ã¶ nu
ĠÃ¾Ã¡tt arÃ¶Ã°inni
Ġskulu Ã°
Ġatvinnul eysist
Ġlax i
ĠhvÃ¸r jum
ĠJohn son
Ġ1 19
Ġein ingum
ĠlÃŃ ti
Ġleigu samning
ĠalÃ¾ing i
ĠstjÃ³r num
styrk i
ĠOl sen
ĠandrÃºmslof tiÃ°
ĠBlaÃ°amann afÃ©lags
ĠN ep
Ġau st
ĠrÃ¡Ã° amenn
tl ar
Ġraf eind
ĠvÃ¶ru skipta
ĠÃ¦tt ar
Ġatvinnurek anda
Ġju kust
ĠSvip mynd
A D
il ldar
Ġ20 8
ĠSt einn
Ġ19 56
ĠsjÃ¡lf bÃ¦ra
ĠViÃ° reisnar
Ġsamband inu
ĠbÃ³ nd
Ġsameigin legri
ĠljÃº ga
Ġholl en
Ġafur Ã°a
ĠÃŃtal ska
Ġtro Ã°a
Ġs Ã¶nn
ĠK ostnaÃ°ur
Ġfor nu
Ġbein ir
Ġgreiningar deild
hv Ã¶rf
ĠskrÃ½ tiÃ°
u c
Ġvar st
Ġkv inn
ĠÃ¾jÃ³Ã° fÃ©lagi
Ġtr Ã¶ll
ĠfrÃ¦ ndur
Ġur Ã°um
ĠStaÃ°rey ndir
Ġm eistari
na tta
sÃŃ Ã¾rÃ³tta
ĠRey nir
Ġrit aÃ°i
Ġ26 0
SjÃ¡lf gefin
Ġpening unum
SeÃ°lab anki
Ġf ilt
Ġmynd aÃ°ist
tak s
ĠviÃ°skip tin
ĠPÃ³st listi
Ġver Ã°u
Ã¦g urs
ĠlÃ¶g Ã°um
Ġbr ans
Ġbl ek
Ġeigin konu
Ġnyt ja
ĠfjÃ¶lbreytil eika
af ells
ĠÃºt sÃ½
Ġteng da
lÃŃf s
Ġheld r
Ġhepp nir
ĠStefÃ¡n sdÃ³ttir
Ġseld ar
Ġlins u
Ġf eit
ĠR auÃ°i
eld um
ĠÃ¦ ft
Ġhel jar
verÃ° mÃ¦ti
Ġla kk
ĠStÃ¦r sti
F yrirtÃ¦kiÃ°
Ġs indur
Ġn aum
Ġtil veru
Ġsend ing
Ġsak bor
Ġaf skrif
nar nir
ĠK ort
ĠmiÃ° lum
Ġvand rÃ¦Ã°i
eyÃ° andi
ĠGal lup
z i
Ġh allar
Ġg ongd
ĠB iskup
ĠV Ã¦ri
ĠorÃ° afor
ĠÃ¡Ã°ur nefnd
Ġhr ingi
ĠÃ¾ekk tir
ĠReykjavÃŃkur flugvelli
ĠjarÃ° vegi
ĠhÃ¸v uÃ°
ĠÃģsm undur
Ġskr okk
h Ã¦g
Ã¶ stur
is on
ĠC E
mar nir
ĠIngi bjÃ¶rgu
bÃ¡ tar
ĠskÃ³g inum
ĠkaÃ¾Ã³l sku
ĠgÃ¦slu varÃ°
B laÃ°
b ankans
Ġ( -
Ġ19 48
ĠverÃ° brÃ©fa
Ġlau f
ĠAÃ°al fundur
Ġhaus num
ag en
Ġhaf sins
lag inu
ast Ã¶Ã°
ĠhÃºs gÃ¶gn
ĠkÃŃl Ã³a
ĠÃ¾eg iÃ°
Ġaf n
ĠH D
lag na
Ã¡tt ir
sh Ã¦
Ġfar sÃŃ
ĠlÃŃkam sÃ¡
ĠfrÃ¦Ã° andi
At h
laug ar
V Ãį
Ġum bÃ¦tur
sk el
lend inga
ĠHÃ¡ skÃ³li
sg reinar
ĠKrist ÃŃnar
Ġmet inn
ĠÃ¡v axta
Ġspenn tur
ĠÃŃs inn
ĠÃ¾Ã¦g ileg
ĠhjÃºkrunarfrÃ¦Ã° ingur
ĠsÃ½slunar menn
Ġsk inn
ĠT vÃŃ
Ġskip in
Ġauk inna
sÃ½ nd
ĠerfiÃ° u
grein ingu
Ġhund urinn
ĠDag s
AR T
ĠÃ³full nÃ¦gjandi
Ġinnbyr Ã°is
t inga
ä ¸
Ġg ilt
Ġd er
jÃ¡ ndu
ĠÃ¾yk i
ĠlÃ¶greg la
slag s
ĠfjÃ¡rlag anefndar
ĠÃŃslenz ku
ĠmenntamÃ¡l arÃ¡Ã°herra
ĠurÃ° unar
ra el
of a
Ãŀ ekk
Ġfor miÃ°
Ġleik fÃ¶ng
ĠnÃ¡m smenn
AÃ° eins
Ġnefnd a
h egÃ°un
Ġsam staÃ°a
ĠV ist
ĠSe inni
ĠVestmannaeyja bÃ¦jar
ĠNiÃ°ur skurÃ°ur
afram kvÃ¦md
andar d
ĠmÃ³ del
ĠVal geir
ĠhÃ¦ttu legt
ĠBrey tingar
ĠJen sson
ĠfÃ¦Ã°ubÃ³tar efni
h h
on na
ĠfÃ¦ rey
ĠPÃ¡l mi
ĠBen jam
ĠStarf semi
ĠklÃºbb sins
ĠSeg ja
tÃŃ l
Ġleik skÃ³l
Ġsn eiÃ°ar
v ed
Ġf am
viÃ° skiptum
Ġhugs uÃ°
Ġspar naÃ°
skuld ir
hÃ¡l s
ĠfiskveiÃ° ar
ĠÃ¡lyk tanir
bandalag sins
ĠembÃ¦ttis manna
ĠheiÃ°ar leg
ĠlÃŃ nunni
Ġgr unar
ĠmeÃ°al einkunn
ĠkÃº ka
ĠKyn n
Ġfry sta
Fasteigna viÃ°skipti
Ġm Ã¸
ĠsÃ©rstak rar
ĠsÃ¶g Ã°ust
Ġkrist in
ĠKom iÃ°
ĠDel oitte
ĠSveitar stjÃ³rn
f Ã¶ngum
Ġe ik
ug ir
Ġhag vÃ¶xt
vÃ¦ ng
ĠvefsÃŃÃ° unnar
Ġkvikmynda iÃ°naÃ°arins
Ãįslen sk
ĠHjal ti
Undan fariÃ°
S uÃ°ur
d in
d ekk
ĠH ollustu
ĠF jar
ĠG rÃŃ
ĠSt eind
Ġ4 000
ĠhÃ¡ an
ĠÃ¾Ã¡tt inn
Ġ0 3
ĠfjÃ³r tÃ¡n
sÃ¡tt mÃ¡l
L F
m eiri
n sku
Ġfyrir heit
ĠE inu
ĠÃºt hluta
Ã¸ tu
Ġumhverfis vernd
ĠtÃ¦p ar
lÃ¦kni s
b rÃ¦Ã°
Ġk ind
haf inn
ĠtillÃ¶g unni
Ġforsetak os
Ġvar ma
ĠD am
ok tÃ³ber
Ġverk lag
ĠÃ¡f Ã¶ll
ĠnÃ¡ttÃºr an
Ġvar ÃºÃ°ar
ĠR om
Ġdag ataliÃ°
ung in
rÃŃk iÃ°
Ġtak mÃ¶rkun
IN I
ĠMiÃ° jarÃ°ar
ĠalÃ¾ing iskos
Ġdreng ja
setur s
Verk efniÃ°
Ġverald legum
ĠÃ³skÃ¶p unum
ĠPatrek sfirÃ°i
: )
Ġh undur
ĠLands net
ĠhrÃ¦ ddur
ĠSand ra
Kom du
ĠÃŀingeyjar sÃ½slu
ĠJac ob
ĠDist ri
V ax
k las
ĠM Ãº
Ġep li
ĠkynferÃ°isbrot s
ĠFra kka
Ġteng ingar
Ġheilsug Ã¦
hljÃ³Ã° andi
ĠmÃ¡l staÃ°
ĠD Ã³ra
ĠC enter
ĠhÃ¦kk uÃ°u
sÃŃÃ° una
iz ed
ĠEig i
Ġfars Ã¦l
jarlÃ¦g Ã°
Ġk Ãºn
Ġaf mark
Ġsam tÃŃma
ĠB anka
Ġhr Ã¶kk
ĠsjÃ³nvarp iÃ°
ĠÃ¾or ir
ĠsjÃ¡lfst Ã¦Ã°ur
ĠframboÃ° s
ĠspÃ¡Ã° um
ĠÃ¡ramÃ³t um
ĠMer cedes
F rÃ©tta
Ġg alli
ek ju
Ġtal smaÃ°ur
ĠAÃ° stoÃ°
ĠsjÃ³ kvÃŃ
ov u
ĠMenn ing
ĠÃ¦Ã° ri
ĠÃļtl end
L oft
j ing
Ġsv af
ĠSt ev
Ġmerk ingum
Ġpa pp
ĠVal gerÃ°ur
Ġgreidd u
Ġalmenning ssam
> &
Ġsk repp
ĠH Ã¶g
ĠB ang
Ġhann aÃ°ar
ĠlÃŃ na
ĠverÃ° r
skrÃ¡ m
ĠstÃ¦r Ã°ir
Ġla bb
ĠmikilvÃ¦g ustu
Ġflutt ar
Ġlauna hÃ¦kkanir
ĠKarl s
hrepp ur
ĠgÃ³lf inu
ĠrithÃ¶f und
ĠdÃ½p ra
ĠPersÃ³nu verndar
Ġfr o
ĠP ower
Ġborg ir
Ġvirk aÃ°i
ĠtrÃº lega
Ã¦l ing
sveit in
ĠhÃ¦ttu leg
ĠFramsÃ³knar flokkurinn
Ġf egin
ĠviÃ° brÃ¶gÃ°in
ÃŃs ar
heim ilum
ĠÃ³s jÃ¡lf
Ġyng ra
ĠrÃº miÃ°
ĠbrÃº ka
ĠÃ¾ro ta
prÃ³f s
Ġskam mar
Ãŀ r
ĠStarf s
ĠGl eÃ°
ĠSo uth
n Ã³tt
Ġn a
leg e
hver f
Ġ19 46
iss viÃ°
Ġmarg skonar
Ġstof a
Ġflug velli
Ġborgar bÃºa
ĠpÃ³st hÃºs
ĠmÃ³Ã°ur mÃ¡l
ĠTrygg ingastofnunar
Ġhell t
ĠSkÃºla son
. ''
ma st
ĠfÃ³r na
ĠvÃŃs i
vÃ¶r slu
Ġfag legum
ĠVik u
ĠÃ¾ekkingar leit
ĠKvikmynda hÃ¡tÃŃÃ°
Ġp ara
ĠboÃ° aÃ°i
ĠmÃ¡nuÃ° inn
Ġfyrirhug uÃ°
H al
Ġf ok
fi eld
ĠSt Ã¶Ã°u
Ãºm eri
ĠÃ¾ekk tar
ssv Ã¦Ã°inu
ĠÃģhorf stÃ¶lur
Ġmild aÃ°i
Ġands p
l eng
er fisins
ĠV ars
ug ga
Ġvit ja
Ġtrygg ingu
vi ew
ĠÃ¡fangast aÃ°ir
r anna
ĠbÃº staÃ°
AN N
Ġskug g
Ø§ Ù
Ġmark ar
Ġgl Ã¶Ã°
Ġbak sÃ½ni
Ġafh entar
ĠpÃ³litÃŃ skt
ĠÃ¡kvarÃ° ana
h vel
Ġv ig
ĠÃ¾ inna
Ġm ed
Ġaf gang
ĠG ang
mÃ¶r g
ĠgrÃŃ sku
Ġuppg jÃ¶ri
ĠflÃ³knar i
ĠM ak
it u
flokk um
laus an
ard e
Ġundar legt
ĠAma zon
b Ã¶rnum
Ġb jÃ³st
unn inn
miÃ° lun
ĠlÃŃf skjÃ¶r
Ġmilli bank
ap rÃŃl
ĠHel lish
ĠpÃ³l sku
ĠHÃ©Ã° ins
z h
Ġ il
gerÃ° ina
slag iÃ°
ĠellilÃŃf eyris
Ġv Ã¡r
ig u
ĠE ddan
li ki
sm org
ĠT hel
arg ir
ĠskÃ½r ingu
kku laÃ°i
ĠVil borg
ĠlÃ©tt ari
ĠstaÃ°reynd um
men u
ĠFrÃ©tt aflutningur
B jÃ¶rg
m el
Ġm Ã¦ttir
Ġl jÃ³n
Ġsk erÃ°a
Ġd eyr
Ġend ann
br oti
Sk oÃ°
Ġumhverfis ins
ĠReykjavÃŃkur flug
ĠdÃ½r Ã°
ĠdÃ½ra st
Ġrekstr inum
ĠRÃ³ sa
d y
un ta
flokk ar
ĠviÃ°bur Ã°
Ġuppli fir
ĠbeÃ° inn
Ġ69 4
ĠbÃ¶n kunum
K jar
ĠI nt
ĠfÃ¦r um
Ġstund ina
Ġfjar skipti
ĠvÃŃg slu
ĠmÃ³tmÃ¦la aÃ°gerÃ°ir
h lÃŃÃ°ar
at hÃ¶fn
Ġlag aÃ°
Ġgist ir
skr Ã¶fur
Ġneit aÃ°i
ĠC le
efn al
Ġhand leiÃ°slu
agreiÃ° slur
ĠVerÃ° launa
Ġyndi slegt
Ġframleidd ar
ĠCost co
x it
Ãº pa
la y
Ġyfir umsjÃ³n
Ġhlu pu
ĠorÃ° unum
ĠEin ungis
ĠÃģr suppgjÃ¶r
ĠKjar tans
Ġhyg la
Ġs iÃ°ur
Ġm Ã¶g
al iÃ°i
ĠS ort
ey ju
ĠK emur
Ġinn slÃ¡ttar
Ġleik stjÃ³rn
ĠtÃ¦k inu
ic an
ĠsuÃ°ur s
ĠfullorÃ° nir
Mat vÃ¦la
K emur
m Ã¡tt
rÃ¡Ã° amenn
Ġ12 2
ĠtÃ³nlistar maÃ°ur
ĠHÃ¶f und
Ġja pan
Ġheilbrig Ã°a
ĠfyrirsÃ¶gn inni
ĠuppÃ¾votta vÃ©l
? !
ÃŃ st
Ġtil vÃŃs
ĠF rÃ³
Ġfeng inni
Ġsm yr
Ġfarar broddi
Fimm tudaginn
Ġkak Ã³
F yrirtÃ¦kja
Ġv illi
Ġst jÃ¶rnum
Ġfyr it
Ġal ÃºÃ°
ĠP DF
ĠC op
her rar
ĠSam starf
Ġlands stÃ½ri
12 3
Ġbreytt um
ĠStef an
l Ã³n
en st
shlut fall
Minn ingar
TÃ¶lu verÃ°
H var
Ġst jarna
ĠP Ã©
m us
Ġr efur
Ġlaus afjÃ¡r
ĠframtÃŃÃ°ar tekjur
ĠjÃ¡kv Ã¦Ã°ar
afur Ã°um
ĠmjÃºk t
Ġrau Ã°i
[...]
