{"<s>":0,"<pad>":1,"</s>":2,"<unk>":3,"<mask>":4,"!":5,"\"":6,"#":7,"$":8,"%":9,"&":10,"'":11,"(":12,")":13,"*":14,"+":15,",":16,"-":17,".":18,"/":19,"0":20,"1":21,"2":22,"3":23,"4":24,"5":25,"6":26,"7":27,"8":28,"9":29,":":30,";":31,"<":32,"=":33,">":34,"?":35,"@":36,"A":37,"B":38,"C":39,"D":40,"E":41,"F":42,"G":43,"H":44,"I":45,"J":46,"K":47,"L":48,"M":49,"N":50,"O":51,"P":52,"Q":53,"R":54,"S":55,"T":56,"U":57,"V":58,"W":59,"X":60,"Y":61,"Z":62,"[":63,"\\":64,"]":65,"^":66,"_":67,"`":68,"a":69,"b":70,"c":71,"d":72,"e":73,"f":74,"g":75,"h":76,"i":77,"j":78,"k":79,"l":80,"m":81,"n":82,"o":83,"p":84,"q":85,"r":86,"s":87,"t":88,"u":89,"v":90,"w":91,"x":92,"y":93,"z":94,"{":95,"|":96,"}":97,"~":98,"¡":99,"¢":100,"£":101,"¤":102,"¥":103,"¦":104,"§":105,"¨":106,"©":107,"ª":108,"«":109,"¬":110,"®":111,"¯":112,"°":113,"±":114,"²":115,"³":116,"´":117,"µ":118,"¶":119,"·":120,"¸":121,"¹":122,"º":123,"»":124,"¼":125,"½":126,"¾":127,"¿":128,"À":129,"Á":130,"Â":131,"Ã":132,"Ä":133,"Å":134,"Æ":135,"Ç":136,"È":137,"É":138,"Ê":139,"Ë":140,"Ì":141,"Í":142,"Î":143,"Ï":144,"Ð":145,"Ñ":146,"Ò":147,"Ó":148,"Ô":149,"Õ":150,"Ö":151,"×":152,"Ø":153,"Ù":154,"Ú":155,"Û":156,"Ü":157,"Ý":158,"Þ":159,"ß":160,"à":161,"á":162,"â":163,"ã":164,"ä":165,"å":166,"æ":167,"ç":168,"è":169,"é":170,"ê":171,"ë":172,"ì":173,"í":174,"î":175,"ï":176,"ð":177,"ñ":178,"ò":179,"ó":180,"ô":181,"õ":182,"ö":183,"÷":184,"ø":185,"ù":186,"ú":187,"û":188,"ü":189,"ý":190,"þ":191,"ÿ":192,"Ā":193,"ā":194,"Ă":195,"ă":196,"Ą":197,"ą":198,"Ć":199,"ć":200,"Ĉ":201,"ĉ":202,"Ċ":203,"ċ":204,"Č":205,"č":206,"Ď":207,"ď":208,"Đ":209,"đ":210,"Ē":211,"ē":212,"Ĕ":213,"ĕ":214,"Ė":215,"ė":216,"Ę":217,"ę":218,"Ě":219,"ě":220,"Ĝ":221,"ĝ":222,"Ğ":223,"ğ":224,"Ġ":225,"ġ":226,"Ģ":227,"ģ":228,"Ĥ":229,"ĥ":230,"Ħ":231,"ħ":232,"Ĩ":233,"ĩ":234,"Ī":235,"ī":236,"Ĭ":237,"ĭ":238,"Į":239,"į":240,"İ":241,"ı":242,"Ĳ":243,"ĳ":244,"Ĵ":245,"ĵ":246,"Ķ":247,"ķ":248,"ĸ":249,"Ĺ":250,"ĺ":251,"Ļ":252,"ļ":253,"Ľ":254,"ľ":255,"Ŀ":256,"ŀ":257,"Ł":258,"ł":259,"Ń":260,"Ã°":261,"ĠÃ":262,"Ġs":263,"ar":264,"in":265,"aÃ°":266,"er":267,"um":268,"Ġh":269,"Ġv":270,"an":271,"Ġf":272,"iÃ°":273,"ĠÃ¾":274,"Ã¡":275,"ur":276,"ir":277,"Ġo":278,"Ã³":279,"st":280,"ĠÃ¡":281,"ÃŃ":282,"Ã¦":283,"Ġm":284,"ĠaÃ°":285,"Ġe":286,"Ġog":287,"ĠÃŃ":288,"Ã¶":289,"il":290,"Ġt":291,"un":292,"Ġl":293,"Ġer":294,"tt":295,"al":296,"eg":297,"Ġb":298,"inn":299,"af":300,"ing":301,"Ãº":302,"em":303,"en":304,"Ġg":305,"am":306,"Ã©":307,"Ġk":308,"Ġn":309,"kk":310,"ag":311,"ei":312,"yr":313,"Ġsem":314,"Ġst":315,"and":316,"Ġum":317,"Ġtil":318,"ann":319,"sk":320,"jÃ³":321,"or":322,"ef":323,"eÃ°":324,"Ġsk":325,"ĠviÃ°":326,"ss":327,"Ã½":328,"re":329,"Ã°a":330,"ri":331,"ra":332,"sl":333,"Ġver":334,"Ġfyr":335,"el":336,"ĠÃ¾e":337,"na":338,"Ġfr":339,"nd":340,"ĠS":341,"ig":342,"Ã°i":343,"ta":344,"ĠmeÃ°":345,"la":346,"ja":347,"Ġr":348,"vÃŃ":349,"Ġaf":350,"Ġfyrir":351,"Ã¡l":352,"ni":353,"pp":354,"ver":355,"ĠH":356,"ti":357,"Ġd":358,"ins":359,"lu":360,"nar":361,"Ġen":362,"leg":363,"Ã¶g":364,"au":365,"kki":366,"Ã©r":367,"Ġvar":368,"Ġ1":369,"und":370,"Ġsam":371,"Ġal":372,"ĠÃŀ":373,"ĠB":374,"ĠE":375,"li":376,"Ã¶r":377,"ĠÃº":378,"at":379,"Ġekki":380,"num":381,"âĢ":382,"Ã°ur":383,"ingar":384,"et":385,"Ġu":386,"Ġef":387,"ka":388,"andi":389,"ĠÃ¾vÃŃ":390,"is":391,"Ġ2":392,"ĠÃ¾ess":393,"Ġsv":394,"..":395,"om":396,"Ã¦r":397,"ĠÃ¾aÃ°":398,"end":399,"arf":400,"ĠsÃŃ":401,"Ġupp":402,"eim":403,"nu":404,"ey":405,"jÃ¡":406,"inu":407,"Ġhaf":408,"Ġhef":409,"Ã°u":410,"ll":411,"Ġeru":412,"ĠM":413,"ld":414,"ĠA":415,"tir":416,"enn":417,"sta":418,"ĠV":419,"ug":420,"on":421,"ik":422,"lag":423,"Ã¾":424,"rey":425,"ĠF":426,"ald":427,"ĠÃį":428,"rÃ¦":429,"ĠfrÃ¡":430,"Ã³l":431,"ĠÃ©":432,"Ã°ar":433,"ÃŃk":434,"ĠÃ¶":435,"eiÃ°":436,"Ġfram":437,"ning":438,"tta":439,"ĠÃ³":440,"ang":441,"rÃ¡":442,"Ġp":443,"ĠG":444,"ĠeÃ°a":445,"Ġein":446,"kv":447,"lega":448,"ynd":449,"gg":450,"Ġ(":451,"Ġhefur":452,"jar":453,"ist":454,"of":455,"eng":456,"stu":457,"Ã¦k":458,"ĠL":459,"inni":460,"ĠÃ¡r":461,"ĠÅ":462,"ip":463,"it":464,"ĠÃ¾Ã¡":465,"00":466,"erÃ°":467,"ĠK":468,"Ġkom":469,"var":470,"sins":471,"eik":472,"Ã©tt":473,"rÃ³":474,"egar":475,"jÃ¶":476,"Ġeftir":477,"ĠsÃ©r":478,"ĠÃ©g":479,"est":480,"Ġall":481,"ĠÃºt":482,"Ã³k":483,"ot":484,"ĠÃ¾eir":485,"Ġhann":486,"ara":487,"jÃ³r":488,"Ãºn":489,"ygg":490,"ĠR":491,"Ã¦Ã°":492,"uÃ°":493,"ild":494,"ĠâĢ":495,"ma":496,"sm":497,"ĠÃ¾ar":498,"Ã©lag":499,"laÃ°":500,"eir":501,"ast":502,"nir":503,"Ã¦g":504,"--":505,"fir":506,"Ãºs":507,"Ġhafa":508,"jÃ¡l":509,"anna":510,"Ġger":511,"ĠlÃŃ":512,"Ġy":513,"Ġat":514,"Ġhv":515,"slu":516,"aÃ°ur":517,"ĠT":518,"Ġsvo":519,"Ġokk":520,"ek":521,"Ġheim":522,"ĠveriÃ°":523,"Ġinn":524,"ĠN":525,"ingu":526,"...":527,"Ã¶f":528,"yn":529,"Ã³r":530,"Ãŀ":531,"Ġau":532,"aÃ°i":533,"ina":534,"ind":535,"ÂŃ":536,"Ã¶n":537,"ĠÃįsl":538,"lÃ½":539,"ĠstaÃ°":540,"ĠnÃ½":541,"rum":542,"tur":543,"sÃŃ":544,"ĠsÃ©":545,"ĠÃºr":546,"unar":547,"Ġfl":548,"ak":549,"Ã¦m":550,"ĠlÃ¶g":551,"sam":552,"Ã¡Ã°":553,"es":554,"Ġhver":555,"Ġeig":556,"eit":557,"itt":558,"Ġdag":559,"Ġsp":560,"okk":561,"Ã¦Ã°i":562,"ĠJ":563,"eld":564,"ber":565,"Ġbrey":566,"ĠtÃŃ":567,"ands":568,"ju":569,"ĠmÃ¡":570,"org":571,"Ġvera":572,"Ġmik":573,"ans":574,"Ġ20":575,"unum":576,"Ġlag":577,"jÃ³Ã°":578,"Ã¶k":579,"Ġstarf":580,"ĠÃģ":581,"ĠÄ":582,"ĠnÃ¡":583,"oÃ°":584,"Ġj":585,"Ã¦tt":586,"Ġyfir":587,"Ġund":588,"Ãį":589,"Ã¦ti":590,"Ġfor":591,"afn":592,"Ã³t":593,"ileg":594,"una":595,"Ã³tt":596,"ark":597,"ill":598,"lÃ½s":599,"ĠmÃ¡l":600,"Ġveg":601,"etur":602,"Ġ-":603,"rif":604,"ung":605,"Ġ3":606,"ĠÃ¾Ãº":607,"jÃ¡lf":608,"Ã³lk":609,"tu":610,"jum":611,"ĠÃ¾egar":612,"ĠD":613,"Ġhlu":614,"Ã°um":615,"ĠÃ¦":616,"fi":617,"Ġhe":618,"Ġbreyt":619,"Ġseg":620,"unni":621,"Ġgr":622,"ĠnÃº":623,"ĠverÃ°ur":624,"rein":625,"ram":626,"ĠP":627,"jÃ¶r":628,"ol":629,"reiÃ°":630,"ingum":631,"Ġmynd":632,"âĢľ":633,"ĠSt":634,"Ġor":635,"Ġ201":636,"Ġvel":637,"inna":638,"Ġann":639,"ok":640,"jÃ³rn":641,"endur":642,"tar":643,"bÃº":644,"tÃŃ":645,"rÃº":646,"ĠÃ¾eim":647,"Ġend":648,"jÃ¡r":649,"ska":650,"Ġsig":651,"hver":652,"ein":653,"ĠÃ¾etta":654,"skip":655,"Ġvor":656,"ĠhjÃ¡":657,"varp":658,"Ġallt":659,"tÃ¦k":660,"all":661,"av":662,"ĠÃ¡h":663,"ÃŃs":664,"gu":665,"ĠI":666,"ari":667,"īg":668,"Ġnot":669,"naÃ°":670,"ĠÃŀaÃ°":671,"Ã½r":672,"Ġsl":673,"Ġof":674,"inga":675,"sv":676,"dd":677,"Ã¡tt":678,"ĠhÃ©r":679,"Ġokkar":680,"Ġskip":681,"Ġeins":682,"ana":683,"ĠleiÃ°":684,"yl":685,"ĠÃ¾eirra":686,"inum":687,"erk":688,"jÃº":689,"ull":690,"sh":691,"mi":692,"Ã³Ã°":693,"Ġ4":694,"Ġskil":695,"Ġeinn":696,"irk":697,"Ġ19":698,"sÃŃÃ°a":699,"lÃŃ":700,"kvÃ¦m":701,"ĠsÃ¦ti":702,"Ġkr":703,"jÃ¶l":704,"Ġundir":705,"sson":706,"rygg":707,"menn":708,"Ġland":709,"Ġtek":710,"dag":711,"ru":712,"ĠfÃ¡":713,"Ġhald":714,"ĠlÃ¶gum":715,"Ã¶l":716,"----":717,"Ġhug":718,"stof":719,"unn":720,"ĠÃ½":721,"ett":722,"ĠBlaÃ°":723,"Ġlaga":724,"ĠâĢŀ":725,"arg":726,"Ã³n":727,"iÃ°ur":728,"Ġbr":729,"Ã¶Ã°":730,"ĠBlaÃ°sÃŃÃ°a":731,"nun":732,"Ġfer":733,"rÃŃ":734,"jÃ³nu":735,"aka":736,"Ġkv":737,"Ġ5":738,"Ã¦ri":739,"as":740,"Ġko":741,"rar":742,"ort":743,"Ġleik":744,"lug":745,"innar":746,"Ġmun":747,"Ġvegna":748,"Ġvoru":749,"ĠhÃºn":750,"eig":751,"ĠO":752,"urinn":753,"sÃ³k":754,"efni":755,"Ġverk":756,"eira":757,"br":758,"ĠrÃ©tt":759,"Ġsum":760,"ul":761,"Ã¶nd":762,"Ã¦gt":763,"Ġhafi":764,"Ġge":765,"ĠfÃ©lag":766,"rek":767,"frÃ¦":768,"ĠU":769,"fram":770,"sp":771,"ĠÃ¡kv":772,"Ã°an":773,"anda":774,"ott":775,"fa":776,"kom":777,"tum":778,"ĠrÃ¡Ã°":779,"ĠÃįslands":780,"Ã³m":781,"ĠsjÃ¡lf":782,"slen":783,"ĠC":784,"Ġvef":785,"kur":786,"Ġokkur":787,"Ã©l":788,"mÃ¡":789,"agn":790,"ĠupplÃ½s":791,"Ġgetur":792,"ust":793,"ĠfÃ³lk":794,"fl":795,"gja":796,"efnd":797,"sku":798,"ĠViÃ°":799,"rÃ¡Ã°":800,"Ã¸":801,"ĠtÃŃma":802,"pa":803,"enda":804,"samt":805,"im":806,"ĠsÃ½":807,"riÃ°":808,"ĠfjÃ¡r":809,"ĠâĢĵ":810,"stak":811,"ĠhÃ¦":812,"ess":813,"Ġtv":814,"ars":815,"tiÃ°":816,"ferÃ°":817,"ĠÃŃslen":818,"Ã³la":819,"Ã¶ld":820,"ĠrÃŃk":821,"Ġhen":822,"ĠlÃ¡":823,"ÃŃn":824,"miÃ°":825,"Ġgera":826,"ĠhvaÃ°":827,"gi":828,"etta":829,"ĠSk":830,"eyr":831,"ĠmiÃ°":832,"Ġkyn":833,"Ġnokk":834,"ĠbÃº":835,"mÃ¡l":836,"emur":837,"ningar":838,"yld":839,"ĠhÃ¶f":840,"Ġsaman":841,"Ãģ":842,"Ġnr":843,"mynd":844,"ĠmÃ©r":845,"Ã°ir":846,"Ġeitt":847,"epp":848,"ĠÄĽ":849,"Ġ6":850,"Ġkoma":851,"eitt":852,"innu":853,"unnar":854,"hug":855,"rumvarp":856,"Ġbar":857,"Ġkl":858,"nt":859,"illi":860,"ĠbÃ¦":861,"ĠÃ¾ann":862,"Ġbl":863,"ĠÃ¶Ã°":864,"legt":865,"ĠÃ¶ll":866,"dÃ³tt":867,"ĠfjÃ¶l":868,"Ġjafn":869,"ĠstjÃ³rn":870,"ĠÃ¡samt":871,"Ġhl":872,"su":873,"Ġ7":874,"Frumvarp":875,"iss":876,"Ġtaka":877,"jÃ¶g":878,"veg":879,"ĠÃ¾arf":880,"ĠsjÃ¡":881,"Ġsegir":882,"lum":883,"her":884,"leiÃ°":885,"stur":886,"ila":887,"anum":888,"sa":889,"jald":890,"Ġrey":891,"eild":892,"ĠhÃ¡":893,"ĠÃ¾au":894,"Ġmann":895,"Ġgrein":896,"ĠEn":897,"ĠlÃŃf":898,"ĠÃīg":899,"Ã°s":900,"rÃ©tt":901,"Ġmenn":902,"ga":903,"ro":904,"Ã¦Ã°inu":905,"ĠniÃ°ur":906,"Ġok":907,"sti":908,"Ġfull":909,"si":910,"Ġgef":911,"yk":912,"Ġsn":913,"Ġra":914,"ĠRey":915,"jÃ³nustu":916,"ĠnÃ¦":917,"orÃ°":918,"ell":919,"Ã¶Ã°u":920,"ĠÃ¾essu":921,"Ġgeg":922,"ĠvÃ¶r":923,"Ġeinnig":924,"ĠverÃ°":925,"Ġfar":926,"ĠsÃŃÃ°ar":927,"ĠÃ¾Ã¦r":928,"Ã¦Ã°a":929,"Ġsag":930,"fÃ©lag":931,"Ġfara":932,"eldur":933,"Ġop":934,"Ġald":935,"Ġskal":936,"kja":937,"Ġbara":938,"vaÃ°":939,"Ġvir":940,"jÃºk":941,"ex":942,"hÃºs":943,"ĠÃ¡ra":944,"tan":945,"Ġhans":946,"Ã¶lu":947,"jÃ³n":948,"ĠÃ¾Ã³":949,"gang":950,"ĠverÃ°a":951,"Ġmilli":952,"lit":953,"Ġvil":954,"Ġtal":955,"Ã³p":956,"aÃ°ar":957,"band":958,"Ġnem":959,"tl":960,"far":961,"tal":962,"ĠorÃ°":963,"ĠfyrirtÃ¦k":964,"ĠmÃ¦":965,"Ġ200":966,"hald":967,"ĠhÃ¦gt":968,"ĠÃ¡riÃ°":969,"verk":970,"ĠÃĵ":971,"ĠmjÃ¶g":972,"ĠlÃŃk":973,"ĠljÃ³":974,"ĠfÃ³r":975,"Ġbygg":976,"Ġhel":977,"ĠhÃºs":978,"ĠÅĳ":979,"Ã¦tti":980,"if":981,"rÃ³p":982,"gar":983,"ap":984,"us":985,"ilega":986,"Ġho":987,"ningu":988,"ert":989,"eiri":990,"Ġmarg":991,"eins":992,"Ġgeta":993,"Ġ8":994,"ent":995,"Ġauk":996,"Ġendur":997,"Ġheil":998,"Ġdr":999,"sf":1000,"ykk":1001,"ÃŀaÃ°":1002,"ĠÃ¾Ã©r":1003,"ember":1004,"ĠÃ¡tt":1005,"fis":1006,"efn":1007,"vrÃ³p":1008,"Ġlok":1009,"Ġ.":1010,"dÃ³ttir":1011,"ĠÅĻ":1012,"sla":1013,"ĠvÃ¦ri":1014,"Ġstof":1015,"ĠSam":1016,"Ġley":1017,"ĠHann":1018,"Ã¡r":1019,"ĠvarÃ°":1020,"Ġber":1021,"eita":1022,"Ġeinhver":1023,"Ġmark":1024,"Ġfyl":1025,"Ġhalda":1026,"ĠferÃ°":1027,"ms":1028,"ĠÃ¾ur":1029,"Ġteng":1030,"boÃ°":1031,"19":1032,"nn":1033,"ĠÃĸ":1034,"ĠverÃ°i":1035,"yrir":1036,"Ġ9":1037,"vel":1038,"ViÃ°":1039,"Ã¶m":1040,"Ġ10":1041,"Ã¶gu":1042,"Ġkemur":1043,"anir":1044,"aÃ°a":1045,"lut":1046,"ĠEf":1047,"ĠsvÃ¦Ã°inu":1048,"Ġenn":1049,"Ġhlut":1050,"nig":1051,"starf":1052,"ĠÃ¾essum":1053,"Ġsku":1054,"Ġ\"":1055,"ank":1056,"Ġskrif":1057,"jÃ³rnar":1058,"Ġheldur":1059,"Ġbir":1060,"ĠÃ¡n":1061,"Ġfund":1062,"ĠstÃ³r":1063,"mÃ¦":1064,"ut":1065,"ĠÃ¾Ã¡tt":1066,"20":1067,"vÃŃk":1068,"aup":1069,"ĠEvrÃ³p":1070,"Ġreg":1071,"stjÃ³":1072,"Ġminn":1073,"Ġmikil":1074,"gr":1075,"jal":1076,"ĠgÃ³":1077,"ĠupplÃ½singar":1078,"mann":1079,"ĠsÃŃÃ°an":1080,").":1081,"ĠÃ¡Ã°ur":1082,"ĠauÃ°":1083,"pt":1084,"ĠGuÃ°":1085,"ĠstaÃ°num":1086,"ku":1087,"ĠaÃ°st":1088,"ĠÃŀetta":1089,"og":1090,"kun":1091,"annsÃ³k":1092,"Ġhvort":1093,"emm":1094,"ota":1095,"ĠReykja":1096,"ĠmikiÃ°":1097,"jÃ¶ld":1098,"ĠÃįslandi":1099,"ĠÃŃslensk":1100,"indi":1101,"ers":1102,"eika":1103,"Ġmeira":1104,"manna":1105,"Ã¶ng":1106,"ega":1107,"ĠsamÃ¾":1108,"kvÃ¦mt":1109,"ita":1110,"Ġvik":1111,"ĠbÃ³k":1112,"ĠÃ¶llum":1113,"ĠÃ¶Ã°rum":1114,"ĠliÃ°":1115,"leik":1116,"Ġbreytingum":1117,"Ġsinni":1118,"Ġhr":1119,"sem":1120,"star":1121,"ĠmeÃ°al":1122,"Ġhag":1123,"ĠgreiÃ°":1124,"os":1125,"skÃ³la":1126,"ĠsÃŃÃ°ari":1127,"rit":1128,"ĠSig":1129,"ĠÃ¾essa":1130,"ĠÃ¡fram":1131,"Ġaug":1132,"Ġsegja":1133,"ĠAl":1134,"Ġ,":1135,"Ġhonum":1136,"Ġflug":1137,"Ãīg":1138,"ch":1139,"ĠtÃ¦k":1140,"Ġborg":1141,"ĠfÃ¦r":1142,"ĠvÃŃs":1143,"ĠvÃŃ":1144,"lend":1145,"ĠlÃŃka":1146,"Ġmat":1147,"Ġlang":1148,"skrÃ¡":1149,"ĠsÃŃÃ°u":1150,"fiÃ°":1151,"ĠÃ¾jÃ³Ã°":1152,"Ġsinn":1153,"liÃ°":1154,"Ġaftur":1155,"Ãºr":1156,"Ã¶rf":1157,"Ġlau":1158,"com":1159,"Ã°ast":1160,"ĠÃ¼":1161,"deild":1162,"tak":1163,"ĠbÃŃ":1164,"ĠtÃ³k":1165,"Ġbe":1166,"Ġleng":1167,"kka":1168,"ĠrÃŃkis":1169,"haf":1170,"Ġgl":1171,"Ġ12":1172,"mÃ¡la":1173,"Ġsveit":1174,"lar":1175,"ĠlÃ½":1176,"Ġsama":1177,"Ġmill":1178,"isk":1179,"ĠAÃ°":1180,"sn":1181,"ĠÄį":1182,"--------":1183,"ĠmÃ¡nu":1184,"Ġhvernig":1185,"byr":1186,"ĠaÃ°eins":1187,"200":1188,"ĠsÃŃnum":1189,"Ġvinn":1190,"Ġney":1191,"maÃ°ur":1192,"enna":1193,"verÃ°":1194,"Ġalla":1195,"Ġleg":1196,"jÃ³l":1197,"Ġher":1198,"Ġundan":1199,"Ġefni":1200,"Ã¶gum":1201,"ĠviÃ°skip":1202,"Ġskyld":1203,"Ġeld":1204,"Ġheima":1205,"Ã¶kk":1206,"Ġeinstak":1207,"ili":1208,"ĠhafÃ°i":1209,"ĠannaÃ°":1210,"ĠSv":1211,"ĠsÃ¡":1212,"Ġeigin":1213,"ĠmaÃ°ur":1214,"kkert":1215,"Ã¶gn":1216,"ĠÃ¶r":1217,"Ġsett":1218,"ĠsÃŃna":1219,"Ã¾ing":1220,"borg":1221,"ĠÃ¾annig":1222,"ĠÃ¦t":1223,"Ġ0":1224,"Ġstund":1225,"hvaÃ°":1226,"Ġbreytingar":1227,"Ġvit":1228,"rei":1229,"ĠkomiÃ°":1230,"ala":1231,"frÃ¦Ã°i":1232,"fer":1233,"Ġinnan":1234,"bur":1235,"ĠlÃ¦":1236,"uney":1237,"Ġeiga":1238,"Ã¶ngu":1239,"ini":1240,"ĠnÃ³":1241,"kvÃ¦md":1242,"kkur":1243,"jan":1244,"frÃ¦Ã°":1245,"set":1246,"Ġfeng":1247,"ĠsamÃ¾ykk":1248,"ĠskrÃ¡":1249,"ĠtÃ¶l":1250,"Ġbyr":1251,"bÃ¦r":1252,"ng":1253,"ed":1254,"brey":1255,"ax":1256,"aga":1257,"Ġset":1258,"tÃ¶k":1259,"Ġmig":1260,"ĠÃ¾essi":1261,"Ġgang":1262,"vinn":1263,"Ã¶rÃ°":1264,"Ġrek":1265,"rig":1266,"rist":1267,"ndar":1268,"Ã³tel":1269,"atn":1270,"ĠmÃ¶r":1271,"ĠEvrÃ³pu":1272,"kyn":1273,"Ġfinna":1274,"Ġnota":1275,"Ġskemm":1276,"ildi":1277,"ĠNor":1278,"Ġse":1279,"tÃŃÃ°":1280,"ingur":1281,"ĠÃ¾ig":1282,"heim":1283,"til":1284,"ĠÃ¾r":1285,"ĠstÃ¦r":1286,"Ġ11":1287,"herra":1288,"ĠbÃ¦Ã°i":1289,"hag":1290,"gur":1291,"stÃ¶Ã°":1292,"ĠÃ¾jÃ³nustu":1293,"Ġlit":1294,"Ã³nu":1295,"gerÃ°":1296,"Ġkon":1297,"Ġeng":1298,"ĠÃ¡hug":1299,"ĠeitthvaÃ°":1300,"daginn":1301,"andar":1302,"Ġekkert":1303,"orgun":1304,"ulag":1305,"Ġgist":1306,"skÃ³l":1307,"oÃ°a":1308,"els":1309,"rÃŃk":1310,"Ġma":1311,"vinnu":1312,"Ġ15":1313,"ĠÃŀar":1314,"ĠbÃ¶r":1315,"Ġhana":1316,"Ġa":1317,"imm":1318,"Ã¡m":1319,"trÃº":1320,"onar":1321,"bÃ¦":1322,"Ġtel":1323,"Ġfinn":1324,"ĠÃ¡kveÃ°":1325,"hverfis":1326,"jÃ¶f":1327,"Ġbreytingu":1328,"jÃ³Ã°a":1329,"ĠW":1330,"tti":1331,"sÃ½":1332,"St":1333,"ĠfÃ©":1334,"ĠÃ¡hrif":1335,"bygg":1336,"fang":1337,"eb":1338,"rÃ¦Ã°i":1339,"ĠÃŀÃ¡":1340,"ĠgÃ³Ã°":1341,"Ãºm":1342,"alla":1343,"ĠmÃ³":1344,"byrg":1345,"lof":1346,"Ġstarfsm":1347,"ft":1348,"egi":1349,"he":1350,"ĠUm":1351,"ĠnÃ¡m":1352,"Ġgam":1353,"Ġgert":1354,"ĠÃ¾ekk":1355,"lÃ¡":1356,"Ġenda":1357,"skyld":1358,"reg":1359,"Ġ18":1360,"yrk":1361,"rÃ¦Ã°":1362,"Ã°ist":1363,"fest":1364,"Ġfyrsta":1365,"Ġathug":1366,"efna":1367,"Ã¶ndum":1368,"Ġraun":1369,"ĠsÃŃÃ°ustu":1370,"Ġtrygg":1371,"Ġhennar":1372,"ĠrannsÃ³k":1373,"Ġand":1374,"Ġfyrst":1375,"ĠsamkvÃ¦mt":1376,"ĠÅ¡":1377,"jast":1378,"ĠmÃŃn":1379,"amÃ¡l":1380,"legum":1381,"urnar":1382,"nunar":1383,"ĠAll":1384,"ings":1385,"Ġvinnu":1386,"skrif":1387,"Ġgeng":1388,"att":1389,"ĠtekiÃ°":1390,"Ġgegn":1391,"Ġeink":1392,"Ġalmenn":1393,"Ġ16":1394,"Ġget":1395,"Ġung":1396,"ĠsÃ©u":1397,"jaf":1398,"ĠtÃ³n":1399,"ĠÃ¡st":1400,"Ġfrum":1401,"viÃ°":1402,"ĠslÃŃk":1403,"ĠfÃ¦":1404,"ĠframkvÃ¦md":1405,"vik":1406,"Ġles":1407,"ker":1408,"essi":1409,"Ġutan":1410,"ĠsÃº":1411,"ĠprÃ³":1412,"erki":1413,"Ġnet":1414,"Ġhins":1415,"Ġspur":1416,"Ġsm":1417,"ĠÃ¡g":1418,"skeiÃ°":1419,"komandi":1420,"stjÃ³rn":1421,"ĠVest":1422,"ĠMeira":1423,"Ġeinstakl":1424,"Ġannars":1425,"brig":1426,"semi":1427,"ĠdÃ¦m":1428,"ĠhÃ¦kk":1429,"Ġ[":1430,"fÃ¦r":1431,"lÃ¶g":1432,"val":1433,"ĠsjÃºk":1434,"Ãºt":1435,"rÃ½":1436,"Ġsend":1437,"nast":1438,"sÃŃÃ°u":1439,"ĠgÃ¦r":1440,"Ġalltaf":1441,"Ef":1442,"ĠÅ¾":1443,"ĠÃŃbÃº":1444,"Ã¦tl":1445,"ĠmÃŃ":1446,"Ġvinna":1447,"ĠJÃ³n":1448,"yrÃ°i":1449,"mar":1450,"sleg":1451,"Ġgagn":1452,"Ã¶ll":1453,"Ġgott":1454,"ĠhefÃ°i":1455,"Ã¶nnum":1456,"ĠfariÃ°":1457,"Ġvirk":1458,"Ġkann":1459,"arfÃ©lag":1460,"fu":1461,"yf":1462,"Ġla":1463,"Ġmis":1464,"Ġflokk":1465,"ski":1466,"vÃ¶r":1467,"ĠskoÃ°":1468,"naÃ°ar":1469,"Ġums":1470,"ress":1471,"nnur":1472,"jall":1473,"up":1474,"ĠsagÃ°i":1475,"Ġmikilv":1476,"orf":1477,"Ġ14":1478,"Ġfimm":1479,"ĠsÃ©rstak":1480,"ĠhÃ¡tt":1481,"bÃºn":1482,"ersÃ³nu":1483,"ĠhÃ³p":1484,"ĠumrÃ¦":1485,"Ġvegar":1486,"Ġhenni":1487,"Ġi":1488,"Ġ17":1489,"skil":1490,"ÃŃu":1491,"ĠtrÃº":1492,"ĠEinn":1493,"Ã¾rÃ³":1494,"sdÃ³ttir":1495,"Ġannar":1496,"lab":1497,"ĠÃ¡byrg":1498,"ĠkrÃ³":1499,"art":1500,"Ã¦Ã°um":1501,"Ġfors":1502,"cel":1503,"ĠÃļ":1504,"Ġnotkun":1505,"mark":1506,"stjÃ³ri":1507,"bl":1508,"ĠstÃ¶Ã°u":1509,"undur":1510,"000":1511,"vit":1512,"ĠmÃ³t":1513,"va":1514,"iÃ°i":1515,"Ãºru":1516,"enni":1517,"jandi":1518,"vÃŃkur":1519,"Ġlof":1520,"ĠhÃ³tel":1521,"ĠhÃ¡l":1522,"Ġraf":1523,"vert":1524,"Ã¾jÃ³Ã°":1525,"ĠnÃ¡tt":1526,"inda":1527,"Ġ13":1528,"ilegt":1529,"ĠaÃ°al":1530,"ĠvÃ¶rum":1531,"ook":1532,"ninga":1533,"Ġallir":1534,"Ġfyrr":1535,"Ġjar":1536,"Ġalveg":1537,"ĠnÃ¦r":1538,"âĢŀ":1539,"ger":1540,"Ġfleiri":1541,"ĠsmÃ¡":1542,"amenn":1543,"ĠiÃ°":1544,"list":1545,"ost":1546,"bb":1547,"âĢ¦":1548,"201":1549,"arl":1550,"ĠlÃ©":1551,"Ã©f":1552,"slum":1553,"bund":1554,"tek":1555,"gum":1556,"199":1557,"Ġeinu":1558,"tast":1559,"ĠÃ¡ri":1560,"ĠbÃ¶rn":1561,"ennar":1562,"ĠÃŀÃ³r":1563,"ĠMeÃ°":1564,"ĠrÃ¦Ã°a":1565,"ĠÃ¡rum":1566,"Ġmorgun":1567,"Ġlandi":1568,"landi":1569,"Ġgjald":1570,"ĠHÃºn":1571,"arÃ°":1572,"ÃŃf":1573,"Ġey":1574,"Ġsumar":1575,"endum":1576,"aÃ°ir":1577,"geng":1578,"eppni":1579,"MeÃ°":1580,"inber":1581,"âĢĿ":1582,"Ã¶kum":1583,"arÃ¡Ã°":1584,"ĠÃī":1585,"Ġbarn":1586,"ĠsjÃ³":1587,"Ġtr":1588,"nb":1589,"ĠÃ¾ÃŃ":1590,"ava":1591,"arinnar":1592,"ĠÃ¾ing":1593,"Ġfel":1594,"nÃ¦Ã°i":1595,"Ġkenn":1596,"ĠOg":1597,"ĠÃ¾yk":1598,"hÃ¦":1599,"ĠÃ¡huga":1600,"smynd":1601,"oll":1602,"Ġerum":1603,"Ġsvona":1604,"Ġgest":1605,"Ġoft":1606,"ĠkÃ¦r":1607,"tun":1608,"ĠpersÃ³nu":1609,"ĠSigur":1610,"ĠReykjavÃŃk":1611,"jÃ¡lp":1612,"ĠTil":1613,"tÃ³":1614,"ĠHÃ©r":1615,"Ġfal":1616,"ĠgerÃ°":1617,"Ã¾jÃ³nustu":1618,"ĠEin":1619,"Ġaldrei":1620,"ĠskÃ½r":1621,"ĠskÃ³l":1622,"Ġfrek":1623,"ĠÃ¾rÃ³":1624,"ĠEinnig":1625,"ĠHÃ¡":1626,"Ġnor":1627,"Ġneyslu":1628,"Ġbein":1629,"ĠsamfÃ©lag":1630,"rÃ¡tt":1631,"Ã¶Ã°um":1632,"Ġnema":1633,"yg":1634,"Ġsitt":1635,"Ġveit":1636,"sg":1637,"Ġkost":1638,"Ġunn":1639,"Ġeigi":1640,"ĠorÃ°iÃ°":1641,"yrirtÃ¦k":1642,"Ġhluti":1643,"nefnd":1644,"Ġleit":1645,"shÃºs":1646,"otels":1647,"jur":1648,"ĠframleiÃ°":1649,"arar":1650,"vi":1651,"tist":1652,"stÃ¶Ã°u":1653,"ĠJÃ³":1654,"efnu":1655,"ki":1656,"virk":1657,".âĢľ":1658,"legu":1659,"Ġvan":1660,"emd":1661,"Ġtekur":1662,"Ġheims":1663,"Ġtak":1664,"ĠstuÃ°":1665,"Ġfjar":1666,"Ã¶kur":1667,"Ġfylg":1668,"skur":1669,"Ġerlend":1670,"Ã¶rÃ°un":1671,"Ġgegnum":1672,"Ġfag":1673,"ekk":1674,"Ġsamband":1675,"laga":1676,"30":1677,"lur":1678,"blaÃ°":1679,"ĠskÃ³la":1680,"Ġvin":1681,"Ġvill":1682,"andarÃŃk":1683,"dÃ³m":1684,"AÃ°":1685,"Ġhluta":1686,"op":1687,"gÃ¡":1688,"veld":1689,"Ġsamstarf":1690,"vÃŃs":1691,"uÃ°ur":1692,"eÃ°lab":1693,"verÃ°s":1694,"Ġbak":1695,"Ġval":1696,"brigÃ°i":1697,"Ġheimil":1698,"Ġnau":1699,"ĠÃ¾essari":1700,"Ãºst":1701,"Ġel":1702,"orn":1703,"Ġsetja":1704,"Ġmeiri":1705,"asemd":1706,"Ġc":1707,"ĠEr":1708,"Ġallar":1709,"Ġbor":1710,"laf":1711,"trygg":1712,"ĠÃ¾jÃ³":1713,"Ġeina":1714,"Ġstig":1715,"Ġstendur":1716,"Ã¶fn":1717,"vald":1718,"ĠdÃ³m":1719,"ĠsÃŃn":1720,"Ġskemmt":1721,"ĠfÃ¶":1722,"eil":1723,"ĠfrÃ©tt":1724,"Ġme":1725,"Ġefna":1726,"),":1727,"anka":1728,"efnum":1729,"ĠsÃŃÃ°a":1730,"unda":1731,"tÃŃma":1732,"ĠstjÃ³rnar":1733,"Ġvald":1734,"ĠÃ¶nnur":1735,"ĠtÃ¶lv":1736,"ĠmÃ³ti":1737,"ĠÃ¾ykir":1738,"ĠfÃ©kk":1739,"akk":1740,"bÃºÃ°ir":1741,"ĠIcel":1742,"ĠsÃŃÃ°":1743,"Ġsamning":1744,"Ã©lÃ¶g":1745,"ingast":1746,"Ġskuld":1747,"stri":1748,"ĠkvÃ¶ld":1749,"Ġgild":1750,"Ġforeld":1751,"Ġ30":1752,"ĠBandarÃŃk":1753,"unnu":1754,"Ġorlof":1755,"nas":1756,"Ġtilkyn":1757,"Ġvilja":1758,"sb":1759,"ĠAr":1760,"legar":1761,"ac":1762,"afÃ©lag":1763,"Ġgefa":1764,"Ġlist":1765,"Ġnokkur":1766,"aust":1767,"leika":1768,"ad":1769,"Ġinni":1770,"Ġsann":1771,"ĠÃ¾Ã½":1772,"rÃ¦n":1773,"ĠÃ¾riÃ°":1774,"Ã¶nnun":1775,"Ġhverju":1776,"tÃ³ber":1777,"ĠviÃ°komandi":1778,"last":1779,"rÃ©":1780,"Ġbarna":1781,"ĠsÃ¶lu":1782,"ĠviÃ°skipta":1783,"Ã¦Ã°ur":1784,"ĠmÃ¡li":1785,"afl":1786,"eidd":1787,"Ġ2018":1788,"Ã¦l":1789,"ĠKrist":1790,"eÃ°ur":1791,"fur":1792,"ĠÃģr":1793,"uÃ°u":1794,"Ġhugmynd":1795,"ic":1796,"ĠEkki":1797,"arnir":1798,"undi":1799,"Ġhugs":1800,"ĠhvaÃ°a":1801,"Ġopinber":1802,"mÃ¦li":1803,"greiÃ°":1804,"Ġflest":1805,"lÃŃk":1806,"Ã¡n":1807,"ĠbÃ½":1808,"ennan":1809,"ĠAir":1810,"llu":1811,"Ġmerk":1812,"ĠsamrÃ¦":1813,"Ġ25":1814,"Ġauka":1815,"lÃ¦g":1816,"Ġvirka":1817,"ĠEx":1818,"ĠboÃ°":1819,"Ġeinf":1820,"ÃºnÃŃ":1821,"ĠgÃ¦":1822,"ttu":1823,"ĠÅ¯":1824,"Ġbetur":1825,"Ġkaup":1826,"flokk":1827,"vÃ¶ld":1828,"ĠneysluverÃ°s":1829,"ĠbÃ¦ta":1830,"Ġskyldi":1831,"ĠheimasÃŃÃ°u":1832,"ĠjÃ³":1833,"oss":1834,"Ġmet":1835,"ista":1836,"ĠbÃ³":1837,"Ġleggja":1838,"sÃ³kn":1839,"run":1840,"ĠoktÃ³ber":1841,"Ġlig":1842,"Ġ199":1843,"ĠnÃ½ja":1844,"ĠferÃ°a":1845,"Ġfinnst":1846,"ĠEy":1847,"Ġfast":1848,"ĠHaf":1849,"upp":1850,"10":1851,"ĠÃ¡byrgÃ°":1852,"uk":1853,"Ãºss":1854,"rir":1855,"ĠSp":1856,"ĠfjÃ¶lskyld":1857,"Ġdaga":1858,"undar":1859,"Ġfisk":1860,"Ġbet":1861,"Ġvaf":1862,"Ãºl":1863,"Ġfyrstu":1864,"ĠauglÃ½s":1865,"Ġsagt":1866,"ĠÃ¡rs":1867,"Ġbyrj":1868,"smÃ¡l":1869,"ĠÃįsland":1870,"sfÃ³lk":1871,"mun":1872,"ĠhÃ³":1873,"vember":1874,"ĠaÃ°ra":1875,"net":1876,"ĠÃ¶Ã°ru":1877,"slur":1878,"Ġvand":1879,"egin":1880,"ĠfÃ©lagsins":1881,"dal":1882,"ningum":1883,"uneyti":1884,"Ġverkefni":1885,"ĠNorÃ°ur":1886,"Ã³st":1887,"ĠÃŀeir":1888,"ĠvÃ¶rumerki":1889,"Ġsumir":1890,"Ġherber":1891,"Ġkirk":1892,"Ġgerir":1893,"Ã¦ttu":1894,"ĠÃŀegar":1895,"vin":1896,"Ġgrunn":1897,"Ġstu":1898,"bil":1899,"ildar":1900,"taka":1901,"ĠorlofshÃºs":1902,"ĠbÃ¡":1903,"stjÃ³rnar":1904,"vÃ¦":1905,"ĠmeÃ°an":1906,"ĠfjÃ³r":1907,"ĠHel":1908,"Ġathugasemd":1909,"oÃ°i":1910,"laus":1911,"ljÃ³":1912,"Ãŀetta":1913,"naÃ°i":1914,"press":1915,"ĠÃ¾ennan":1916,"eitir":1917,"jÃ¶rn":1918,"aleg":1919,"hlu":1920,"ĠÅ±":1921,"kr":1922,"Ġpen":1923,"Ã³li":1924,"samband":1925,"Ġlyf":1926,"Ġleitt":1927,"Ġviku":1928,"ĠmÃ¡nuÃ°i":1929,"ÃŃbÃºÃ°ir":1930,"hlut":1931,"Til":1932,"ĠslÃ¶kk":1933,"Ġ2017":1934,"alt":1935,"stofnun":1936,"ĠlÃŃkam":1937,",âĢľ":1938,"Ġganga":1939,"Sk":1940,"undir":1941,"mu":1942,"ĠsÃ©rstaklega":1943,"eyp":1944,"Ã¸r":1945,"aÃ°ila":1946,"ĠSÃŃ":1947,"Ã¦Ã°iÃ°":1948,"ĠSeÃ°lab":1949,"reina":1950,"ĠspÃ¡":1951,"ĠfjÃ¶ld":1952,"ĠjÃºnÃŃ":1953,"stjÃ³ra":1954,"lif":1955,"laun":1956,"ĠnÃ½r":1957,"ĠmÃ¦l":1958,"lands":1959,"ĠY":1960,"Ġstanda":1961,"ÃŃl":1962,"ĠsÃŃÃ°asta":1963,"ĠÃ¡her":1964,"yni":1965,"ĠhaldiÃ°":1966,"ĠÃ¶llu":1967,"eif":1968,"ĠnÃ³vember":1969,"Ġvatn":1970,"ĠGr":1971,"sett":1972,"Ġhand":1973,"naÃ°a":1974,"ĠljÃ³s":1975,"ingin":1976,"ĠsÃ¶gu":1977,"Ãŀegar":1978,"ĠsveitarfÃ©lag":1979,"ĠnÃ¦st":1980,"skap":1981,"ĠskoÃ°a":1982,"ĠkrÃ¶f":1983,"ĠlÃ¡ta":1984,"skipti":1985,"ĠâĢľ":1986,"Ã¦tlun":1987,"eyri":1988,"ĠÃ¾Ã³tt":1989,"Um":1990,"vur":1991,"Ġbest":1992,"ĠnÃ¡ttÃºru":1993,"raut":1994,"Ġ21":1995,"Ġnefnd":1996,"ĠBandarÃŃkj":1997,"Ġsty":1998,"staÃ°":1999,"ĠÃ¾Ãºs":2000,"Ġminni":2001,"Ġmyndir":2002,"Ġlandsins":2003,"eÃ°a":2004,"lukk":2005,"ĠnÃ¦sta":2006,"Ġleita":2007,"Ġstyrk":2008,"ĠÃ½ms":2009,"ĠsÃŃnu":2010,"ona":2011,"Ġumhverfis":2012,"ĠIceland":2013,"Ġath":2014,"ĠÃ³sk":2015,"ĠsÃ¦":2016,"ĠIn":2017,"ĠaÃ°ila":2018,"Ã¦kni":2019,"ĠÃ¡tti":2020,"ĠfÃ³t":2021,"ĠfrÃ¡bÃ¦r":2022,"NÃº":2023,"tug":2024,"stofu":2025,"Ã½ra":2026,"afna":2027,"Ã¡k":2028,"Ġvita":2029,"Ġreyn":2030,"Ġ24":2031,"ĠÃŀor":2032,"for":2033,"smenn":2034,"ĠÃ³h":2035,"ĠReykjavÃŃkur":2036,"Ġvax":2037,".,":2038,"ĠgÃ¦ti":2039,"ĠeÃ°":2040,"legur":2041,"ĠmaÃŃ":2042,"ĠfengiÃ°":2043,"ley":2044,"ĠhÃ¦tti":2045,"Ġav":2046,"ĠbÃ¦jar":2047,"ĠmikilvÃ¦g":2048,"ĠÃįslend":2049,"ĠtaÃ°":2050,"uÃ°um":2051,"Ġjafnvel":2052,"ĠhÃ¶fuÃ°":2053,"Ġstofn":2054,"lutning":2055,"Ġfylgja":2056,"kÃ¶kur":2057,"safn":2058,"ĠExpress":2059,"ĠsÃ³l":2060,"Ġrit":2061,"Ġlands":2062,"ĠneÃ°":2063,"ĠHotels":2064,"alega":2065,"ĠAirb":2066,"Ġfjal":2067,"ĠÃ¾urfa":2068,"ĠÃŀÃº":2069,"Ġefnahag":2070,"bÃ³l":2071,"ĠnokkuÃ°":2072,"vart":2073,"Ã¶p":2074,"fyl":2075,"Ġkaf":2076,"di":2077,"Ġmgr":2078,"ĠnÃ½tt":2079,"ĠmarkaÃ°":2080,"Ġap":2081,"Ã°syn":2082,"ĠnÃ¦stu":2083,"ĠNÃº":2084,"breytt":2085,"ankans":2086,"ĠuppÃ¡":2087,"brÃ©f":2088,"yfir":2089,"tunar":2090,"ĠÃ¾eirri":2091,"ĠhÃºsnÃ¦Ã°i":2092,"ĠÃŃslensku":2093,"ĠtÃŃm":2094,"aupa":2095,"legri":2096,"jarÃ°ar":2097,"ĠhÃ¶fum":2098,"eti":2099,"Ã¶x":2100,"ĠAkur":2101,"ĠvÃ¦":2102,"Ġsamt":2103,"ĠÃĵlaf":2104,"ptember":2105,"Ġsenda":2106,"Ġstarfsemi":2107,"Ã¡la":2108,"ĠBjar":2109,"Ġfyri":2110,"itala":2111,"ĠhljÃ³":2112,"ssonar":2113,"mÃ¶r":2114,"rÃŃl":2115,"sst":2116,"Ġkvik":2117,"Ġupphaf":2118,"rÃºar":2119,"land":2120,"hÃ¡":2121,"ĠÃ¾essar":2122,"Sc":2123,"raÃ°":2124,"Ã³lf":2125,"Ġerf":2126,"bÃ³k":2127,"ĠhvÃŃ":2128,"Ãļ":2129,"Ġhor":2130,"ĠmÃ¡naÃ°a":2131,"Ġkos":2132,"Ġkepp":2133,"yt":2134,"Ġalls":2135,"ĠborÃ°":2136,"ĠÃºti":2137,"Ġvon":2138,"allaÃ°":2139,"Ġnafn":2140,"ĠnÃ¡mskeiÃ°":2141,"Ã¶t":2142,"opp":2143,"Ã¶ku":2144,"Ġgeti":2145,"Ġhla":2146,"ĠrÃºm":2147,"Ġhaft":2148,"ĠfÃ³lki":2149,"tion":2150,"Ġallra":2151,"ĠVer":2152,"Ġjan":2153,"ĠhliÃ°":2154,"ĠfyrirtÃ¦ki":2155,"ĠAirbnb":2156,"Ġdes":2157,"Ġklukk":2158,"Ãºar":2159,"ĠÃ¾jÃ³Ã°ar":2160,"ĠnauÃ°syn":2161,"Ġ/":2162,"Ġ|":2163,"ĠunniÃ°":2164,"Ġmiklu":2165,"eigu":2166,"ji":2167,"oka":2168,"Ġofan":2169,"ogg":2170,"od":2171,"olt":2172,"ript":2173,"SB":2174,"ĠÃŀvÃŃ":2175,"tÃŃÃ°ar":2176,"Ġdeild":2177,"Okkur":2178,"ĠhjÃ¡lp":2179,"Ġversl":2180,"11":2181,"ĠjÃº":2182,"Ġviss":2183,"ĠfrÃŃ":2184,"ting":2185,"Ġhlutar":2186,"stÃ¦Ã°i":2187,"ndi":2188,"veru":2189,"ĠveiÃ°":2190,"Ġfrekar":2191,"ĠtÃŃÃ°":2192,"Ġseptember":2193,"ferÃ°ar":2194,"yll":2195,"ĠVÃŃs":2196,"Ã¶gul":2197,"ĠsÃ¶m":2198,"skoÃ°":2199,"afni":2200,"illa":2201,"dÃ³ttur":2202,"ĠÃ¡gÃºst":2203,"ĠjarÃ°":2204,"Ġker":2205,"ĠmeÃ°ferÃ°":2206,"ant":2207,"nÃ½":2208,"le":2209,"bÃ³t":2210,"ĠJava":2211,"Ġskv":2212,"gjÃ¶r":2213,"einn":2214,"ĠaÃ°gang":2215,"ĠsamÃ¾ykkir":2216,"ĠAf":2217,"Script":2218,"ĠnÃ½ju":2219,"Ãĵ":2220,"ĠrÃ¡":2221,"ww":2222,"ĠviÃ°ur":2223,"alag":2224,"ĠFram":2225,"15":2226,"ĠHver":2227,"ĠJavaScript":2228,"ĠkjÃ¶r":2229,"Ġskulu":2230,"Ġveita":2231,"Ġ...":2232,"ĠsjÃ¡lfs":2233,"ĠheilbrigÃ°i":2234,"kum":2235,"angur":2236,"ĠÃŀessi":2237,"ĠmilljÃ³":2238,"indum":2239,"framt":2240,"nin":2241,"ĠsjÃ³n":2242,"anlega":2243,"flug":2244,"eiti":2245,"ĠLand":2246,"son":2247,"Sam":2248,"Ġheyr":2249,"ĠvÃ©l":2250,"Ġloft":2251,"ĠBr":2252,"Ã°in":2253,"Ġde":2254,"ĠslÃ¶kkt":2255,"mannaey":2256,"ingi":2257,"nuÃ°":2258,"rÃ¡r":2259,"Ġreik":2260,"Ã¦kja":2261,"auÃ°":2262,"esta":2263,"ĠfyrirtÃ¦kja":2264,"lÃŃf":2265,"ĠstaÃ°fest":2266,"Ġfyrri":2267,"irnir":2268,"irÃ°i":2269,"ĠsÃ¶g":2270,"ĠalÃ¾jÃ³Ã°":2271,"ĠfjÃ¡rm":2272,"Ġveitt":2273,"Ìģ":2274,"eist":2275,"Ġ22":2276,"ĠAn":2277,"Ġkaupa":2278,"amm":2279,"Ġsel":2280,"vo":2281,"srÃ¡Ã°":2282,"ĠlÃŃfeyr":2283,"ĠnÃ¡l":2284,"verndar":2285,"jÃ³nust":2286,"ĠSn":2287,"ĠLands":2288,"ĠaprÃŃl":2289,"ĠVestmannaey":2290,"fall":2291,"gt":2292,"ĠjanÃºar":2293,"ĠtÃ¦kif":2294,"NV":2295,"Ġso":2296,"Ġatvinn":2297,"eym":2298,"estur":2299,"Ġtryggja":2300,"fum":2301,"Ġ100":2302,"ĠÃŃÃ¾rÃ³":2303,"Ġatvinnu":2304,"str":2305,"ĠÃ½m":2306,"amanna":2307,"skar":2308,"Ġpa":2309,"ĠnÃºna":2310,"ĠmarkmiÃ°":2311,"ĠFl":2312,"Ġmanna":2313,"id":2314,"sÃŃÃ°":2315,"18":2316,"Ġheimild":2317,"ĠtÃ¶lu":2318,"ĠdÃ½r":2319,"ĠlÃ¶ndum":2320,"ĠbÃºiÃ°":2321,"ĠstÃ¶rf":2322,"Ġdesember":2323,"ce":2324,"exti":2325,"annig":2326,"ĠÃ¶rygg":2327,"Ġflu":2328,"Ġfeb":2329,"Ġmargir":2330,"svÃ¦Ã°i":2331,"listar":2332,"endi":2333,"ĠÃ¡rinu":2334,"ningi":2335,"skum":2336,"ĠskrÃ¡Ã°":2337,"Ġ50":2338,"Ġtilf":2339,"Ġfyrra":2340,"Ġvafra":2341,"ab":2342,"Ġvak":2343,"ĠbÃ½Ã°ur":2344,"Ġkraf":2345,"ĠlÃŃtiÃ°":2346,"Ġgistik":2347,"ĠgistikrÃ¡r":2348,"ĠsamrÃ¦mi":2349,"Ġhin":2350,"Ġfrumvarp":2351,"ĠstarfsfÃ³lk":2352,"ĠfjarlÃ¦g":2353,"VNV":2354,"Ġlagi":2355,"ĠÃ¦tti":2356,"Ġmunu":2357,"ygli":2358,"Ġskila":2359,"smiÃ°":2360,"Ġ198":2361,"ĠÃ¦tlaÃ°":2362,"ĠÃºtgÃ¡":2363,"Ġnetinu":2364,"ĠÃ¡kvÃ¶rÃ°un":2365,"Ġri":2366,"aug":2367,"Ġathugasemdir":2368,"ĠauÃ°veld":2369,"enju":2370,"vitaÃ°":2371,"Ġskipulag":2372,"Ġkvikmynd":2373,"kenn":2374,"isins":2375,"Ġmars":2376,"borgar":2377,"Ġhvert":2378,"bÃŃ":2379,"Ġallan":2380,"Ġnemendur":2381,"Ġannarra":2382,"Ġkonung":2383,"ĠprÃ³f":2384,"reyf":2385,"hf":2386,"Ġkomu":2387,"ĠbjÃ³Ã°a":2388,"halds":2389,"nda":2390,"ĠvirÃ°ist":2391,"ĠBer":2392,"Ã©tta":2393,"hann":2394,"kt":2395,"ĠjÃ¡":2396,"ia":2397,"ys":2398,"jÃ¶rg":2399,"jÃ³ta":2400,"ĠÃĸll":2401,"50":2402,"tÃ¶l":2403,"Ġert":2404,"Ġ23":2405,"Ġpr":2406,"ĠfÃ¦Ã°":2407,"Ġhvers":2408,"slega":2409,"ow":2410,"Ġkannski":2411,"fr":2412,"Ġgreiningar":2413,"lig":2414,"nan":2415,"ĠgerÃ°i":2416,"horf":2417,"ĠhÃ¶fÃ°u":2418,"ĠfebrÃºar":2419,"veit":2420,"ĠbÃºa":2421,"Ġlangt":2422,"ĠÃ¾iÃ°":2423,"ĠsÃ½na":2424,"En":2425,"Ġtveim":2426,"Ġskor":2427,"vÃ©l":2428,"Ġykkur":2429,"Ġpl":2430,"ĠGuÃ°m":2431,"ĠsÃ¶mu":2432,"Ġvins":2433,"ĠlÃ¦kk":2434,"agna":2435,"ĠSuÃ°ur":2436,"Ġgrund":2437,"Ġmikla":2438,"eggja":2439,"Ġlaun":2440,"ĠdÃ¦mis":2441,"12":2442,"ĠÃŀess":2443,"ĠgÃ³Ã°a":2444,"naÃ°ur":2445,"ĠyrÃ°i":2446,"allar":2447,"ilar":2448,"ĠfrÃ¦Ã°":2449,"Ġfasteig":2450,"Ã³ma":2451,"ĠÃ¾jÃ¡lf":2452,"Ġhring":2453,"Ġnotar":2454,"ĠgrÃŃ":2455,"aÃ°u":2456,"ĠrÃ¡Ã°st":2457,"ĠAlÃ¾ing":2458,"ĠEvrÃ³pusamband":2459,"Ġfre":2460,"ec":2461,"tingar":2462,"Ġfann":2463,"ĠESB":2464,"gjÃ¶f":2465,"Ġkjar":2466,"ĠhljÃ³Ã°":2467,"sveit":2468,"ĠsÃŃÃ°ast":2469,"ĠHr":2470,"ĠrÃ¦":2471,"hr":2472,"arb":2473,"Ġstarfa":2474,"----------------":2475,"jÃ¶ll":2476,"uneytiÃ°":2477,"Ġmest":2478,"ĠbÃŃl":2479,"Ġgaman":2480,"Ġlagt":2481,"ĠEftir":2482,"reiningar":2483,"Ġstra":2484,"Ġhvor":2485,"kvÃ¦Ã°":2486,"Ġstr":2487,"Ã½ri":2488,"Ãĸ":2489,"mur":2490,"Ġdraga":2491,"raun":2492,"lÃ½singar":2493,"Ġ70":2494,"Ġreglu":2495,"Ã¦p":2496,"Ġbera":2497,"Ġkar":2498,"ÃŃr":2499,"Ġmismun":2500,"Ġbeint":2501,"ĠgreiÃ°slu":2502,"sÃ³knar":2503,"Ġbesta":2504,"ĠÃ¾itt":2505,"ĠÄ¾":2506,"fell":2507,"ĠstaÃ°ar":2508,"ĠÃŀannig":2509,"Ġhjar":2510,"VÃŃs":2511,"ĠrÃŃkisins":2512,"Ġskap":2513,"verandi":2514,"ĠsvÃ¦Ã°i":2515,"Ġhaust":2516,"ĠmÃ¶rg":2517,"Ġgreina":2518,"Ġathygli":2519,"Ġehf":2520,"ĠmÃ¶rgum":2521,"Ġleyti":2522,"Ġkomin":2523,"ĠblaÃ°":2524,"Ġdaginn":2525,"sÃ¡":2526,"ĠÃŃslenska":2527,"ĠaÃ°stoÃ°":2528,"Ã³ta":2529,"Ġkvenna":2530,"ssa":2531,"ĠkrÃ³na":2532,"tÃ¶ku":2533,"Ã¦t":2534,"Ġeg":2535,"Ġhverjum":2536,"ĠtvÃ¶":2537,"Ġsvar":2538,"lugerÃ°":2539,"Ġ28":2540,"Ġgefur":2541,".\"":2542,"ĠumferÃ°":2543,"Ġmyndi":2544,"Ġgildi":2545,"irnar":2546,"ĠboÃ°i":2547,"Ġsy":2548,"ÃºÃ°":2549,"Ġ27":2550,"ne":2551,"Ġmegin":2552,"HÃ©r":2553,"Ġafh":2554,"Ġkennar":2555,"bein":2556,"Ãŀessi":2557,"du":2558,"ndur":2559,"Ã¦ru":2560,"Ġteg":2561,"ov":2562,".)":2563,"ĠumrÃ¦Ã°u":2564,"ĠHeim":2565,"ĠFor":2566,"Ġkomast":2567,"hÃ¦Ã°":2568,"Ġ26":2569,"Ġmenningar":2570,"ĠsviÃ°i":2571,"ustur":2572,"17":2573,"ĠtÃ¦kifÃ¦ri":2574,"Ġgistist":2575,"Ġenginn":2576,"Ġeftirlit":2577,"ĠÃ¦tla":2578,"ĠupplÃ½singum":2579,"mer":2580,"Ġstarfi":2581,"Ã³ra":2582,"gjaf":2583,"ĠÃ¾Ã¶rf":2584,"keppni":2585,"jÃ³s":2586,"hverfi":2587,"akka":2588,"amaÃ°ur":2589,"hn":2590,"ĠBandarÃŃkjunum":2591,"ĠSjÃ¡lf":2592,"esi":2593,"ĠstÃ³Ã°":2594,"stÃ¦Ã°":2595,"eta":2596,"ĠNÃ½":2597,"ĠstuÃ°ning":2598,"ulega":2599,"jÃ³nusta":2600,"ĠfÃ³lks":2601,"Ġreyna":2602,"ĠÃ¡kveÃ°iÃ°":2603,"reind":2604,"ĠvarÃ°andi":2605,"Ġnokkrum":2606,"ĠgreiÃ°a":2607,"issjÃ³Ã°":2608,"Ġheild":2609,"Ġengin":2610,"Ġeinum":2611,"afrÃ¦Ã°i":2612,"ĠfljÃ³":2613,"Ġtveimur":2614,"At":2615,"ĠhÃ³f":2616,"ling":2617,"lifun":2618,"ĠerfiÃ°":2619,"ĠsjÃ³Ã°":2620,"stofa":2621,"Ġafar":2622,"Ġlandinu":2623,"Ġlesa":2624,"ĠjÃºlÃŃ":2625,"fÃ¶r":2626,"brÃ¶g":2627,"efnun":2628,"Ġ2016":2629,"ĠÃįs":2630,"ĠmÃ¡lefni":2631,"ÃŃÃ°":2632,"Ġtala":2633,"aus":2634,"Ġ<":2635,"ĠhlÃ½":2636,"ÃºnaÃ°ar":2637,"Ġeinfald":2638,"ĠstÃ¶Ã°":2639,"ĠmÃ¡liÃ°":2640,"Ġhversu":2641,"ĠÃ¡rsins":2642,"Ġhelstu":2643,"arkaÃ°i":2644,"greiÃ°slu":2645,"Ġstarfsmanna":2646,"rau":2647,"da":2648,"eldi":2649,"ĠframleiÃ°slu":2650,"ĠFÃ©lag":2651,"Ġlengi":2652,"Ġhlutverk":2653,"ĠaÃ°rir":2654,"afÃ³lk":2655,"Ġkonar":2656,"ĠSvo":2657,"Ġli":2658,"stig":2659,"Ġkonur":2660,"vernd":2661,"ĠhÃ¦kkaÃ°i":2662,"ĠÃ¾rÃ³un":2663,"ĠsnÃº":2664,"ĠGunnar":2665,"ĠHag":2666,"ĠMar":2667,"16":2668,"velli":2669,"ĠneÃ°an":2670,"ĠsiÃ°":2671,"ĠCh":2672,"Ġreynslu":2673,"ĠnÃ³g":2674,"ES":2675,"Ġhve":2676,"ooking":2677,"Ġstofnun":2678,"ĠlÃ¡n":2679,"ĠmÃ¶gul":2680,"VÃŃsitala":2681,"Ġskemmtileg":2682,"ilegar":2683,"Ġbetri":2684,"ond":2685,"ĠlÃ¶greg":2686,"eftir":2687,"Ġsinna":2688,"Ã¡nar":2689,"ĠOr":2690,"skipta":2691,"ykki":2692,"Ġkalla":2693,"sen":2694,"sviÃ°":2695,"ĠfjÃ¶lda":2696,"Ġkynna":2697,"Ġ2014":2698,"ĠlÃ©t":2699,"ĠfulltrÃº":2700,"ĠnÃ¡nar":2701,"Ġhevur":2702,"amÃ³t":2703,"Ġraunveru":2704,"Ġalm":2705,"Ġsafn":2706,"Ġborgar":2707,"stjÃ³r":2708,"ĠÃŀjÃ³Ã°":2709,"ref":2710,"Ġre":2711,"kvÃ¦Ã°i":2712,"ĠHar":2713,"Ġbrot":2714,"ong":2715,"skrift":2716,"Ġhinn":2717,"riÃ°i":2718,"ĠMenn":2719,"Ġlaugar":2720,"ĠfjÃ¡rmÃ¡l":2721,"laug":2722,"slit":2723,"Ġundanfar":2724,"ĠaÃ°gerÃ°":2725,"Ġ40":2726,"ĠAt":2727,"ĠÃ¶rug":2728,"....":2729,"liti":2730,"skÃ½r":2731,"ĠPÃ¡l":2732,"staÃ°a":2733,"Ġmanns":2734,"grein":2735,"ĠhÃ¦g":2736,"Ġminna":2737,"ĠsÃ³tt":2738,"ĠhjÃ³":2739,"laust":2740,"Ġstundum":2741,"esa":2742,"Ġsit":2743,"ĠÃ¾essara":2744,"Ġerfitt":2745,"setningu":2746,"ĠgefiÃ°":2747,"ĠBre":2748,"ĠsjÃ³nvarp":2749,"app":2750,"ĠÃ¾arna":2751,"jÃ³smynd":2752,"tingu":2753,"legg":2754,"ĠÃ¡nÃ¦g":2755,"Ã¶Ã°ur":2756,"efniÃ°":2757,"urÃ°u":2758,"repp":2759,"Ġeinstaklinga":2760,"anns":2761,"ddi":2762,"Ġheilsu":2763,"ĠFyrir":2764,"Ġform":2765,"gÃ¶ngu":2766,"ĠEl":2767,"rÃ©ttir":2768,"ĠnotaÃ°":2769,"ĠAllt":2770,"ĠEng":2771,"engi":2772,"ĠfÃ¶stu":2773,"ĠvÃ¶ru":2774,"Ġsex":2775,"ĠframkvÃ¦mdast":2776,"14":2777,"Ġspyr":2778,"samning":2779,"ĠÅĻÃŃ":2780,"ĠÃ¾Ãºsund":2781,"ĠAkureyri":2782,"ĠbÃ³ka":2783,"Ã³s":2784,"Ġkennslu":2785,"Ã¶tu":2786,"ĠaÃ°ferÃ°":2787,"ĠUpp":2788,"ts":2789,"ĠÃ½msum":2790,"niÃ°":2791,"borÃ°":2792,"Ġtengd":2793,"inguna":2794,"ĠâĢĶ":2795,"ĠÃ³s":2796,"ĠveÃ°ur":2797,"kar":2798,"ĠmÃŃnÃº":2799,"ĠJÃ³hann":2800,"reiningardeild":2801,"ĠDan":2802,"ĠfjallaÃ°":2803,"Ġtung":2804,"ND":2805,"ĠÅ½":2806,"Ã¦mi":2807,"ĠsjÃ¡var":2808,"berg":2809,"Ã³g":2810,"Ġhund":2811,"Ġhagsm":2812,"finu":2813,"ĠMynd":2814,"ĠbÃºn":2815,"era":2816,"ĠtjÃ¡":2817,"ĠhÃ©":2818,"ĠauÃ°vitaÃ°":2819,"Ġskatt":2820,"reik":2821,"ĠmiÃ°aÃ°":2822,"ĠHÃ¡skÃ³la":2823,"Ã¶ngum":2824,"Ġstutt":2825,"tor":2826,"Ġmismunandi":2827,"Ġdreg":2828,"rÃŃkis":2829,"ĠrÃ¦k":2830,"jun":2831,"gef":2832,"yrirtÃ¦ki":2833,"ĠÃ¶ld":2834,"Ġ2013":2835,"eigin":2836,"Ġeldri":2837,"ĠmikilvÃ¦gt":2838,"ĠMÃ¡":2839,"ĠsviÃ°":2840,"ĠfrjÃ¡l":2841,"kost":2842,"slag":2843,"viku":2844,"ĠbÃºin":2845,"ĠÃ¦f":2846,"ĠÃ¾arft":2847,"agnar":2848,"ĠKaup":2849,"Ã³ru":2850,"Ġtveggja":2851,"ĠHÃºs":2852,"nur":2853,"ĠÃ¡v":2854,"ĠsjÃºkra":2855,"Ġblogg":2856,"ingastefnun":2857,"Ġsbr":2858,"Ġspil":2859,"ĠlÃŃfi":2860,"ĠundirbÃº":2861,"Ġsvip":2862,"Ġgekk":2863,"efndar":2864,"hÃ³p":2865,"Ġsterk":2866,"Ġstarfsmenn":2867,"fjÃ¡r":2868,"Ġ2015":2869,"tÃŃm":2870,"nÃ¡m":2871,"Ġalmennt":2872,"25":2873,"Ã°ung":2874,"ÃŃna":2875,"Ġannan":2876,"bandi":2877,"skatt":2878,"Ġhuga":2879,"bÃ½":2880,"kl":2881,"Ġfrem":2882,"ĠsÃ©Ã°":2883,"Ġham":2884,"ĠbiÃ°":2885,"rakk":2886,"Ġtilefni":2887,"40":2888,"Ġikki":2889,"ĠÃ¡ratug":2890,"sum":2891,"ĠÃ¡fang":2892,"firÃ°i":2893,"ĠleiÃ°ir":2894,"bÃºnaÃ°ar":2895,"ĠfjÃ¡rfest":2896,"Ġska":2897,"ĠsÃ¦kja":2898,"ĠÂ":2899,"ĠBorg":2900,"old":2901,"âĢľ.":2902,"Ã¦ra":2903,"Ġbreytt":2904,"Upp":2905,"ĠgrÃ³":2906,"Ġmikill":2907,"fti":2908,"ĠtÃ¦kni":2909,"ulltrÃº":2910,"ĠformaÃ°ur":2911,"ĠlÃ¡g":2912,"ĠnÃ¡gr":2913,"ÃĲ":2914,"Ġfjall":2915,"Ġhar":2916,"ĠlÃ¦k":2917,"ĠtvÃ¦r":2918,"rik":2919,"ep":2920,"Ġorku":2921,"Ġjafnframt":2922,"ĠstaÃ°sett":2923,"Ã¶ldum":2924,"Ġ&":2925,"ĠmilljÃ³nir":2926,"ĠnÃ³tt":2927,"All":2928,"Ã¡lyk":2929,"deg":2930,"ĠlÃ½s":2931,"ungis":2932,"lun":2933,"Ġsak":2934,"vist":2935,"Ġliggur":2936,"Ġ29":2937,"oÃ°ar":2938,"Ġtekin":2939,"kerfi":2940,"ĠhiÃ°":2941,"13":2942,"ĠÃ¦tt":2943,"auk":2944,"ĠrÃ¡Ã°herra":2945,"ou":2946,"ema":2947,"kaup":2948,"ĠgengiÃ°":2949,"Ġ2012":2950,"ĠreiÃ°":2951,"Ã©lt":2952,"ck":2953,"</":2954,"endingar":2955,"ĠÃ¡herslu":2956,"ĠÃŃslenskra":2957,"ggja":2958,"ĠnÃ¡Ã°":2959,"ĠaÃ°geng":2960,"linga":2961,"man":2962,"rÃºn":2963,"ew":2964,"ĠDag":2965,"ĠÃ³lÃŃk":2966,"Mynd":2967,"Ġstefnu":2968,"okki":2969,"ndir":2970,"Ġmuni":2971,"ĠÃ¡l":2972,"bol":2973,"veiÃ°":2974,"komu":2975,"Ġkref":2976,"IN":2977,"eistar":2978,"agnir":2979,"ĠjÃ³l":2980,"ĠmÃ¶gu":2981,"aliÃ°":2982,"Ġvenju":2983,"Ġsamh":2984,"ĠjÃ³la":2985,"ĠÃ¾riÃ°ja":2986,"Ġbanka":2987,"Ġforeldra":2988,"nis":2989,"ĠfjÃ¶lmiÃ°":2990,"Ġmiss":2991,"ĠÃ³Ã¾":2992,"ĠvefsÃŃÃ°":2993,"afa":2994,"Ã½s":2995,"ĠaÃ°rar":2996,"uni":2997,"yfirlÃ½s":2998,"Ġkringum":2999,"ĠskilyrÃ°i":3000,"ĠlÃ½Ã°":3001,"Ġmar":3002,"ĠlÃ¦r":3003,"Ġspenn":3004,"unk":3005,"ĠupplÃ½singa":3006,"skÃ¶p":3007,"Ġkominn":3008,"ĠVerk":3009,"Ġnafni":3010,"pu":3011,"slegt":3012,"Ġin":3013,"ningin":3014,"arkmiÃ°":3015,"pi":3016,"Ã¶gnum":3017,"Ġkm":3018,"Ã©ttur":3019,"ÃŃa":3020,"Ġbil":3021,"ĠeÃ°l":3022,"ĠstÃ¦rÃ°":3023,"Ġsveitar":3024,"ĠHer":3025,"oy":3026,"angi":3027,"Ġveik":3028,"ĠsveitarfÃ©laga":3029,"ĠBl":3030,"Ġhefst":3031,"Ġmynda":3032,"Ġhinum":3033,"Ġ197":3034,"smaÃ°ur":3035,"gangi":3036,"ĠnÃ©":3037,"ĠvefkÃ¶kur":3038,"ĠVar":3039,"gan":3040,"lau":3041,"Ġlyk":3042,"Ġgetum":3043,"ĠÃ¡kvÃ¦Ã°i":3044,"ĠstaÃ°iÃ°":3045,"Ã¡lyktunar":3046,"Ġleigu":3047,"Ġheld":3048,"sliÃ°":3049,"Ġeign":3050,"Ġhrein":3051,"ĠtrÃºnaÃ°ar":3052,"ĠBen":3053,"ĠboÃ°iÃ°":3054,"Ġvetur":3055,"Ġthe":3056,"Ġ2011":3057,"ob":3058,"dÃŃs":3059,"hÃ¶f":3060,"Ã¶mmu":3061,"eigandi":3062,"tra":3063,"ĠsjÃ¶":3064,"Ġ,,":3065,"ĠvÃ¦ru":3066,"ĠviÃ°horf":3067,"ĠAnd":3068,"Ġbreyta":3069,"irkju":3070,"stÃŃ":3071,"mb":3072,"amann":3073,"ĠFyr":3074,"Ġfundi":3075,"Ġhvar":3076,"Ġ2008":3077,"huga":3078,"ĠsÃ¡l":3079,"jÃ¡n":3080,"Ġeinhvern":3081,"ĠnÃ¡ms":3082,"Ġsal":3083,"slun":3084,"ĠveÃ°":3085,"Ġstrax":3086,"Ã¾Ã¡":3087,"ĠkallaÃ°":3088,"Ġkynn":3089,"Ġfleira":3090,"Ġtvo":3091,"Ġbur":3092,"ĠReyk":3093,"bar":3094,"ĠupplÃ½sing":3095,"ĠfÃ³ru":3096,"reng":3097,"Ġmargt":3098,"ĠtaliÃ°":3099,"Eftir":3100,"hluta":3101,"ĠHv":3102,"Ġbestu":3103,"flutning":3104,"Ã¦Ã°u":3105,"tali":3106,"ĠrÃ©ttindi":3107,"ĠSeÃ°labankans":3108,"ĠEg":3109,"slan":3110,"leitt":3111,"pur":3112,"bir":3113,"vÃŃsu":3114,"ĠljÃ³st":3115,"undum":3116,"ĠMagn":3117,"ĠnÃ¡lg":3118,"Ġskipti":3119,"stofnunar":3120,"ĠlÃŃklega":3121,"ella":3122,"agreiÃ°":3123,"Ġeinungis":3124,"ĠvarÃ°ar":3125,"Ġbyggingar":3126,"ĠviÃ°bÃ³t":3127,"yndi":3128,"ĠrÃ¶k":3129,"ĠumsÃ¶gn":3130,"Ġskipta":3131,"ĠÃ³g":3132,"Ġuppbygg":3133,"stÃ¶Ã°ur":3134,"ĠljÃ³smynd":3135,"Ġvelja":3136,"ningur":3137,"Ã¡ld":3138,"ĠdÃ¦mi":3139,"Ġheimilt":3140,"jarÃ°a":3141,"ĠgÃ³Ã°u":3142,"ĠhÃ¶nd":3143,"tin":3144,"Ġlengur":3145,"ĠhÃ©lt":3146,"ĠvÃ¦nt":3147,"ĠsÃŃma":3148,"Ġvildi":3149,"ĠsÃŃÃ°ur":3150,"ĠstyÃ°":3151,"ssam":3152,"Ġskuli":3153,"ĠBar":3154,"Ġsameigin":3155,"ĠhÃ¦Ã°":3156,"Ġw":3157,"NÃ½":3158,"ĠHvaÃ°":3159,"angaÃ°":3160,"Ġhf":3161,"Ã¡ttu":3162,"Ġhita":3163,"Ġmitt":3164,"elli":3165,"ĠBir":3166,"Ġfimmtu":3167,"Al":3168,"Er":3169,"ĠheiÃ°":3170,"Ġsunnu":3171,"ettv":3172,"eri":3173,"skÃ³li":3174,"ĠMarg":3175,"alli":3176,"Ġbank":3177,"ĠÃ¦tl":3178,"Ġbjar":3179,"Ġalvar":3180,"Ġlos":3181,"Ġtelur":3182,"Ġstarfs":3183,"gir":3184,"Ã¡Ã¦tlun":3185,"ĠlÃ¶gÃ°":3186,"stÃ¶Ã°var":3187,"sjÃ³":3188,"jÃ¶k":3189,"ĠÃŃÃ¾rÃ³tt":3190,"ĠUmhverfis":3191,"junni":3192,"ev":3193,"ĠmÃŃnum":3194,"svÃ¦Ã°inu":3195,"ĠstjÃ³rnmÃ¡l":3196,"Ġreyndar":3197,"erÃ°ar":3198,"rÃ³f":3199,"ĠskjÃ¡":3200,"stÃ¶Ã°um":3201,"Ġlif":3202,"yrkja":3203,"junnar":3204,"Ġskref":3205,"smanna":3206,"ĠkjÃ¶l":3207,"Ġupphafi":3208,"Ġspila":3209,"Ġhre":3210,"degi":3211,"ĠÃ¾riÃ°ju":3212,"ĠVestmannaeyjum":3213,"ĠrÃ¶Ã°":3214,"ĠÃ¾rÃŃ":3215,"ĠÃ³trÃº":3216,"Ġhitt":3217,"hÃ¦f":3218,"rÃ¡s":3219,"Ġvet":3220,"ĠferÃ°aÃ¾jÃ³nustu":3221,"bor":3222,"farandi":3223,"Ġvinnum":3224,"raum":3225,"ĠSel":3226,"ĠfÃ©lags":3227,"dÃ½r":3228,"Ġvegum":3229,"Ġfannst":3230,"Ġ:":3231,"ustu":3232,"skonar":3233,"natt":3234,"ĠMiÃ°":3235,"aÃ°urinn":3236,"hel":3237,"Ġeigum":3238,"ebook":3239,"ĠfÃ¦Ã°ingar":3240,"ĠÃĨ":3241,"ĠfriÃ°":3242,"rÃŃÃ°":3243,"ĠlokiÃ°":3244,"ĠgagnrÃ½":3245,"Ġtiltek":3246,"ĠreglugerÃ°":3247,"Ġlaus":3248,"stofn":3249,"ikil":3250,"ĠStjÃ³rn":3251,"Ġklukkan":3252,"ĠÃ¾ÃŃna":3253,"alld":3254,"erkiÃ°":3255,"nes":3256,"ĠsÃ½nir":3257,"ĠhÃ¦kkun":3258,"aflokk":3259,"Ġhelg":3260,"yng":3261,"ungur":3262,"ĠÃ¡k":3263,"ĠHafnar":3264,"ingsÃ¡lyktunar":3265,"ĠtÃŃmabil":3266,"ĠnÃ½ta":3267,"ĠleiÃ°in":3268,"Ġ60":3269,"ĠaÃ°stÃ¦Ã°ur":3270,"Ġhn":3271,"AR":3272,"Ġbaka":3273,"gjald":3274,"ilt":3275,"ĠVÃŃsir":3276,"Ġtex":3277,"anleg":3278,"Ġreglur":3279,"Ġloka":3280,"ĠÃįslen":3281,"ĠÃ¾rÃ¡tt":3282,"Ġvexti":3283,"ĠhÃ¦tt":3284,"ĠStef":3285,"ĠmÃ¦tti":3286,"aÃ°num":3287,"Ġskrifa":3288,"Ġgestum":3289,"Ġgengur":3290,"amma":3291,"Ġafsl":3292,"vÃ¶ll":3293,"vinnslu":3294,"ĠvÃŃÃ°a":3295,"ĠvÃ¡":3296,"ĠtÃ³ku":3297,"eyjar":3298,"Ġbyrja":3299,"ĠGar":3300,"skt":3301,"ĠbaÃ°":3302,"Ġilla":3303,"liÃ°a":3304,"ĠheilbrigÃ°is":3305,"ĠLeik":3306,"hÃ¶fn":3307,"ĠJÃ¡":3308,"vir":3309,"brot":3310,"Greiningardeild":3311,"ĠtÃ¶lvup":3312,"spur":3313,"ĠhefÃ°":3314,"rauÃ°":3315,"ĠtÃ³nlist":3316,"ĠdagskrÃ¡":3317,"Ġhava":3318,"ĠVal":3319,"unna":3320,"acebook":3321,"aÃ°ist":3322,"hv":3323,"ĠfÃ©laga":3324,"ĠsÃŃnar":3325,"ĠframtÃŃÃ°":3326,"stir":3327,"Ġgangi":3328,"ĠmÃ¦ta":3329,"ĠsÃŃÃ°una":3330,"ssyni":3331,"Ġgaf":3332,"ĠafmÃ¦li":3333,"Ã©ttar":3334,"orlof":3335,"Ġleitar":3336,"Ġleyfi":3337,"Ġheitir":3338,"vÃ¶ru":3339,"ĠtÃ¦p":3340,"vil":3341,"skoÃ°un":3342,"ĠviÃ°skiptav":3343,"ĠJes":3344,"Ġdags":3345,"Ġvilt":3346,"jir":3347,"bÃ½li":3348,"tinn":3349,"ĠbrÃ©f":3350,"Ġmati":3351,"Ġlista":3352,"ĠÄº":3353,"bÃ¦jar":3354,"kku":3355,"ĠDa":3356,"ĠfarÃ¾":3357,"gangur":3358,"Ġhreyf":3359,"Ã¾jÃ¡lf":3360,"ĠspÃ¡um":3361,"hl":3362,"ĠsvÃ¶r":3363,"ĠnorÃ°ur":3364,"roy":3365,"mat":3366,"ĠlÃ¦g":3367,"ĠhÃ¡lf":3368,"Ġtelja":3369,"ĠÃ¡skil":3370,"ĠÃ¾angaÃ°":3371,"ĠnjÃ³ta":3372,"tals":3373,"kkar":3374,"ĠkjÃ¶lfar":3375,"ĠmiÃ°viku":3376,"ddur":3377,"ĠnÃ¦g":3378,"ĠvinsÃ¦":3379,"orku":3380,"ennd":3381,"ĠDr":3382,"komulag":3383,"ĠâĢ¦":3384,"ĠÃįslendinga":3385,"Ġfir":3386,"!!":3387,"22":3388,"rÃ¦na":3389,"Ġdug":3390,"fjÃ¶ll":3391,"ĠsÃ¶ng":3392,"aÃ°s":3393,"yÃ°":3394,"Ã¦s":3395,"strar":3396,"ĠgleÃ°":3397,"Ġuppi":3398,"Ġflyt":3399,"tr":3400,"ĠbÃ¦tt":3401,"lest":3402,"valda":3403,"Ã¦kur":3404,"ĠStarf":3405,"ĠgÃ¶m":3406,"ĠgÃ¶gn":3407,"For":3408,"ĠÃŀau":3409,"lan":3410,"Ã°is":3411,"ĠverÃ°bÃ³l":3412,"enÃ¦r":3413,"sdÃ³ttur":3414,"Ġleikur":3415,"60":3416,"ĠBjÃ¶rn":3417,"stÃ¦Ã°is":3418,"eÃ°iÃ°":3419,"ĠÃ¡f":3420,"ĠhljÃ³m":3421,"Ġbyggja":3422,"Ġ2010":3423,"atni":3424,"ĠÃ¡rangur":3425,"ĠframkvÃ¦mdastjÃ³":3426,"ĠpÃ³st":3427,"atrygg":3428,"Ġtilfinn":3429,"fÃ¦ri":3430,"ĠtÃ³nlistar":3431,"Ġev":3432,"ingunni":3433,"Ġjafna":3434,"amiÃ°":3435,"esk":3436,"ĠÃ¡kvaÃ°":3437,"Ġkarla":3438,"ĠÃºrskur":3439,"Ġskamm":3440,"Ġsamvinnu":3441,"Ġtveir":3442,"endir":3443,"ĠÃŃslenskum":3444,"Ġsamstarfi":3445,"Ġsigur":3446,"ĠrannsÃ³kn":3447,"kvÃ¶rÃ°un":3448,"ĠgÃ³Ã°um":3449,"stefnu":3450,"ĠolÃŃ":3451,"ĠsÃ©rfrÃ¦Ã°":3452,"ÃŃtal":3453,"ine":3454,"spor":3455,"arlega":3456,"ĠFrek":3457,"Ã³na":3458,"Ġfullkom":3459,"Ã°urinn":3460,"ĠTh":3461,"Ġtengslum":3462,"ĠFr":3463,"ĠIng":3464,"sal":3465,"Ġtekju":3466,"Ã³Ã°ir":3467,"ĠsÃŃÃ°astliÃ°":3468,"Ã¦ma":3469,"Ġto":3470,"ĠsjÃ¡lfur":3471,"ĠhÃ¦f":3472,"ÃŃÃ°a":3473,"Fyrir":3474,"ĠvandamÃ¡l":3475,"ĠblÃ³Ã°":3476,"umÃ¡l":3477,"ĠuppfÃ¦r":3478,"ikiÃ°":3479,"ĠÃ¡tta":3480,"ĉĊ":3481,"ĠSkip":3482,"JÃ¡":3483,"Ã¾jÃ³Ã°a":3484,"sli":3485,"Ġumhverfi":3486,"Ġvarnar":3487,"ĠhÃ¦ttu":3488,"ĠHug":3489,"Ġfylgjast":3490,"vegar":3491,"Ġstaf":3492,"sÃ¶gn":3493,"vara":3494,"asta":3495,"ay":3496,"ĠfÃ©lagiÃ°":3497,"Ã¶nnu":3498,"Ã¡st":3499,"ĠrannsÃ³knir":3500,"Ġnokkrar":3501,"Ã¸roy":3502,"ĠlÃ¦ra":3503,"ĠtÃ¡":3504,"Ġhim":3505,"ĠgÃ¶ngu":3506,"lind":3507,"ĠAustur":3508,"ĠsamÃ¾ykkt":3509,"luÃ°":3510,"Ġyng":3511,"Ġtey":3512,"ard":3513,"ĠhÃ¦tta":3514,"Ġflutt":3515,"ĠHoll":3516,"24":3517,"afirÃ°i":3518,"ingak":3519,"ĠÃ¾ÃŃnum":3520,"staka":3521,"ĠÃ¾ri":3522,"Ġkort":3523,"Ġsenn":3524,"ĠÃļt":3525,"ĠvÃ¶rur":3526,"Ġheit":3527,"ĠLÃ¶g":3528,"eyris":3529,"ĠÃ¾or":3530,"Ġvorum":3531,"Ã¦kk":3532,"Ã°ust":3533,"brÃ¶gÃ°":3534,"daga":3535,"Ġ2009":3536,"ĠslÃŃkt":3537,"ĠpersÃ³nuupp":3538,"ko":3539,"Ã¡ttÃºru":3540,"ĠrannsÃ³knar":3541,"jaÃ°":3542,"ĠLesa":3543,"fÃ³lk":3544,"Ġviljum":3545,"Ġherberg":3546,"Ã¦f":3547,"Ãºd":3548,"Ġkomi":3549,"Ġskilja":3550,"hÃºsinu":3551,"raust":3552,"Ġgagnvart":3553,"stein":3554,"ĠlandiÃ°":3555,"bÃºÃ°":3556,"ĠÃŀÃ³":3557,"www":3558,"Ġvinnslu":3559,"sker":3560,"Ġleggur":3561,"Ġbirt":3562,"ĠEins":3563,"jÃ¶gur":3564,"Ġdegi":3565,"Ġhelst":3566,"ĠskoÃ°aÃ°":3567,"ĠmÃ¦li":3568,"Ġhentar":3569,"ĠgÃ³Ã°ur":3570,"ogi":3571,"ĠtÃŃmabund":3572,"ĠSjÃ¡":3573,"ĠbÃºinn":3574,"ĠHeil":3575,"Ġeing":3576,"ĠhÃ¦r":3577,"ĠhjÃ¡l":3578,"ÃŀÃ¡":3579,"Ġmargar":3580,"ĠfjÃ¡rhag":3581,"ĠFrekari":3582,"Ãºmer":3583,"Ġkarl":3584,"Ġvest":3585,"ĠMo":3586,"unin":3587,"ĠÃ¾remur":3588,"ÃŃnu":3589,"SÃį":3590,"ĠrÃº":3591,"Ãºtveg":3592,"ĠThe":3593,"ĠÃ¾ÃŃn":3594,"Ġeigenda":3595,"ĠÃ¡rin":3596,"onur":3597,"rip":3598,"Ġdre":3599,"ĠtÃŃmi":3600,"ĠÃľ":3601,"Athug":3602,"Ã¡ra":3603,"Ġmestu":3604,"fre":3605,"Ġhaldinn":3606,"ĠsÃ©rst":3607,"Ã¶xtum":3608,"ĠdÃ¶gum":3609,"Ġek":3610,"Ġfang":3611,"ĠaÃ°ildar":3612,"ĠVil":3613,"lÃ¦ti":3614,"ĠÃ¾jÃ³nust":3615,"lingar":3616,"ĠFjÃ¶l":3617,"urÃ°":3618,"ÅĻ":3619,"ĠgarÃ°":3620,"ĠNÃ¡nar":3621,"Ã°ingu":3622,"vatn":3623,"ĠGuÃ°mund":3624,"ĠgÃ¡":3625,"ĠtilbÃº":3626,"Ġfrekari":3627,"Ġhjarta":3628,"ĠSum":3629,"agt":3630,"ĠSvÃŃ":3631,"spyr":3632,"legan":3633,"Ġstefn":3634,"ĠhefÃ°u":3635,"bergi":3636,"ĠMat":3637,"ilum":3638,"lat":3639,"ah":3640,"ĠframtÃŃÃ°ar":3641,"Ġbetra":3642,"ĠljÃº":3643,"engd":3644,"Ã¶gÃ°u":3645,"ĠAllar":3646,"ĠÃ½mi":3647,"braut":3648,"Ġhugsa":3649,"Ã©lÃ¶gum":3650,"tÃ¦ki":3651,"ĠÃ³v":3652,"ĠgerÃ°ar":3653,"ÃŃka":3654,"Ġsamkeppni":3655,"amb":3656,"ĠÃºtgÃ¡fu":3657,"ĠheimsvÃŃsu":3658,"Ġneitt":3659,"ĠvefsÃŃÃ°unni":3660,"Ġnemenda":3661,"ork":3662,"enti":3663,"Ġvek":3664,"Ã¶nn":3665,"ĠEvrÃ³pusambandsins":3666,"Ġbre":3667,"ĠlÃŃtil":3668,"oft":3669,"einu":3670,"ĠfÃ¶r":3671,"Ġefla":3672,"ĠLau":3673,"verkefni":3674,"Ġgildir":3675,"HvaÃ°":3676,"ĠnÃ¡lgast":3677,"eyfi":3678,"Ġeinkum":3679,"lÃŃn":3680,"Ġframan":3681,"Ġsambandi":3682,"Å¾":3683,"Ġliggja":3684,"ĠnÃ½jum":3685,"26":3686,"Ġkra":3687,"Ġmanni":3688,"ĠbrÃº":3689,"Ġeinka":3690,"ĠInn":3691,"par":3692,"ĠEES":3693,"haldi":3694,"sÃ¦":3695,"iti":3696,"Ġborginni":3697,"ĠrÃ¡Ã°a":3698,"Ġkeppni":3699,"âĢĵ":3700,"Ġskiptir":3701,"ĠmÃŃnÃºtur":3702,"ĠfjÃ¶lbreytt":3703,"ĠfrÃ©ttir":3704,"Ġkross":3705,"Ġlauna":3706,"Ġfalla":3707,"skiptum":3708,"mitt":3709,"Ġnefna":3710,"lugg":3711,"ĠgrÃ¡":3712,"ĠstyÃ°ja":3713,"Eins":3714,"90":3715,"elti":3716,"Ġdreif":3717,"Ã³ka":3718,"23":3719,"ĠeingÃ¶ngu":3720,"legra":3721,"ĠumboÃ°":3722,"Ã°ing":3723,"olf":3724,"ĠmÃŃnu":3725,"ĠÃ¾Ã¡tttak":3726,"mum":3727,"ĠÃŀÃ½":3728,"ĠhÃ©rna":3729,"eyma":3730,"Ġbekk":3731,"Ġvettv":3732,"Ġdagana":3733,"ĠlÃŃnu":3734,"ata":3735,"efur":3736,"Ġ35":3737,"ĠX":3738,"Ġvann":3739,"lis":3740,"Ġhorf":3741,"ĠfjÃ¶lskyldu":3742,"angri":3743,"aldur":3744,"ekt":3745,"rÃ¦Ã°ur":3746,"arÃ¡Ã°herra":3747,"ĠAlÃ¾ingi":3748,"Ġgreinar":3749,"Ġsinnum":3750,"Ã³pav":3751,"Ġsendi":3752,"Hver":3753,"Ġumsagnir":3754,"ssv":3755,"stum":3756,"Ġherbergi":3757,"ĠsvÃ¦Ã°iÃ°":3758,"ĠnÃ¡nast":3759,"rÃŃm":3760,"ĠFjÃ¡r":3761,"Ġgamla":3762,"Ġvaxta":3763,"ĠjarÃ°ar":3764,"ter":3765,"alegt":3766,"ĠrÃŃki":3767,"ĠfjÃ¶gur":3768,"Ġfundar":3769,"Ġfari":3770,"byggÃ°":3771,"Ġlausn":3772,"Ġrekstur":3773,"ĠbrÃ¡":3774,"ĠMÃ©r":3775,"ĠRÃ¡Ã°":3776,"Ã½st":3777,"ĠhvenÃ¦r":3778,"Ġsent":3779,"ĠleiÃ°bein":3780,"ĠbÃ¶rnum":3781,"ĠOp":3782,"ĠfÃ¦ra":3783,"ĠsÃ¡tt":3784,"ĠnÃ¡kvÃ¦m":3785,"ldu":3786,"ĠgististaÃ°num":3787,"ĠviÃ°bur":3788,"Ġpre":3789,"Ġ196":3790,"ingaÃ°":3791,"ĠÃ¾rjÃº":3792,"ĠEinar":3793,"Ġfylgir":3794,"mÃ¡lum":3795,"auÃ°a":3796,"ĠJafn":3797,"ĠbÃ¡Ã°":3798,"ĠÃ¾ung":3799,"ĠÄĮ":3800,"hÃºsi":3801,"skal":3802,"ĠorÃ°in":3803,"ĠleiÃ°andi":3804,"Ã¶gg":3805,"Ġhest":3806,"Ġhanda":3807,"ĠurÃ°u":3808,"stÃ¦Ã°isflokk":3809,"ĠGu":3810,"ĠfrÃ¦Ã°slu":3811,"ĠtrÃºnaÃ°aryfirlÃ½s":3812,"Ġeignar":3813,"ingastefnunefnd":3814,"45":3815,"ĠNorÃ°url":3816,"ĠÃ³breytt":3817,"ĠÃ¾akk":3818,"ĠfjÃ¡rmÃ¡la":3819,"ĠtilboÃ°":3820,"fel":3821,"Ġbyrjun":3822,"Ġspennandi":3823,"Ġkrist":3824,"ĠHalld":3825,"ĠZ":3826,"Ġhendi":3827,"Ein":3828,"ĠlÃŃta":3829,"ĠhÃ¶nnun":3830,"eignar":3831,"Ġskyn":3832,"ass":3833,"rÃ©tta":3834,"ĠaÃ°ild":3835,"ĠhjÃºk":3836,"Ġhendur":3837,"ĠvÃŃsind":3838,"ĠÃŀÃ¦r":3839,"ĠrÃ³":3840,"ĠAÃ°al":3841,"ĠSÃŃÃ°an":3842,"eÃ°ferÃ°":3843,"ĠRÃŃk":3844,"ĠÃ¦ttu":3845,"Ġtill":3846,"kvÃ¦Ã°agreiÃ°":3847,"gjandi":3848,"las":3849,"TA":3850,"ĠAllir":3851,"Ġveitir":3852,"ĠtÃŃmar":3853,"Ġfell":3854,"ĠstÃ½ri":3855,"Ġ2007":3856,"ĠÃºrval":3857,"ĠsjÃ¡l":3858,"Ġbirti":3859,"Ã¡mskeiÃ°":3860,"min":3861,"eina":3862,"ĠmilljÃ³n":3863,"avÃ©l":3864,"hÃ¡tÃŃÃ°":3865,"mÃ¶nnum":3866,"Ġhvet":3867,"gerÃ°ar":3868,"ĠstÃ¦rsta":3869,"ungu":3870,"ĠhafiÃ°":3871,"ĠÃŀing":3872,"launa":3873,"Ġhaldin":3874,"hÃºsiÃ°":3875,"ĠtvÃŃ":3876,"ĠVestur":3877,"Ġgat":3878,"ĠVeg":3879,"Ġemb":3880,"Ġvikur":3881,"eiÃ°andi":3882,"Ġfengu":3883,"spek":3884,"tinu":3885,"estu":3886,"Ġgeym":3887,"ĠverÃ°lag":3888,"ĠSigurÃ°":3889,"Af":3890,"Ġaldur":3891,"myndir":3892,"runa":3893,"Ġhorfa":3894,"ĠKÃ³pav":3895,"27":3896,"ĠmÃ¶guleika":3897,"Ġful":3898,"ennum":3899,"jÃ³rÃ°ung":3900,"ĠhefÃ°bund":3901,"Ġraunverulegum":3902,"jÃ¸r":3903,"Ġfall":3904,"ĠÃ¾urfi":3905,"ĠgrÃ¦n":3906,"21":3907,"Ġlauk":3908,"Ã³knar":3909,"ĠstaÃ°inn":3910,"ĠÃ¶ryggi":3911,"Ã¶tt":3912,"skipulag":3913,"Ġsko":3914,"ĠsÃŃst":3915,"rÃ¡Ã°herra":3916,"ĠÃ¾inn":3917,"ĠgrÃŃÃ°ar":3918,"raf":3919,"ĠmiÃ°ur":3920,"ĠÃ³k":3921,"agÃ°":3922,"ls":3923,"co":3924,"ĠumsÃ³kn":3925,"ĠFacebook":3926,"ĠÃ¾Ã½Ã°ir":3927,"mÃ¦l":3928,"manns":3929,"ĠmÃ¡la":3930,"Starf":3931,"Ġmen":3932,"ĠkrÃ¶fur":3933,"ĠmÃ¡lum":3934,"Ġeinmitt":3935,"Ġmatar":3936,"Ġheildar":3937,"Ġmunum":3938,"ĠnauÃ°synlegt":3939,"bÃ¶nd":3940,"Ġmeta":3941,"ĠlÃ©tt":3942,"Ġsund":3943,"ĠhÃ¶fuÃ°borgar":3944,"raÃ°ra":3945,"Ġspurning":3946,"amerkiÃ°":3947,"janna":3948,"ils":3949,"ĠljÃ³si":3950,"setning":3951,"sjÃ¡":3952,"ĠrÃ¦tt":3953,"âĢ¦]":3954,"Ġ90":3955,"Ġalmann":3956,"ĠÃ¶ryggis":3957,"ĠrÃ½":3958,"ĠHans":3959,"ĠalgjÃ¶r":3960,"nist":3961,"nter":3962,"ĠviÃ°urkenn":3963,"ĠGÃŃ":3964,"ĠgeÃ°":3965,"Ġerlendis":3966,"Ġhverja":3967,"Ġheimili":3968,"ĠmÃ¦ld":3969,"hring":3970,"Ã³Ã°a":3971,"rÃŃki":3972,"ĠÃ¾at":3973,"Ġvernd":3974,"Å¡":3975,"Ġyfirleitt":3976,"Ġlangar":3977,"Ġkosti":3978,"ĠLÃŃf":3979,"kast":3980,"rÃ¦Ã°um":3981,"Ġton":3982,"agi":3983,"skor":3984,"ĠverÃ°laun":3985,"ĠtÃŃu":3986,"ĠhjÃ¡lpa":3987,"ĠstrÃ¡":3988,"fylk":3989,"Ġflytja":3990,"agerÃ°":3991,"ĠhÃ¡r":3992,"bolta":3993,"ĠsjÃ¡lfsÃ¶gÃ°u":3994,"ĠfÃ³tspor":3995,"ĠguÃ°":3996,"Ã³Ã°ur":3997,"ĠmÃŃna":3998,"Ġeftirfarandi":3999,"Ġneyt":4000,"lÃŃtiÃ°":4001,"Ġhelgi":4002,"minn":4003,"efla":4004,"hÃºsnÃ¦Ã°i":4005,"Booking":4006,"ĠVerÃ°":4007,"ĠaÃ°stoÃ°ar":4008,"Ġak":4009,"Ġstunda":4010,"Ġbenda":4011,"Ġhra":4012,"ĠÃ¾yr":4013,"37":4014,"saÃ°":4015,"vallar":4016,"2003":4017,"ĠÃ³vart":4018,"Ġreglulega":4019,"ĠsuÃ°ur":4020,"Ġsvara":4021,"dar":4022,"ĠaldraÃ°ra":4023,"velt":4024,"eftirlit":4025,"ilegum":4026,"ĠMÃ¡l":4027,"Ġ31":4028,"met":4029,"Ã¦tisrÃ¡Ã°":4030,"ĠÃ¡skilur":4031,"ĠdÃ³tt":4032,"ĠÃ¶rugg":4033,"ĠrÃŃkisstjÃ³rn":4034,"ĠsjÃ³nar":4035,"ib":4036,"not":4037,"ĠÃ¶flug":4038,"ĠÅ¡ÃŃ":4039,"ĠSl":4040,"ĠbÃ½r":4041,"ĠHÃ¦gt":4042,"ĠJo":4043,"vÃŃsindi":4044,"ĠleiÃ°a":4045,"Ġsvok":4046,"ĠaÃ°alf":4047,"%.":4048,"ĠÃĿ":4049,"Ġstel":4050,"ĠAm":4051,"erÃ°a":4052,"eldu":4053,"Ġvelkom":4054,"vÃ¦g":4055,"one":4056,"Ġskilyr":4057,"ĠbÃ¶rnin":4058,"ĠstÃŃ":4059,"Ġskapa":4060,"Ã¾Ã¡tt":4061,"Ġhepp":4062,"ĠÃ¾ekkingu":4063,"ĠfjÃ¡rmagn":4064,"Ġskot":4065,"28":4066,"skot":4067,"ĠÃ¾riggja":4068,"dda":4069,"stÃ³l":4070,"ĠÃ¡fangast":4071,"ĠSamkvÃ¦mt":4072,"ĠHÃ¶f":4073,"2007":4074,"ĠnotuÃ°":4075,"ĠskÃ¡k":4076,"Ġheiminum":4077,"Ġaldri":4078,"ĠFrÃ©ttir":4079,"ĠlÃ¡tiÃ°":4080,"Ġflestir":4081,"nuÃ°i":4082,"ĠSÃº":4083,"ĠskoÃ°un":4084,"Ġnei":4085,"ĠumfjÃ¶ll":4086,"ĠSm":4087,"mÃ³t":4088,"Ġvitum":4089,"ĠstjÃ³rnvÃ¶ld":4090,"jÃºp":4091,"merk":4092,"ĠfyrirtÃ¦kiÃ°":4093,"Ġ[âĢ¦]":4094,"Hann":4095,"stofunnar":4096,"rÃ©ttinda":4097,"valiÃ°":4098,"Ġtap":4099,"dr":4100,"ĠfrÃ©tta":4101,"bili":4102,"amÃ¡la":4103,"emma":4104,"ĠkÃ¦randa":4105,"Ġupplifun":4106,"ĠferÃ°alag":4107,"Ã¶nnunar":4108,"skra":4109,"ĠÃ¸":4110,"lak":4111,"LA":4112,"Ġfremur":4113,"eiÃ°i":4114,"jÃ¶rnu":4115,"Ġskipa":4116,"ĠÃŃs":4117,"ĠsamÃ¾ykki":4118,"ĠÃįslendingar":4119,"Ġmiklum":4120,"ĠHall":4121,"Ġfremst":4122,"gild":4123,"steinn":4124,"Ġeinfaldlega":4125,"ason":4126,"ĠbeiÃ°":4127,"ĠgÃ¦tu":4128,"ĠsÃ½nt":4129,"nef":4130,"gangna":4131,"ĠskÃ³lans":4132,"samtÃ¶k":4133,"ĠgrÃ¦":4134,"Ã©tur":4135,"ĠGl":4136,"Ġbirtist":4137,"Ã¾jÃ³nust":4138,"magn":4139,"Ġkirkju":4140,"ĠHlu":4141,"kvÃ¶ld":4142,"ĠkjÃ¶":4143,"Ġforseta":4144,"ĠgÃ³Ã°ar":4145,"ĠLP":4146,"eift":4147,"57":4148,"heyr":4149,"isini":4150,"anefnd":4151,"33":4152,"afÃ©lÃ¶g":4153,"ĠsÃ³lar":4154,"Ġengu":4155,"argerÃ°":4156,"Ġmyndum":4157,"ies":4158,"ĠendurnÃ½":4159,"Ã°ingar":4160,"\".":4161,"SÃŃ":4162,"sÃ½slu":4163,"Ġfat":4164,"Ġgrundvelli":4165,"ĠFrÃ¡":4166,"Fyr":4167,"ĠniÃ°urstÃ¶Ã°ur":4168,"ons":4169,"ĠhingaÃ°":4170,"ĠAuk":4171,"lÃŃÃ°":4172,"Ġofb":4173,"spyrnu":4174,"nni":4175,"Ġvara":4176,"ĠSmÃ¡":4177,"ĠlÃŃfs":4178,"ĠvÃŃst":4179,"jÃ³st":4180,".-":4181,"oga":4182,"Umhverfis":4183,"ĠfyrirtÃ¦kisins":4184,"Ġtrey":4185,"edik":4186,"ĠhÃ¡tÃŃÃ°":4187,"ĠhjÃ³l":4188,"ondon":4189,"ĠnÃ¡ttÃºr":4190,"skir":4191,"Ġjafnt":4192,"auka":4193,"An":4194,"Ġkeyp":4195,"ĠlÃ¶greglu":4196,"ĠHins":4197,"Ġhvetur":4198,"Ġfirm":4199,"ĠbarniÃ°":4200,"Ġreglum":4201,"alÃ¶g":4202,"frÃ¦Ã°ingur":4203,"framleiÃ°":4204,"bbam":4205,"ĠskÃ½rslu":4206,"ĠnÃºverandi":4207,"ĠLjÃ³smynd":4208,"ĠslÃ¡":4209,"Ġspar":4210,"qu":4211,"Ġvist":4212,"Ġinnlegg":4213,"Ġleig":4214,"ĠSjÃ¡lfstÃ¦Ã°isflokk":4215,"afor":4216,"ĠStefÃ¡n":4217,"Ġeinhverju":4218,"ĠÃ¡Ã¦tlun":4219,"ĠKristjÃ¡n":4220,"tillaga":4221,"vÃ¶l":4222,"Ġhlaup":4223,"ox":4224,"Hotels":4225,"vega":4226,"Ġgerast":4227,"ĠmÃ¶nnum":4228,"ĠauglÃ½singak":4229,"Ġrif":4230,"ĠnÃ½skÃ¶p":4231,"stund":4232,"ĠundanfÃ¶r":4233,"ĠviÃ°urk":4234,"legs":4235,"svar":4236,"lÃ½st":4237,"ub":4238,"Ġseinni":4239,"mennt":4240,"ĠsÃ½n":4241,"ĠnÃ¡grenni":4242,"de":4243,"verÃ°laun":4244,"ĠÃ¾jÃ³nusta":4245,"ĠÃ¡rsf":4246,"ifreiÃ°":4247,"ĠfirmamerkiÃ°":4248,"ve":4249,"ĠtrÃºar":4250,"ross":4251,"Ġhvorki":4252,"ĠauglÃ½singakÃ¶kum":4253,"ninni":4254,"dÃ¶gum":4255,"bands":4256,"ĠskÃ³":4257,"Ġlesendur":4258,"ĠÃ¦tlar":4259,"//":4260,"Ġstyrkja":4261,"ĠÃ¡lag":4262,"ferÃ°ir":4263,"ĠÅº":4264,"Ġsetti":4265,"mÃ¶rk":4266,"ĠfÃ¦ri":4267,"festa":4268,"gÃ¶ng":4269,"ankinn":4270,"laÃ°i":4271,"till":4272,"ĠÃ¾Ã¦tti":4273,"ĠmjÃ³l":4274,"Ġref":4275,"ĠatriÃ°i":4276,"vikum":4277,"ĠsÃ¶f":4278,"Ġstill":4279,"ĠtÃ¶lvu":4280,"Ġtals":4281,"ĠstÃ¶rfum":4282,"ĠlandbÃºnaÃ°ar":4283,"Ġvinnur":4284,"jarnan":4285,"ĠJÃ³nsson":4286,"ĠfljÃ³t":4287,"Ġgerist":4288,"urum":4289,"ĠkrÃ¶fu":4290,"aupp":4291,"ĠDavÃŃ":4292,"ĠLondon":4293,"Ġopna":4294,"skÃ³lans":4295,"otn":4296,"lapp":4297,"Ã¸g":4298,"ĠfrÃ¦":4299,"eypt":4300,"ĠÃ¾urfti":4301,"skÃ³lanum":4302,"Ġmegi":4303,"ps":4304,"29":4305,"ĠbÃºs":4306,"Ãºbb":4307,"tilboÃ°":4308,"Ġskulda":4309,"bÃºnaÃ°":4310,"Ġvantar":4311,"ĠRÃºss":4312,"Ġauki":4313,"junum":4314,"Ġman":4315,"ĠdÃ½":4316,"Ġstefnum":4317,"ĠliÃ°iÃ°":4318,"utt":4319,"rÃ¦kt":4320,"ens":4321,"Ġselja":4322,"oc":4323,"ĠsÃ½nd":4324,"Ġheyra":4325,"ĠGÃ³Ã°":4326,"ĠsjÃ¡lfst":4327,"runar":4328,"andinn":4329,"39":4330,"Ġbreg":4331,"aÃ°an":4332,"eistara":4333,"deildar":4334,"ĠMa":4335,"arinn":4336,"Ġsyn":4337,"Ġ80":4338,"Ã¦ttir":4339,"ĠtillÃ¶g":4340,"ĠÃ¡kvar":4341,"Ġnotend":4342,"ĠnÃ½rri":4343,"uleik":4344,"Ġhelgina":4345,"Ġskyldur":4346,"ĠIngi":4347,"ĠSÃ³l":4348,"SA":4349,"Ġflestum":4350,"ĠborÃ°a":4351,"Ġrekstrar":4352,"ĠfÃ¡i":4353,"ĠBerg":4354,"Og":4355,"ĠkrÃ³nur":4356,"ĠÃ¾aÃ°an":4357,"ĠrÃŃkisstjÃ³rnar":4358,"ĠBygg":4359,"ity":4360,"Ġkaffi":4361,"Ġhugmyndir":4362,"Ġkafla":4363,"amlega":4364,"breyt":4365,"yst":4366,"ĠÃŀÃ½skal":4367,"1997":4368,"verslun":4369,"skrÃ¡r":4370,"://":4371,"Ġslepp":4372,"Ġdvel":4373,"Äį":4374,"ĠhÃ¶ndum":4375,"ĠÃĸr":4376,"Ġbrott":4377,"ph":4378,"ddu":4379,"ord":4380,"36":4381,"ras":4382,"Ġhaming":4383,"Ġlokum":4384,"Ġnef":4385,"ĠFriÃ°":4386,"2008":4387,"Ġ38":4388,"ĠÃ¾Ã¦g":4389,"Ġgestir":4390,"ĠAlÃ¾ingis":4391,"ĠÃ¡rangri":4392,"erni":4393,"Ġhi":4394,"shaf":4395,"jÃ³Ã°um":4396,"stofan":4397,"Ġminnsta":4398,"ĠafslÃ¦tti":4399,"ĠtÃ¶f":4400,"Ġjafnan":4401,"Ġlitla":4402,"ĠÃ¾Ã©tt":4403,"lir":4404,"iz":4405,"ĠkÃ¶rf":4406,"Ġkynningar":4407,"ĠÃ¡ttu":4408,"ĠbyrjaÃ°i":4409,"ĠÃ³trÃºlega":4410,"Ġalgeng":4411,"Ġnotum":4412,"Ãŀar":4413,"ĠstÃ¦rri":4414,"ĠHalldÃ³r":4415,"Ġflutning":4416,"Ġatvinnur":4417,"ĠFinn":4418,"ĠhÃºÃ°":4419,"eysi":4420,"Ġnein":4421,"ĠvÃŃÃ°":4422,"ĠÃŃÃ¾rÃ³tta":4423,"Ġkem":4424,"Ġfug":4425,"ĠÃ¡hygg":4426,"Ġverulega":4427,"aferÃ°":4428,"hugavert":4429,"Ġsetur":4430,"bÃ¦tur":4431,"Pen":4432,"ĠSÃ©r":4433,"herbergi":4434,"Ã¡kvÃ¶rÃ°un":4435,"blaÃ°iÃ°":4436,"ĠstÃ³ra":4437,"Ã¾ro":4438,"ĠfullorÃ°":4439,"ĠlitiÃ°":4440,"Ġbreyting":4441,"ĠmÃ³Ã°ur":4442,"Ġfelur":4443,"halda":4444,"ĠmÃ¡linu":4445,"Ġmag":4446,"ĠMorgun":4447,"Ġhvern":4448,"ĠBenedik":4449,"Ġformi":4450,"ĠgjÃ¶r":4451,"hol":4452,"Ġuppf":4453,"Ġteir":4454,"Ġeinhverjum":4455,"ĠÃ¦rum":4456,"Ġpott":4457,"Ġkomst":4458,"Ġdagsins":4459,"ĠnotiÃ°":4460,"atryggingar":4461,"ster":4462,"ĠsvÃ¡":4463,"ĠsÃ½ningar":4464,"Ġnokkra":4465,"skuld":4466,"ĠKr":4467,"Ġtald":4468,"Ġ/>":4469,"nÃ¡":4470,"ĠauÃ°velt":4471,"ĠÃ¾ro":4472,"ĠtÃ¦ki":4473,"ĠaÃ°gerÃ°ir":4474,"ĠfjarlÃ¦gja":4475,"ĠlagÃ°i":4476,"ĠjÃ¶rÃ°":4477,"eypis":4478,"Ġgreidd":4479,"Ġflott":4480,"slunni":4481,"Ġella":4482,"sÃ¶gu":4483,"Ã¶gur":4484,"ĠKaupmanna":4485,"ĠÃ¾jÃ³Ã°arinnar":4486,"70":4487,"ĠmÃ¡lefn":4488,"burÃ°ar":4489,"35":4490,"Ġteik":4491,"ĠlÃŃkt":4492,"ĠferÃ°ast":4493,"ĠtÃ³nleik":4494,"ĠÃ³sÃ¦m":4495,"sjÃºk":4496,"ĠheimsÃ³kn":4497,"jiÃ°":4498,"ĠÃ¾urft":4499,"ĠÃ¦rumeiÃ°andi":4500,"Ġertu":4501,"ĠÃ³hÃ¡Ã°":4502,"ĠÃ¡hersla":4503,"eys":4504,"Ġfullt":4505,"Ġkynnt":4506,"ĠÃŃbÃºÃ°":4507,"ĠnÃ¡Ã°i":4508,"th":4509,"ĠTrygg":4510,"ĠAkureyr":4511,"aleik":4512,"anta":4513,"amÃ¶nnum":4514,"ĠÃ¾Ã¡tttÃ¶ku":4515,"Ġ36":4516,"Ġveru":4517,"Peningastefnunefnd":4518,"GuÃ°":4519,"Ekki":4520,"ĠsveitarstjÃ³rnar":4521,"ĠsamÃ¾ykkja":4522,"Ġrang":4523,"ĠArnar":4524,"Ġsitja":4525,"sÃ½n":4526,"arfÃ©lÃ¶g":4527,"ĠstaÃ°rey":4528,"ĠÃ¡hugaver":4529,"ĠPÃ©tur":4530,"ĠfrjÃ¡ls":4531,"ĠSem":4532,"Ġerlendra":4533,"Ġeinni":4534,"ĠblÃ¡":4535,"ĠgÃ³Ã°an":4536,"Ġsamskipti":4537,"ĠLandsb":4538,"juna":4539,"38":4540,"ĠstofnaÃ°":4541,"48":4542,"Ġkeyr":4543,"ĠsÃŃÃ°unni":4544,"ĠKefla":4545,"form":4546,"Ġgilda":4547,"ĠEyjar":4548,"ĠÃ¾urr":4549,"Ġverkefna":4550,"Ġvinstri":4551,"ĠlÃŃfeyris":4552,"ĠhÃ¡mark":4553,"jÃ³Ã°s":4554,"Ġvo":4555,"ĠVeriÃ°":4556,"ĠCo":4557,"ĠNÃ¡ttÃºru":4558,"allt":4559,"iga":4560,"ugrein":4561,"Ã³sti":4562,"Ġeisini":4563,"afrÃ¦Ã°":4564,"Ġ2006":4565,"horn":4566,"ĠBretl":4567,"Ġensku":4568,"ĠskÃ¡ld":4569,"ĠrÃºmlega":4570,"Ġbendir":4571,"ĠafleiÃ°":4572,"Ġerindi":4573,"Ġ45":4574,"laup":4575,"ĠsamtÃ¶k":4576,"ĠÃºrslit":4577,"Ġreynd":4578,"ĠsjÃ¡lfum":4579,"nbsp":4580,"ĠNew":4581,"gun":4582,"afÃ©lags":4583,"ris":4584,"Ġathuga":4585,"ĠalÃ¾ing":4586,"eing":4587,"Ġsek":4588,"2010":4589,"mir":4590,"Ã¾jÃ³nusta":4591,"ĠgÃ¶gnum":4592,"ĠtÃ¶lur":4593,"skvÃ¶ld":4594,"SK":4595,"ĠÃ¡lit":4596,"ĠviÃ°skipti":4597,"brÃ©":4598,"Ġoftast":4599,"ER":4600,"jÃ¶rÃ°":4601,"ĠsÃ½ning":4602,"litiÃ°":4603,"fÃ©laga":4604,"jalla":4605,"int":4606,"ĠvÃŃsit":4607,"Ġuppbyggingu":4608,"Ġafla":4609,"ĠlÃŃfrÃ¦":4610,"Ġkennara":4611,"bÃºnaÃ°ur":4612,"ĠafgreiÃ°slu":4613,"Ġtann":4614,"gjafar":4615,"ĠgerÃ°u":4616,"Ġumfram":4617,"ĠfÃ³lkiÃ°":4618,"Ġtakmark":4619,"Ġundirrit":4620,"Ġam":4621,"isku":4622,"Ġhelm":4623,"kerfiÃ°":4624,"Ġ?":4625,"ĠstjÃ³rnvalda":4626,"andarÃŃ":4627,"Ġfasteigna":4628,"Ġglugg":4629,"ingarinnar":4630,"Ġmarga":4631,"ĠÃºtlend":4632,"ĠlÃ¦kni":4633,"ĠReykjan":4634,"Ġefnis":4635,"Ġsamein":4636,"Ġyngri":4637,"ĠtÃ³lf":4638,"ÃĨ":4639,"ĠkostnaÃ°":4640,"Ġkjara":4641,"aum":4642,"Hug":4643,"ĠfyrirtÃ¦kjum":4644,"ĠmÃ¡naÃ°ar":4645,"ĠatvinnulÃŃf":4646,"bÃ³ta":4647,"greind":4648,"ĠrÃ©ttar":4649,"ĠhÃ³fst":4650,"ĠnÃ½jar":4651,"setningar":4652,"Ġnetfang":4653,"ĠklÃ¡r":4654,"ĠPr":4655,"Ġbyggir":4656,"ĠpersÃ³nuverndar":4657,"Ġfyll":4658,"ildu":4659,"ĠÃ¡rsfjÃ³rÃ°ung":4660,"Ġvirkni":4661,"Ġleikinn":4662,"ĠlÃº":4663,"dÃ³ma":4664,"ave":4665,"ĠskrifaÃ°":4666,"ĠTÃŃ":4667,"Ġsvefn":4668,"Ġkomist":4669,"Ġlengri":4670,"Ġeinstaklingar":4671,"Ġfelst":4672,"heldur":4673,"Ġrak":4674,"ĠMagnÃºs":4675,"Ġloknu":4676,"BA":4677,"Ġspurningar":4678,"skÃ¶nnun":4679,"ĠÐ":4680,"ĠsÃ³":4681,"Ġsamgangna":4682,"Ġheg":4683,"lung":4684,"05":4685,"ĠsnjÃ³":4686,"Ġtengjast":4687,"ĠBjarna":4688,"dagur":4689,"ĠvarÃ°a":4690,"ĠhÃ¦fi":4691,"ĠummÃ¦li":4692,"elltu":4693,"rett":4694,"ĠauÃ°veldlega":4695,"ĠpÃŃ":4696,"ĠGo":4697,"Ġverkefnum":4698,"ylg":4699,"undu":4700,"bÃŃll":4701,"ÃŀÃº":4702,"ĠtÃ³m":4703,"jÃ³nar":4704,"legir":4705,"fara":4706,"gerÃ°a":4707,"ĠlÃŃfeyriss":4708,"](":4709,"55":4710,"ĠhÃ¦kki":4711,"Ġhlutfall":4712,"ĠKarl":4713,"ĠdÃ¡":4714,"ns":4715,"rÃ¦k":4716,"ĠBenedikt":4717,"Ġmenntun":4718,"foss":4719,"Ġmikinn":4720,"Heim":4721,"47":4722,"Ã³stur":4723,"Ġkvikmynda":4724,"lÃ¡ss":4725,"Ġbankans":4726,"ĠstuÃ°la":4727,"Ġhinu":4728,"ĠÃ³keypis":4729,"Ġar":4730,"ven":4731,"jÃ¶rÃ°um":4732,"ĠlÃ½Ã°rÃ¦Ã°i":4733,"Ġâ":4734,"Ã¾Ã³r":4735,"smÃ¶nnum":4736,"ĠtillÃ¶gu":4737,"boÃ°i":4738,"gÃ¦":4739,"gerÃ°ir":4740,"ĠSamfylk":4741,"ĠsjÃ¡varÃºtveg":4742,"Ġhreins":4743,"atkvÃ¦Ã°agreiÃ°":4744,"ĠÃ½msar":4745,"ilinn":4746,"ĠGet":4747,"dam":4748,"Ġsein":4749,"Ġverslun":4750,"afÃ³lks":4751,"ĠvaxtaÃ¡kvÃ¶rÃ°un":4752,"svÃ¦Ã°iÃ°":4753,"vum":4754,"skyn":4755,"Ã³litÃŃ":4756,"eign":4757,"ĠmÃ¶rk":4758,"Ġkenna":4759,"49":4760,"Ġhefir":4761,"Ġfjalla":4762,"Ġeinst":4763,"ham":4764,"ĠÃŃbÃºÃ°ar":4765,"aut":4766,"ĠlÃ½st":4767,"vint":4768,"AthugiÃ°":4769,"ĠlÃ¡gmark":4770,"ĠGuÃ°s":4771,"ÃŃkur":4772,"Ġtoll":4773,"fisins":4774,"ĠBÃŃ":4775,"trÃ©":4776,"ingsÃ¡lyktunartillaga":4777,"dagskvÃ¶ld":4778,"ĠhjÃ¡lpar":4779,"ĠBÃ¦":4780,"hÃºss":4781,"Ġseinna":4782,"rÃ³Ã°ur":4783,"ĠstÃ¶Ã°ug":4784,"marg":4785,"Ġskipt":4786,"Ġgjaldeyris":4787,"ĠStof":4788,"ĠolÃŃu":4789,"ĠHollandi":4790,"anga":4791,"ĠÃ¾urfum":4792,"Ãģhugavert":4793,"Ġlest":4794,"kirk":4795,"ĠniÃ°":4796,"ĠÃ¾Ã³tti":4797,"Ġstein":4798,"Ġsner":4799,"ĠbÃŃÃ°a":4800,"ĠmÃ¡lsins":4801,"ĠLÃ¡":4802,"ĠviÃ°bÃ³tar":4803,"ĠAnnar":4804,"Ãŀess":4805,"ĠhÃ¶fuÃ°borgarsvÃ¦Ã°inu":4806,"ĠtungumÃ¡l":4807,"tryggingar":4808,"ĠviÃ°horfskÃ¶nnun":4809,"rÃ¡Ã°uneyti":4810,"-,":4811,"Ġtaki":4812,"pl":4813,"ĠÃĵlafur":4814,"anni":4815,"Ġmeg":4816,"Ġeiginlega":4817,"ran":4818,"ĠlÃŃfiÃ°":4819,"nÃ¦g":4820,"samtaka":4821,"emendur":4822,"ĠsÃ¡r":4823,"nings":4824,"heimild":4825,"ĠFerÃ°":4826,"Ġhamingju":4827,"sset":4828,"ĠSÃ½":4829,"ĠvinnumarkaÃ°i":4830,"kunar":4831,"ĠhrÃ¡":4832,"Ġframl":4833,"ĠbÃ¦jarmÃ¡la":4834,"jÃ³Ã°i":4835,"Ġlifa":4836,"ĠSÃ¡":4837,"our":4838,"arfrÃ¦Ã°":4839,"Ã¶lum":4840,"ĠsÃ©st":4841,"ĠmÃ³tt":4842,"Ġrekstri":4843,"esti":4844,"ÃŀingsÃ¡lyktunartillaga":4845,"ĠRÃº":4846,"ĠskilaÃ°":4847,"Ġendilega":4848,"Ġfjallar":4849,"lsi":4850,"arÃ¡Ã°uneyti":4851,"Ġtilraun":4852,"ĠhrÃ¦":4853,"issjÃ³Ã°s":4854,"ĠÃ¾akka":4855,"ĠkjÃ³":4856,"Ã³ti":4857,"Ã³nus":4858,"ĠstjÃ³r":4859,"Ġvott":4860,"sÃ½ni":4861,"ĠsjÃ³Ã°sins":4862,"aÃ°ili":4863,"ĠvaliÃ°":4864,"ĠglÃ¦s":4865,"ĠEnn":4866,"ff":4867,"ĠHelga":4868,"ĠumrÃ¦Ã°ur":4869,"Ġtexta":4870,"ĠEitt":4871,"ĠÃºthlut":4872,"ĠGer":4873,"Ġvei":4874,"lik":4875,"degis":4876,"46":4877,".]":4878,"ĠvarÃ°v":4879,"ĠgjÃ¶ld":4880,"ĠÃ¾yng":4881,"ĠStein":4882,"ĠhliÃ°ar":4883,"ÃļV":4884,"Ġverslunar":4885,"Ġvatni":4886,"kennar":4887,"ĠvÃŃsitala":4888,"ĠumrÃ¦Ã°a":4889,"ĠframkvÃ¦mdastjÃ³ri":4890,"Ã³mi":4891,"ĠSeÃ°labanka":4892,"Ġreynt":4893,"eldis":4894,"ĠaÃ°ilar":4895,"ĠnÃ½tur":4896,"Ġeigu":4897,"erfi":4898,"ĠfjÃ¶ldi":4899,"Ġframhald":4900,"ĠstÃºl":4901,"ĠstrÃŃÃ°":4902,"ldar":4903,"ĠÃ¡stÃ¦Ã°a":4904,"ĠnorÃ°an":4905,"Fram":4906,"Ãŀeir":4907,"Ġuppskrift":4908,"Ġforg":4909,"ĠtalaÃ°":4910,"ĠKjar":4911,"Svo":4912,"Ġvefnum":4913,"ĠbyggÃ°":4914,"ĠGeir":4915,"Ãģr":4916,"ĠvafrakÃ¶kur":4917,"Ġtraust":4918,"Ġdvelja":4919,"Ġdans":4920,"ĠhÃ³teltilboÃ°":4921,"Ġtilheyr":4922,"Ġranns":4923,"ĠFisk":4924,"Ġ112":4925,"ĠÃ³f":4926,"unnan":4927,"ĠviÃ°eigandi":4928,"drÃ¡tt":4929,"oktor":4930,"hÃ¶nd":4931,"fÃ©lÃ¶g":4932,"ola":4933,"ĠsambÃ¦r":4934,"ĠgrÃ³Ã°ur":4935,"nattspyrnu":4936,"Ġalmennings":4937,"eppnir":4938,"ry":4939,"Ãºla":4940,"Ġskrifstofu":4941,"Ġhtt":4942,"ĠhÃ¡skÃ³la":4943,"ĠhÃº":4944,"Ġlaugardaginn":4945,"ĠnÃ½jan":4946,"Ġon":4947,"ollu":4948,"hrif":4949,"ĠRannsÃ³k":4950,"Ġtit":4951,"ĠSh":4952,"extir":4953,"Ġfullu":4954,"ĠjÃ¶f":4955,"ĠsjÃ³nvarps":4956,"ĠFlug":4957,"rÃ©tti":4958,"ĠmilljarÃ°a":4959,"starfi":4960,"Ġeinkunn":4961,"ST":4962,"ĠlandsliÃ°":4963,"Ġklukkust":4964,"Ġflokki":4965,"Ġmyndinni":4966,"ĠÃŃbÃºa":4967,"skÃ³linn":4968,"verÃ°i":4969,"anlegt":4970,"Ġkol":4971,"Ġtopp":4972,"SjÃ¡lf":4973,"anska":4974,"fellt":4975,"Ġhratt":4976,"vef":4977,"ĠfÃ©laginu":4978,"ĠÃģsg":4979,"ĠskilmÃ¡la":4980,"ĠÃ¡byrgÃ°ar":4981,"ĠÃ³breyttum":4982,"ĠBreiÃ°":4983,"Ġheils":4984,"ĠauÃ°lind":4985,"Ġbland":4986,"ildur":4987,"Ġpunk":4988,"Ġlegg":4989,"Ġ37":4990,"ĠÃ¾rjÃ¡":4991,"linum":4992,"ĠennÃ¾Ã¡":4993,"ĠmÃ¶guleik":4994,"Ġskemmtilegt":4995,"ĠÃ¾essir":4996,"ĠLaugar":4997,"Ġdeila":4998,"><":4999,"ĠnÃ¡mi":5000,"ĠalÃ¾jÃ³Ã°a":5001,"ĠmÃ¡nuÃ°um":5002,"ĠjÃ¡kv":5003,"ĠhÃºsiÃ°":5004,"ĠsÃŃns":5005,"58":5006,"ĠstÃ¶Ã°um":5007,"Ġhina":5008,"ĠeyÃ°a":5009,"Ġkapp":5010,"Ġtilkynna":5011,"Ġherbergja":5012,"erÃŃ":5013,"ĠSigurÃ°ar":5014,"ĠlÃŃÃ°ur":5015,"Ġgull":5016,"aupplifun":5017,"ĠKat":5018,"rÃ©ttur":5019,"ĠHÃ³l":5020,"Ġforeldrar":5021,"vu":5022,"ferÃ°i":5023,"ariÃ°":5024,"ĠRagnar":5025,"blaÃ°inu":5026,"ĠFrakk":5027,"fjarÃ°ar":5028,"kort":5029,"Ġvestur":5030,"Ġleika":5031,"ĠtÃ¡k":5032,"Ġatvinnurek":5033,"ĠfjÃ³rum":5034,"Ġskrifar":5035,"lf":5036,"piÃ°":5037,"Ġdeil":5038,"Ġvinnust":5039,"stan":5040,"ĠsnÃºa":5041,"Ġrita":5042,"ĠsjÃºkdÃ³m":5043,"ĠrÃ¡Ã°gjÃ¶f":5044,"Ġkunna":5045,"ĠpÃ¡":5046,"Ġtilkynnt":5047,"Ġill":5048,"Ġverkum":5049,"stra":5050,"ĠGrÃ¦n":5051,"Ã¾ingi":5052,"ĠgrunnskÃ³la":5053,"Ġkli":5054,"ingurinn":5055,"ĠMark":5056,"ĠÃ¾essarar":5057,"Ã¦ki":5058,"ĠniÃ°urstÃ¶Ã°u":5059,"ĠgetiÃ°":5060,"ht":5061,"ĠÃ¡stand":5062,"ĠEld":5063,"ĠSnÃ¦":5064,"ĠskÃ½":5065,"Ġskjal":5066,"Ġgeri":5067,"ddir":5068,"ĠÃ¡kvarÃ°an":5069,"ĠLe":5070,"turinn":5071,"Ġgerst":5072,"ÃŃÃ°i":5073,"ĠRÃļV":5074,"FrÃ¡":5075,"fÃ©lagiÃ°":5076,"ĠstÃ³":5077,"Ã¶gunum":5078,"Ġfyrirvara":5079,"Ã©Ã°":5080,"Ã¶gnun":5081,"taÃ°":5082,"Ġnotendaupplifun":5083,"Ġbaki":5084,"Ġdraum":5085,"Ġ#":5086,"ĠhÃ¦gri":5087,"Ġkunnu":5088,"birg":5089,"ĠFÃ©lags":5090,"ĠfatlaÃ°":5091,"ĠverÃ°trygg":5092,"Ġstarfsl":5093,"ĠvÃŃsitÃ¶lu":5094,"ĠviÃ°miÃ°":5095,"tri":5096,"ilegur":5097,"44":5098,"skyldu":5099,"burÃ°i":5100,"mm":5101,"vÃ¶rum":5102,"afyrirtÃ¦ki":5103,"ĠDavÃŃÃ°":5104,"Ġarb":5105,"Ġhlaut":5106,"ĠhÃ³pi":5107,"rÃºm":5108,"Ġsendir":5109,"supp":5110,"Ã¦rÃ°":5111,"dÃ¦m":5112,"Ġvarla":5113,"ĠkÃº":5114,"bjÃ¶rg":5115,"ĠMann":5116,"Ã¡ttar":5117,"Ã¶llum":5118,"vott":5119,"ĠmiÃ°a":5120,"Ġmorg":5121,"ĠfÃ³rum":5122,"Lands":5123,"Ġlengra":5124,"ĠskÃ¡":5125,"Ġundanfarin":5126,"gl":5127,"alaust":5128,"ĠBooking":5129,"ĠMarkmiÃ°":5130,"ĠlÃ¦kka":5131,"ĠhÃ¦kka":5132,"Ġkonu":5133,"smÃ¡lum":5134,"litnir":5135,"ĠmatvÃ¦":5136,"500":5137,"jendur":5138,"Ġhit":5139,"Ġannast":5140,"reinar":5141,"sÃ³knir":5142,"ĠÃ³skaÃ°":5143,"Ġsannarlega":5144,"amlegast":5145,"ĠÃ¶rugglega":5146,"liga":5147,"skri":5148,"ĠÃ¶f":5149,"ĠÃ¡Ã¦t":5150,"ĠÃ¡b":5151,"Ġgreitt":5152,"ĠNoregi":5153,"ĠhÃ³pur":5154,"Ġspyrja":5155,"ĠJÃº":5156,"rak":5157,"ĠdvÃ¶l":5158,"ĠFÃ¸roy":5159,"Ġwww":5160,"Ġmannesk":5161,"Sig":5162,"ĠumfjÃ¶llun":5163,"Ġpening":5164,"Ã½Ã°":5165,"tari":5166,"Ġbirta":5167,"Ġvind":5168,"Ġhitta":5169,"Ġtengdum":5170,"Ġprent":5171,"Ġsafna":5172,"ĠfÃ©lagar":5173,"ĠmÃ¦lti":5174,"nina":5175,"prÃ³f":5176,"ĠnÃºmer":5177,"rÃ¡Ã°uneytiÃ°":5178,"ĠvaldiÃ°":5179,"arÃ¡Ã°uneytiÃ°":5180,"ĠverÃ°um":5181,"ĠBorgar":5182,"fangs":5183,"Ġfylgi":5184,"ore":5185,"ylt":5186,"ĠsÃŃm":5187,"Ġkostur":5188,"hafa":5189,"Ġeit":5190,"tÃ¦kni":5191,"ĠlÃ¶ngu":5192,"ĠfjÃ¶r":5193,"Ã¶kkum":5194,"ĠtÃ¶lvupÃ³st":5195,"Ġnefn":5196,"Ġja":5197,"ĠforsÃ¦tisrÃ¡Ã°":5198,"lass":5199,"ĠleikskÃ³la":5200,"ĠEF":5201,"heil":5202,"Ã¶sk":5203,"verÃ°bÃ³l":5204,"Ġvetrar":5205,"??":5206,"jafn":5207,"ach":5208,"ĠnÃ¡nari":5209,"ĠskrifaÃ°i":5210,"Ġtengist":5211,"ĠEir":5212,"ĠgÃ¦Ã°i":5213,"ĠvÃŃn":5214,"ĠBÃº":5215,"rump":5216,"ĠÃ½mis":5217,"ĠflÃ½":5218,"ĠkveÃ°":5219,"Ġ2000":5220,"2002":5221,"vak":5222,"Ġframlag":5223,"Ġgjarnan":5224,"ĠÃŃsl":5225,"ĠtÃŃmarit":5226,"bÃºa":5227,"ĠrÃ©tta":5228,"fundur":5229,"Ġhvat":5230,"1999":5231,"ĠBjÃ¶rg":5232,"ĠÃ¾jÃ³Ã°aratkvÃ¦Ã°agreiÃ°":5233,"mÃ¦lum":5234,"StjÃ³rn":5235,"ĠVildi":5236,"breytingar":5237,"stÃ½r":5238,"ĠtÃº":5239,"Ġfellur":5240,"Ã¶dd":5241,"LjÃ³smynd":5242,"pÃŃtal":5243,"Ġheila":5244,"ĠSigurÃ°ur":5245,"ĠsumariÃ°":5246,"ager":5247,"ĠaÃ°allega":5248,"ĠslÃ¦m":5249,"Ã³ll":5250,"staf":5251,"Ġfarin":5252,"ĠsÃ³knar":5253,"stunda":5254,"ĠstÃ³ru":5255,"ilegu":5256,"ansi":5257,"Ġspurningum":5258,"nason":5259,"ĠII":5260,"Ġstundu":5261,"ĠskilaboÃ°":5262,"rengir":5263,"Ġforseti":5264,"ces":5265,"endu":5266,"ĠbjÃ³":5267,"ĠgÃ¦Ã°a":5268,"ĠstÃ¦rstu":5269,"ĠRo":5270,"Ġlykil":5271,"uss":5272,"Ġ47":5273,"Ġtilgangi":5274,"ĠÃŃmynd":5275,"ĠorÃ°um":5276,"Ġenga":5277,"UR":5278,"Ġaustur":5279,"ĠaugljÃ³":5280,"Ġopinbera":5281,"gv":5282,"unarf":5283,"ĠdregiÃ°":5284,"ich":5285,"Ġbolt":5286,"Ġkomandi":5287,"ĠHagstofunnar":5288,"Ġborga":5289,"rÃ¦nu":5290,"sluna":5291,"ĠVik":5292,"rinum":5293,"Ġkerfi":5294,"80":5295,"IR":5296,"slÃ³Ã°":5297,"mÃ¶rku":5298,"ookies":5299,"ĠDal":5300,"Â°":5301,"pan":5302,"ĠleiÃ°inni":5303,"ĠsniÃ°":5304,"Ġrenn":5305,"ĠtÃŃmann":5306,"vÃ¶rur":5307,"ĠHlusta":5308,"hjÃ¡lp":5309,"ĠSigurÃ°sson":5310,"Ġtegundir":5311,"oti":5312,"ĠFÃ³lk":5313,"ĠTaÃ°":5314,"ĠnÃ½justu":5315,"ĠfÃŃn":5316,"ĠskjÃ¡lf":5317,"ĠÃ½msu":5318,"Ġnefnilega":5319,"Ġsegist":5320,"Ã¡stungur":5321,"ÃŃkja":5322,"ĠÄı":5323,"rÃŃÃ°ur":5324,"ĠFiÃ°":5325,"ĠMan":5326,"ĠrÃ¦Ã°":5327,"UppÃ¡stungur":5328,"ingarnar":5329,"Ġheimi":5330,"fÃ¦ra":5331,"ferli":5332,"Ġstefnuna":5333,"stofnanir":5334,"ĠrÃŃkissjÃ³Ã°s":5335,"Ġmargra":5336,"Ġelska":5337,"ĠÃ¡nÃ¦gju":5338,"ĠslÃŃkum":5339,"aÃ°ilar":5340,"virkni":5341,"rÃŃms":5342,"estir":5343,"Ã¾rÃ³un":5344,"Ġbund":5345,"ĠbrÃ¡Ã°a":5346,"oli":5347,"Ġsof":5348,"Ġhefja":5349,"Ġykkar":5350,"Ġafl":5351,"ennu":5352,"Ġmerki":5353,"manni":5354,"skÃ³lann":5355,"ĠheilbrigÃ°isÃ¾jÃ³nustu":5356,"eiÃ°is":5357,",\"":5358,"afjarÃ°ar":5359,"ĠÃģriÃ°":5360,"endingu":5361,"ĠpÃ³litÃŃ":5362,"Ġhygg":5363,"ĠlÃ¦kkaÃ°i":5364,"Ġpar":5365,"ĠMÃ¶mmu":5366,"Ġuppfyl":5367,"Ġveitingast":5368,"jug":5369,"Ġmein":5370,"ĠBandarÃŃkjanna":5371,"Ã¶tum":5372,"Eng":5373,"Ġgengi":5374,"ont":5375,"rÃ¡Ã°i":5376,"ĠÃºtl":5377,"shÃ³p":5378,"ĠvirÃ°ast":5379,"Ġflokka":5380,"ĠÃ¾ekkja":5381,"ĠbÃ¦kur":5382,"Einn":5383,"Ġnemendum":5384,"Ġbyggt":5385,"bind":5386,"hafnar":5387,"...]":5388,"Ġflutti":5389,"ĠEig":5390,"Ġminnst":5391,"Ġvanda":5392,"Ġ39":5393,"Ġfyrirspur":5394,"ĠbÃŃla":5395,"ĠStrengir":5396,"Ġsamskiptum":5397,"Ġmagn":5398,"ĠÃ¡vallt":5399,"lunginn":5400,"ĠÃ¾jÃ¡lfun":5401,"ĠVÃ³ru":5402,"Ġheimilis":5403,"eiÃ°ar":5404,"ĠhljÃ³msveit":5405,"Ġkona":5406,"ĠSlitnir":5407,"ĠtÃŃmabundiÃ°":5408,"ĠGetiÃ°i":5409,"ĠFiÃ°lunginn":5410,"ĠEvrÃ³pska":5411,"Sv":5412,"speg":5413,"ĠÃ¦tlum":5414,"ĠtÃºl":5415,"ĠmarkaÃ°s":5416,"Ã°r":5417,"Ġleysa":5418,"ĠgerÃ°ist":5419,"Ã¸k":5420,"alda":5421,"ĠstÃ³rt":5422,"Ġsunnan":5423,"ĠhÃ¦rri":5424,"ĠSlÃŃk":5425,"ĠhjÃºkrun":5426,"ĠBÃ³k":5427,"59":5428,"ĠblÃ³m":5429,"ĠbjÃ³Ã°um":5430,"Ġhorn":5431,"Ġvekja":5432,"Ġfit":5433,"Ġinniheldur":5434,"ĠtillÃ¶gur":5435,"Ġuppli":5436,"lÃ¦k":5437,"Ġhrey":5438,"ĠafstÃ¶Ã°u":5439,"ĠfljÃ³tt":5440,"ĠvefsÃŃÃ°u":5441,"dur":5442,"ĠfundiÃ°":5443,"aÃ°ri":5444,"ĠKol":5445,"ali":5446,"ĠHÃ¦":5447,"ĠumsÃ¦k":5448,"Ġvegg":5449,"samninga":5450,"Ġsamkomulag":5451,"Ġsamstarfs":5452,"ĠbifreiÃ°":5453,"leggja":5454,"lÃ¶gum":5455,"ĠLi":5456,"ĠmÃ¡lefnalega":5457,"Ã¶rn":5458,"Ġverkefn":5459,"holt":5460,"ĠuppfÃ¦rt":5461,"Ġfyrrverandi":5462,"ĠReg":5463,"ĠmÃ¡ls":5464,"ĠHvernig":5465,"?âĢľ":5466,"ĠbandarÃŃ":5467,"ĠPar":5468,"2000":5469,"ĠVestf":5470,"Ġvissi":5471,"Ã¾rey":5472,"ĠDV":5473,"ĠAri":5474,"lÃ½singu":5475,"ĠdÃ½ra":5476,"ĠbÃ³kaÃ°":5477,"ĠgjÃ¸r":5478,"Ġegg":5479,"ĠlÃ¦tur":5480,"Ġofn":5481,"koma":5482,"Ã³Ã°um":5483,"ĠSvÃŃÃ¾jÃ³Ã°":5484,"ĠlÃŃfeyrissjÃ³Ã°a":5485,"ĠÃ¡runum":5486,"Ġerlendum":5487,"mis":5488,"sleik":5489,"Ġvikunni":5490,"ĠhÃ©t":5491,"ĠalÃ¾ingis":5492,"ĠendurskoÃ°":5493,"Ġmega":5494,"ĠÃ¾rjÃ¡r":5495,";&":5496,"ĠÃ¾ekkt":5497,"leikar":5498,"fÃ©lags":5499,"nefndar":5500,"Ã¾rota":5501,"ĠÅĪ":5502,"Ġskipu":5503,"ĠdÃ³ttur":5504,"Ġsnemma":5505,"Ġdreng":5506,"per":5507,"ĠnÃ½lega":5508,"56":5509,"entar":5510,"vell":5511,"votta":5512,"Ġloftslag":5513,"Ã©ttindi":5514,"erfiÃ°":5515,"34":5516,"ĠgÃ¦ta":5517,"Ð¾":5518,"bba":5519,"ĠKl":5520,"ca":5521,"ĠReykjanes":5522,"Ġerl":5523,"junar":5524,"ĠframboÃ°":5525,"ama":5526,"Ġstef":5527,"urt":5528,"Ġvega":5529,"hÃ³l":5530,"Ġ2005":5531,"ĠstÃ³rum":5532,"hÃ¡l":5533,"ĠVel":5534,"tust":5535,"Ġ!":5536,"Ġgagna":5537,"hjÃ¡":5538,"amÃ¡lum":5539,"ðŁ":5540,"Ġatvinnul":5541,"ĠgetaÃ°":5542,"Ġaldar":5543,"meÃ°":5544,"Ġmetra":5545,"RÃ¡Ã°":5546,"luÃ°u":5547,"Ġsamhengi":5548,"Ġapp":5549,"ĠDÃ³m":5550,"ix":5551,"Ġmissa":5552,"ĠKÃŃna":5553,"ĠTÃ³n":5554,"essor":5555,"ĠhÃºsinu":5556,"gÃ¶ngur":5557,"ĠAkureyrar":5558,"eyti":5559,"Ã¡s":5560,"heimili":5561,"ĠfjÃ¡rlaga":5562,"bjÃ¶rn":5563,"Ġbent":5564,"ĠaÃ°gengi":5565,"MÃ©r":5566,"âĢĻ":5567,"hneig":5568,"Ġsvarar":5569,"VerÃ°":5570,"meti":5571,"Ġstarfar":5572,"ĠferÃ°alagi":5573,"undan":5574,"ĠnÃ½rra":5575,"Ġslys":5576,"sent":5577,"skriftir":5578,"Ġstofnanir":5579,"ĠgjÃ¶f":5580,"tÃ¶lu":5581,"ĠkÃŃl":5582,"Ġleidd":5583,"ĠLista":5584,"ĠtÃ³kst":5585,"Ġtegund":5586,"ĠfÃ¶studaginn":5587,"ĠjÃ³lin":5588,"ĠpersÃ³nuupplÃ½s":5589,"Ã°ra":5590,"uld":5591,"ĠMÃ¡nuÃ°i":5592,"Ġhagsmuna":5593,"Ġstytt":5594,"jasafn":5595,"ĠMY":5596,"Ġhlusta":5597,"ĠmÃ¡tt":5598,"Ġengan":5599,"ĠtÃ½":5600,"vÃŃsi":5601,"ĠdÃ¡l":5602,"ĠlÃ³Ã°":5603,"agjald":5604,"Ġframhalds":5605,"ĠopiÃ°":5606,"ĠpersÃ³nuverndarstefnu":5607,"eildar":5608,"Ġplast":5609,"lÃ¶gun":5610,"ĠhÃ¡lfu":5611,"Ġtillit":5612,"Ġannarri":5613,"ĠAuÃ°":5614,"ĠsÃºkku":5615,"atriÃ°i":5616,"ly":5617,"Ġeinfalt":5618,"ruÃ°":5619,"ĠatkvÃ¦Ã°i":5620,"hÃ¦kk":5621,"Ġunder":5622,"ĠLÃŃ":5623,"ĠbragÃ°":5624,"ĠKÃ³pavog":5625,"Ġkostar":5626,"Ġtakast":5627,"ĠaÃ°stoÃ°a":5628,"blÃ¡":5629,"ĠvÃŃsaÃ°":5630,"ĠdÃ¶gunum":5631,"âĢľ,":5632,"sÃ¶lu":5633,"ĠÃ¶ku":5634,"ĠfulltrÃºa":5635,"ĠgjaldÃ¾rota":5636,"Ġefn":5637,"Ã¾Ã½":5638,"Ġdagar":5639,"yrirtÃ¦kja":5640,"pr":5641,"ĠfÃ©lÃ¶g":5642,"Ġgjaf":5643,"Ġfimmtudaginn":5644,"stÃ¦Ã°ur":5645,"ĠÃ¡rlega":5646,"ilegri":5647,"ĠutanrÃŃkis":5648,"ĠtÃ¦plega":5649,"ĠfrÃ¦g":5650,"Ġefnahagssv":5651,"Ġmyn":5652,"Ġholl":5653,"ĠspÃ¡r":5654,"Ġ125":5655,"rÃŃmur":5656,"ĠDrott":5657,"Ġkleift":5658,"oni":5659,"ĠÃ¡hÃ¦ttu":5660,"Ġmyndband":5661,"ĠbrÃ©":5662,"ĠviÃ°tal":5663,"ĠÃ¾rÃ³unar":5664,"hrepp":5665,"leikum":5666,"Ġkomnir":5667,"Ġbraut":5668,"ĠsÃ¶gn":5669,"ĠSÃ¦":5670,"ĠÃ¦tlaÃ°i":5671,"ĠmiÃ°vikudaginn":5672,"Ġfyrsti":5673,"SamkvÃ¦mt":5674,"ĠEnginn":5675,"Ġnk":5676,"ĠstjÃ³rnsÃ½slu":5677,"ĠsammÃ¡la":5678,"Ġheilbrig":5679,"ĠbrÃ¡Ã°":5680,"ĠLa":5681,"ĠvÃ¶xtum":5682,"hluti":5683,"ĠHam":5684,"ĠÃ³sÃ¦milegar":5685,"ĠfiskveiÃ°":5686,"ĠnÃ¦stkomandi":5687,"ĠUni":5688,"ĠfÃ¶Ã°ur":5689,"ĠferÃ°ir":5690,"smÃ¡la":5691,"jÃ³t":5692,"leif":5693,"ĠskÃ³lanum":5694,"Ġsat":5695,"ĠVin":5696,"ĠÃ¾jÃ³Ã°aratkvÃ¦Ã°agreiÃ°slu":5697,"ĠKom":5698,"Ġofbeldi":5699,"Ġrafmagn":5700,"eink":5701,"ĠsvokallaÃ°":5702,"ĠPÃ¡ll":5703,"spÃ¡":5704,"kjÃ¶r":5705,"Ġkonum":5706,"ĠPro":5707,"lingum":5708,"ĠbÃ¡ru":5709,"ppÃŃr":5710,"ĠVÃŃsind":5711,"dÃ¦mi":5712,"jarn":5713,"ĠbrauÃ°":5714,"ĠÃ¾ol":5715,"ĠstaÃ°reynd":5716,"sland":5717,"Ġleyfa":5718,"skÃ³":5719,"ĠhÃ¡tÃŃÃ°ar":5720,"ĠGuÃ°mundur":5721,"ĠÃ¦vint":5722,"bbamein":5723,"otkun":5724,"ĠMYND":5725,"torg":5726,"ĠflÃ³k":5727,"ĠstÃ½r":5728,"bjÃ³Ã°":5729,"jarnar":5730,"ĠBÃ³nus":5731,"ĠmÃ¡tti":5732,"ĠÃ¡kvÃ¦Ã°um":5733,"amarkaÃ°i":5734,"ĠeigiÃ°":5735,"leiki":5736,"Ġvelta":5737,"ĠauglÃ½sa":5738,"rÃ©ttindi":5739,"Ġlitlu":5740,"ĠtÃŃmum":5741,"ĠÃŃtar":5742,"ĠRÃŃkis":5743,"Ġknattspyrnu":5744,"jÃ³Ã°ur":5745,"ĠKann":5746,"ĠstaÃ°a":5747,"Ġrei":5748,"ĠmÃ¡nuÃ°":5749,"uka":5750,"ĠbÃ¡Ã°um":5751,"Ġsjald":5752,"OR":5753,"ĠembÃ¦tt":5754,"Ã½sing":5755,"ĠHÃ¶r":5756,"ĠtÃŃmabili":5757,"ĠrÃ¡Ã°uneyti":5758,"ĠÃ¡Ã¦tl":5759,"eyja":5760,"ĠiÃ°naÃ°ar":5761,"Ġyr":5762,"ĠhÃ¶fundar":5763,"atÃ¦kni":5764,"ĠstarfaÃ°":5765,"Ġmuna":5766,"starfsemi":5767,"ÃŃma":5768,"ĠskipiÃ°":5769,"Ã¦Ã°ingar":5770,"ĠvÃŃsa":5771,"ĠkostnaÃ°ar":5772,"ĠÃŀorg":5773,"ĠnÃ³gu":5774,"ĠÃ¾ÃŃnu":5775,"ĠDÃ½r":5776,"HÃ³tel":5777,"varnir":5778,"Ġhon":5779,"Ġheimspek":5780,"jÃ³nvarp":5781,"ĠLandspÃŃtal":5782,"vis":5783,"ĠkvaÃ°":5784,"skan":5785,"ĠÃ¡rsverÃ°bÃ³l":5786,"gjÃ¶ld":5787,"Ġbirtir":5788,"veriÃ°":5789,"ĠhÃ¶r":5790,"ĠMatt":5791,"Ġeinkenni":5792,"31":5793,"Ã¾ings":5794,"Ġsykur":5795,"Ġsamtals":5796,"pum":5797,"SÃ½":5798,"skÃ¡":5799,"2017":5800,"Ġ129":5801,"amynd":5802,"bÃŃl":5803,"Ġeinstakling":5804,"egg":5805,"ĠÃ¾ÃŃnar":5806,"Ġgu":5807,"Ġkeypt":5808,"Ġtalin":5809,"Ã¾Ã¦tti":5810,"Ã°un":5811,"Ġopnunar":5812,"ellum":5813,"kran":5814,"Ġbol":5815,"bert":5816,"ĠskaÃ°a":5817,"ĠÃļr":5818,"Ġba":5819,"ĠskÃ¶p":5820,"99":5821,"Ġ48":5822,"Ã¶lluÃ°":5823,"ĠOrku":5824,"ĠskaÃ°":5825,"Ġru":5826,"Ġvatns":5827,"ĠSe":5828,"ĠÃ¾eirrar":5829,"ĠgÃ¶mlu":5830,"ĠrannsÃ³kna":5831,"ĠgreiningaraÃ°ila":5832,"Ġpeninga":5833,"osa":5834,"ĠsvolÃŃtiÃ°":5835,"ba":5836,"Ġly":5837,"Ġvenjulega":5838,"ĠnafniÃ°":5839,"nuÃ°u":5840,"ungar":5841,"ĠDanmÃ¶rku":5842,"ĠTrump":5843,"ĠleiÃ°t":5844,"etu":5845,"Ġ66":5846,"Ġkynnti":5847,"ĠNorÃ°":5848,"gaÃ°":5849,"hliÃ°a":5850,"rÃ¦Ã°u":5851,"nal":5852,"bak":5853,"Ġbann":5854,"ĠharÃ°":5855,"okkur":5856,"bÃ¡":5857,"ĠstjÃ¶rnu":5858,"ĠskilmÃ¡l":5859,"reglur":5860,"Ãŀann":5861,"Ġkosningar":5862,"enta":5863,"ĠorÃ°inn":5864,"ĠsamfÃ©lagi":5865,"ĠfjÃ¡rfestingar":5866,"Ġmeistar":5867,"umst":5868,"ĠalvÃ¶ru":5869,"dir":5870,"ÃģriÃ°":5871,"ĠFre":5872,"kvÃ¦ma":5873,"ĠstÃ½riv":5874,"steins":5875,"ĠiP":5876,"Ġvefinn":5877,"rÃ©ttar":5878,"Ġtengsl":5879,"Ã¾ekk":5880,"Umhverfisstofnun":5881,"ĠeÃ°li":5882,"ĠundirbÃºning":5883,"Ġfory":5884,"ĠÃ¡rsreik":5885,"setur":5886,"Ġalmannatryggingar":5887,"ettur":5888,"garÃ°":5889,"Ġnokkurn":5890,"leysi":5891,"amark":5892,"lista":5893,"staÃ°an":5894,"ĠstaÃ°i":5895,"Ġdyr":5896,"Ġstofnunar":5897,"siÃ°":5898,"iliÃ°":5899,"ie":5900,"ĠSelfoss":5901,"Ã¾ykk":5902,"sterdam":5903,"ĠhÃ³pa":5904,"ĠmÃ¦la":5905,"ogle":5906,"ĠleitaÃ°":5907,"Ġmesta":5908,"Ġhagn":5909,"ĠforsÃ¦tisrÃ¡Ã°herra":5910,"finn":5911,"Hv":5912,"ĠrÃ¡Ã°staf":5913,"ĠlÃ½sa":5914,"agnrÃ½":5915,"Ġlaganna":5916,"ĠvÃ¶Ã°":5917,"ood":5918,"takiÃ°":5919,"Ġkanna":5920,"Ġgrundvallar":5921,"Ġfyrirhug":5922,"Ġhell":5923,"Ġfallega":5924,"ĠGuÃ°jÃ³n":5925,"ĠAmsterdam":5926,"zt":5927,"Ġkring":5928,"ĠRe":5929,"ĠdrÃ³":5930,"Ġtonn":5931,"ĠrÃ¦Ã°ur":5932,"brag":5933,"ĠKyn":5934,"Ġvalda":5935,"taf":5936,"ĠÃ¡framhald":5937,"ĠstÃ©tt":5938,"Ġmiklar":5939,"ĠVatn":5940,"hygg":5941,"ĠvÃ¡trygg":5942,"Ġfyrirlest":5943,"ĠÃŃt":5944,"ĠJÃ³ns":5945,"ĠbreiÃ°":5946,"bÃºnaÃ°i":5947,"ĠmarkaÃ°i":5948,"ĠveiÃ°i":5949,"Ġ500":5950,"hit":5951,"ĠljÃ³Ã°":5952,"ĠnÃ¡kvÃ¦mlega":5953,"ĠBaug":5954,"ĠskoÃ°unar":5955,"ĠlÃŃkur":5956,"fÃ©":5957,"ĠJesÃº":5958,"ĠsÃ¦r":5959,"jÃ³na":5960,"agerÃ°ar":5961,"ĠlÃŃÃ°a":5962,"fÃ©lagsins":5963,"po":5964,"vÃ¦nt":5965,"ĠbeiÃ°ni":5966,"ĠhÃ¡Ã°":5967,"ĠverkefniÃ°":5968,"Ġven":5969,"ĠaukiÃ°":5970,"Ġbyrjar":5971,"ĠMikil":5972,"Ġskaltu":5973,"ĠmeÃ°ferÃ°ar":5974,"ĠnotaÃ°ar":5975,"Ð°":5976,"ĠgleÃ°i":5977,"Ġmundir":5978,"ĠÃģg":5979,"smÃ³t":5980,"Ġtaldi":5981,"etra":5982,"Ġforn":5983,".âĢĿ":5984,"ĠtÃ¶kum":5985,"ĠprÃ³fa":5986,"ĠsjÃ³narmiÃ°":5987,"ĠVestmannaeyja":5988,"Ġvaldi":5989,"ĠfÃ³tbolta":5990,"ĠhvÃŃt":5991,"ĠvÃ¶ldum":5992,"ĠHold":5993,"Ġheiti":5994,"lin":5995,"Ã¸v":5996,"raÃ°i":5997,"fÃ©lagi":5998,"Ġsamnings":5999,"ĠVig":6000,"ĠmÃ¦lt":6001,"ãģ":6002,"ilegan":6003,"ĠbÃ¦num":6004,"Ġbotn":6005,"ĠÃ¡kvarÃ°anir":6006,"blaÃ°sins":6007,"Ġfeg":6008,"ĠfrÃ¡bÃ¦rt":6009,"ĠmjÃ³lkur":6010,"Ġhes":6011,"ĠfÃ¦dd":6012,"ĠKv":6013,"ĠÅ¥":6014,"lÃ¡t":6015,"ĠHa":6016,"Ġhelsta":6017,"ĠlÃ½sir":6018,"ĠfullnÃ¦g":6019,"marka":6020,"skÃ³lum":6021,"ĠInd":6022,"Ġendurspeg":6023,"mÃ¦ti":6024,"ĠfrÃ³Ã°":6025,"Ġvonandi":6026,"Ġmin":6027,"Ġmunn":6028,"Ġtilvikum":6029,"Ã¶ldu":6030,"Ġkirkjunnar":6031,"ĠtÃ¶lum":6032,"ĠkÃ¦":6033,"eÃ°i":6034,"fariÃ°":6035,"ĠfÃŃk":6036,"ĠbÃ³khald":6037,"Ã¦kkun":6038,"einuÃ°u":6039,"ĠhraÃ°":6040,"ĠstarfsfÃ³lkiÃ°":6041,"urs":6042,"afar":6043,"Ġ46":6044,"andair":6045,"Ġfullyr":6046,"Ġaugum":6047,"ĠspurÃ°i":6048,"sturinn":6049,"ĠboÃ°a":6050,"ĠHafnarfirÃ°i":6051,"ĠsjÃ¡lfan":6052,"lagi":6053,"vegi":6054,"Ġskemmtilega":6055,"ĠÃģsgeir":6056,"Ġvirkar":6057,"Annar":6058,"ĠvÃ¦n":6059,"hjÃ¡l":6060,"Ġmist":6061,"Ġbeitt":6062,"tic":6063,"Ġhafnar":6064,"Ġuppfyll":6065,"Ġbyggingu":6066,"ĠrÃŃkisstjÃ³rnarinnar":6067,"anki":6068,"ryggingu":6069,"Ġ:)":6070,"ennt":6071,"ĠbauÃ°":6072,"Ãĸll":6073,"ĠfjÃ¡rhÃ¦Ã°":6074,"ĠkjÃ³sa":6075,"ĠVeÃ°ur":6076,"Ġkonungr":6077,"ĠSa":6078,"ĠforstjÃ³ri":6079,"ĠskeiÃ°":6080,"Ġ33":6081,"ĠGunn":6082,"jÃ¶kul":6083,"yss":6084,"ĠSch":6085,"Ġgefin":6086,"Ġtilnefnd":6087,"Ġvini":6088,"Ġbeita":6089,"Ġvona":6090,"Ã°uÃ°":6091,"vÃ¦gi":6092,"ĠUng":6093,"ĠstaÃ°ur":6094,"alÃŃ":6095,"ĠArn":6096,"span":6097,"ulltrÃºi":6098,"nÃº":6099,"Ġta":6100,"Ðµ":6101,"ĠljÃºka":6102,"ilm":6103,"tein":6104,"Ġsamninga":6105,"ĠdvaliÃ°":6106,"eistari":6107,"Ġeinhverja":6108,"ĠmeÃ°hÃ¶nd":6109,"ĠlÃ¶nd":6110,"Ġeinhvers":6111,"ĠÃ¡hyggjur":6112,"ĠÃ¾Ã¶rfum":6113,"Ġansi":6114,"Ġlosun":6115,"ĠvitaÃ°":6116,"Ġfinnur":6117,"ĠfarÃ¾ega":6118,"ĠYfir":6119,"fundi":6120,"ĠfjÃ³rÃ°a":6121,"ĠgreiÃ°slur":6122,"NA":6123,"Ġmikilli":6124,"Ġhttp":6125,"Ġ32":6126,"Ġsil":6127,"ĠgrÃŃÃ°arlega":6128,"skjÃ¶r":6129,"hÃ³":6130,"ĠskÃ¡l":6131,"Ġhefjast":6132,"Ã¡ri":6133,"atna":6134,"Ġmundi":6135,"ĠkÃ³r":6136,"ĠBÃ¡":6137,"Ġskrifstofa":6138,"ĠAnnaÃ°":6139,"Ġtekjuskatt":6140,"ĠmÃ¶gulega":6141,"ĠfÃ¦rÃ°":6142,"ĠfÃ©ll":6143,"ĠGuÃ°mundsson":6144,"Ã¾rÃ³tt":6145,"ĠInc":6146,"ĠbrÃ¡Ã°abirg":6147,"ĠPh":6148,"ĠfÃ¡um":6149,"ĠrÃŃkiÃ°":6150,"Ġhinsvegar":6151,"ĠtrÃºnaÃ°aryfirlÃ½singu":6152,"kon":6153,"ĠÃ¾Ã¡gu":6154,"Ġhrun":6155,"ĠÃºtlit":6156,"slunnar":6157,"jÃºkra":6158,"ĠlÃŃfeyrisrÃ©ttinda":6159,"byggÃ°ar":6160,"ĠmÃ¦tt":6161,"ĠÅł":6162,"lÃ¡tt":6163,"starÃ©ttar":6164,"Ġgestirnir":6165,"Ġfengum":6166,"ux":6167,"ĠvÃ³ru":6168,"ĠherbergiÃ°":6169,"ĠsÃ©rstaka":6170,"Marg":6171,"Ġraforku":6172,"Ġpist":6173,"otiÃ°":6174,"Ġhinna":6175,"Ġtrygging":6176,"Ġsker":6177,"ĠaÃ°ilum":6178,"alaga":6179,"ĠtÃ³nleika":6180,"ĠÃ¾rÃŃr":6181,"HÃºn":6182,"Ã¶tur":6183,"Ġser":6184,"asti":6185,"ĠtrÃ©":6186,"ĠafÃ¾rey":6187,"Ġhlutverki":6188,"Ġveginn":6189,"Ġ34":6190,"ĠÃ¶Ã°last":6191,"Ġfundinum":6192,"Ġanda":6193,"ĠLang":6194,"ors":6195,"ĠÃ¡horf":6196,"janda":6197,"Ġeinustu":6198,"ĠMen":6199,"Ġlax":6200,"Ġ56":6201,"Ġunglinga":6202,"Ġsendu":6203,"Ġkrafist":6204,"sar":6205,"Ġ[...]":6206,"ĠÃ³ska":6207,"ĠhjÃºkrunarfrÃ¦Ã°":6208,"ĠKar":6209,"ĠStr":6210,"Ġmennt":6211,"mundur":6212,"lapptrÃ©":6213,"ninguna":6214,"Ġrekja":6215,"ĠÃ¾ingsÃ¡lyktunar":6216,"ĠMeÃ°al":6217,"ĠÃºrskurÃ°ar":6218,"ĠâĨ":6219,"Ġspr":6220,"Fl":6221,"Ġstefna":6222,"ritiÃ°":6223,"ĠaÃ°stÃ¦Ã°um":6224,"ĠboriÃ°":6225,"ĠkjÃ¶lfariÃ°":6226,"ĠpÃ¶n":6227,"ĠQ":6228,"ĠeÃ°lilegt":6229,"NI":6230,"ÃŃg":6231,"Ġalt":6232,"ĠÃŃslenskt":6233,"ĠBe":6234,"ĠpersÃ³nuupplÃ½singar":6235,"ĠsÃ©rstÃ¶k":6236,"ĠnetfangiÃ°":6237,"luÃ°um":6238,"ĠnÃ³ttina":6239,"ĠSkag":6240,"Eina":6241,"ĠhlÃ½tur":6242,"vera":6243,"Ġteljast":6244,"ĠInter":6245,"ĠsjÃ¡lfstÃ¦Ã°i":6246,"Ġgreinilega":6247,"takanna":6248,"Ġsinnar":6249,"Ġtru":6250,"Ġdagur":6251,"ĠÃºtboÃ°":6252,"Ġopin":6253,"ĠBjarni":6254,"ĠflugvÃ©l":6255,"Ġtilfellum":6256,"Ver":6257,"ĠnÃ¦stum":6258,"Ġskyldut":6259,"gÃ¶ngum":6260,"samlega":6261,"artÃ¶f":6262,"Ġvilji":6263,"ĠverÃ°bÃ³lgu":6264,"ĠÃ³dÃ½r":6265,"ĠvÃ¦g":6266,"yrirtÃ¦kiÃ°":6267,"ugreinum":6268,"falli":6269,"ĠFrÃ©tta":6270,"sjÃ³n":6271,"UM":6272,"ĠYork":6273,"ĠJafnframt":6274,"ulltrÃºa":6275,"ĠJak":6276,"ĠvirÃ°i":6277,"Ġtilkynn":6278,"ĠSal":6279,"ĠliÃ°i":6280,"ĠsjÃ¡lfir":6281,"ĠferÃ°inni":6282,"ĠmÃ¦ldist":6283,"ĠÃ¾yrfti":6284,"eitur":6285,"Ġunnt":6286,"heit":6287,"taki":6288,"Ġhverri":6289,"ĠGarÃ°a":6290,"Ġtjald":6291,"ĠEvrÃ³pusambandiÃ°":6292,"Ġvart":6293,"ĠStaÃ°":6294,"Ġleiki":6295,"ingastefnunefndar":6296,"Ġ78":6297,"ĠaÃ°ili":6298,"ĠviÃ°fangs":6299,"ĠSÃ©":6300,"tam":6301,"ĠslÃŃka":6302,"ĠskrÃ¡ningu":6303,"Ġskyldutryggingu":6304,"Ġors":6305,"ĠbÃ¦tum":6306,"ĠfÃ¦st":6307,"ĠvelferÃ°ar":6308,"alist":6309,"jÃ¶ldi":6310,"Ġefnum":6311,"als":6312,"versl":6313,"stigi":6314,"Ġnemur":6315,"brau":6316,"ĠrauÃ°":6317,"JÃ³n":6318,"ĠTv":6319,"burÃ°":6320,"Ġpunkta":6321,"banka":6322,"ĠNet":6323,"Ġgleyma":6324,"ĠÃ¾ykk":6325,"Ġsegi":6326,"be":6327,"Ġengar":6328,"ĠbregÃ°ast":6329,"Ġheimila":6330,"ĠgreiÃ°slum":6331,"Ġ2004":6332,"emi":6333,"ĠâĨĴ":6334,"nanir":6335,"ĠlÃŃtur":6336,"ĠprÃ³fessor":6337,"ĠÃ¡hrifum":6338,"Ġskyldu":6339,"ĠlÃ½kur":6340,"liggjandi":6341,"rinu":6342,"Allt":6343,"ĠklÃ¡ra":6344,"\",":6345,"Ġfinnum":6346,"ĠÃ½mislegt":6347,"orm":6348,"Ġnotendur":6349,"Ġskatta":6350,"ĠhjÃ¡lpaÃ°":6351,"Ġhimins":6352,"ĠHval":6353,"ĠVinn":6354,"ĠdÃ³na":6355,"ĠLjÃ³s":6356,"vistar":6357,"Ġmarkv":6358,"angs":6359,"ĠÃĵsk":6360,"Ġhringja":6361,"ĠÃ³viÃ°":6362,"Ġhugsanlega":6363,"Ġferli":6364,"ney":6365,"ĠaÃ°gerÃ°a":6366,"Ġtilkynningu":6367,"Ġ300":6368,"snefnd":6369,"ĠfrÃ¦Ã°i":6370,"ritun":6371,"seÃ°":6372,"rannsÃ³k":6373,"TT":6374,"Ġeinstaka":6375,"ĠFÃ¦":6376,"stÃ¦Ã°u":6377,"ÃŃÃ³":6378,"ĠnÃŃu":6379,"ugu":6380,"astof":6381,"Ġgreint":6382,"ĠframhjÃ¡":6383,"ĠSnÃ¦fell":6384,"Ġreglug":6385,"ĠÃįsafirÃ°i":6386,"ĠinnleiÃ°":6387,"ĠskiliÃ°":6388,"Ġhvetja":6389,"ĠmikilvÃ¦gi":6390,"ells":6391,"Ġalmennum":6392,"Ġgeyma":6393,"Ġdau":6394,"jarna":6395,"vÃ¶x":6396,"Ãī":6397,"lingur":6398,"verÃ°u":6399,"ĠRaÃ°a":6400,"ĠNiÃ°ur":6401,"ĠÃ¾Ã¡tttakendur":6402,"âĢĶ":6403,"ĠdÃ³naskap":6404,"Ġ59":6405,"Ġnam":6406,"Ãļt":6407,"Ġheita":6408,"ĠbÃ³kmenn":6409,"Ġ95":6410,"ĠAkran":6411,"Ġsaga":6412,"ĠsamfÃ©laginu":6413,"ĠÃ¡kveÃ°num":6414,"ĠJesÃºs":6415,"77":6416,"ĠjafnaÃ°i":6417,",,":6418,"Ġreka":6419,"efurinn":6420,"sjÃ³Ã°":6421,"Ġmeng":6422,"ĠnÃ½skÃ¶punar":6423,"Ġ43":6424,"ĠÃ¾rey":6425,"Ãºrslit":6426,"hita":6427,"ĠtÃ³":6428,"Ġunnin":6429,"isvar":6430,"jÃ³ra":6431,"ĠfÃ³stur":6432,"ĠgÃ¦rkvÃ¶ld":6433,"ĠyrÃ°u":6434,"ĠVÃŃk":6435,"ĠÃºtskrif":6436,"menna":6437,"Ã¼":6438,"ĠÃ¡kÃ¦r":6439,"ĠLit":6440,"Ġalmenning":6441,"ĠGam":6442,"Ġnokkrir":6443,"Ġsmella":6444,"Ġmyndu":6445,"ĠGoogle":6446,"ĠvÃ©r":6447,"ci":6448,"agni":6449,"ĠSvein":6450,"ĠÃºtvarp":6451,"ĠnÃ¡lÃ¦gt":6452,"Ã¶pp":6453,"ĠTek":6454,"ĠfÃ©lagsleg":6455,"ĠHo":6456,"ĠEndur":6457,"Ġvissulega":6458,"Ġlyfja":6459,"ĠstrÃŃ":6460,"ĠÃºtgÃ¡f":6461,"Ġdregur":6462,"yrr":6463,"Ġhvatt":6464,"slna":6465,"ĠgagnrÃ½ni":6466,"Ġumhver":6467,"ĠfjarlÃ¦gÃ°":6468,"geir":6469,"ĠfjÃ¶lmÃ¶r":6470,"brÃ©fa":6471,"agnrÃ½ni":6472,"greina":6473,"ĠSameinuÃ°u":6474,"Ġkrefst":6475,"Ġverja":6476,"ĠgististaÃ°i":6477,"ĠÃŀÃ½skalandi":6478,"Ġ44":6479,"arnar":6480,"kerfinu":6481,"ĠEinars":6482,"Ġvaxandi":6483,"ĠÂ»":6484,"Ġhev":6485,"ĠsÃŃÃ°astliÃ°inn":6486,"tÃŃu":6487,"ĠÃ¦Ã°":6488,"ĠfljÃ³tlega":6489,"ĠstarfsmaÃ°ur":6490,"Ġgif":6491,"reglu":6492,"Ġuppruna":6493,"Ġbilinu":6494,"Ġmyndina":6495,"ĠherbergjaverÃ°":6496,"ĠfÃ¦Ã°u":6497,"ĠevrÃ³p":6498,"ĠmargvÃŃ":6499,"ĠLeiÃ°":6500,"ĠFriÃ°rik":6501,"Ġgrun":6502,"cesave":6503,"Ġakstur":6504,"Ġmbl":6505,"ĠskilyrÃ°in":6506,"Ġmarka":6507,"ĠMennta":6508,"lunni":6509,"ĠfljÃº":6510,"Ġvettvangi":6511,"ĠarbeiÃ°":6512,"ĠVeldu":6513,"Ġnokkru":6514,"Ġbeina":6515,"ĠrannsÃ³knum":6516,"Ġuppg":6517,"fyrirtÃ¦ki":6518,"van":6519,"ĠprÃ³sent":6520,"rÃ©ttis":6521,"Ġkeypti":6522,"ÃŃas":6523,"ĠÃ¾ingmenn":6524,"Ġeyr":6525,"Ġgraf":6526,"ĠmarkmiÃ°i":6527,"FÃ©lag":6528,"reins":6529,"Ġtali":6530,"Ġsynd":6531,"ĠbrjÃ³":6532,"ĠÃ¡kveÃ°in":6533,"Ġhaldi":6534,"leyfi":6535,"ĠhlaÃ°":6536,"ĠbrÃ¡Ã°abirgÃ°a":6537,"Ġneytenda":6538,"Ġtalsvert":6539,"2018":6540,"ĠfjÃ¶gurra":6541,"ĠfÃ¶studag":6542,"nunnar":6543,"Ġaftan":6544,"kvar":6545,"ĠmÃ¡nudaginn":6546,"elsi":6547,"ĠSendu":6548,"ĠHvÃŃ":6549,"Ġvinum":6550,"ĠkveÃ°iÃ°":6551,"ĠhÃ¡degi":6552,"ĠKaupmannahÃ¶fn":6553,"Ãºsson":6554,"ĠundanfÃ¶rnum":6555,"ĠkvÃŃ":6556,"Ġeinb":6557,"07":6558,"Ġ58":6559,"Ġnak":6560,"tÃŃmi":6561,"Ġvefur":6562,"Ġborist":6563,"ĠÃ¾jÃ³Ã°anna":6564,"ĠÃºtt":6565,"ĠÃºts":6566,"Ġvinalegt":6567,"Ġfullting":6568,"ĠheimsÃ¦kja":6569,"ĠaÃ°stÃ¶Ã°u":6570,"smeÃ°ferÃ°":6571,"ĠviÃ°skiptavin":6572,"ness":6573,"sig":6574,"ĠfÃ³l":6575,"Ġkemst":6576,"varnar":6577,"Ġep":6578,"lt":6579,"Ġlaugardag":6580,"Ã¾jÃ³nustunnar":6581,"Ġsaf":6582,"ĠbrÃ½":6583,"arfsemi":6584,"fyr":6585,"ĠgÃ³lf":6586,"ĠlesiÃ°":6587,"ĠApp":6588,"ĠHoldings":6589,"ĠstÃºd":6590,"Ġberast":6591,"Ġpers":6592,"reif":6593,"ĠfÃ¦Ã°ingu":6594,"Ġgler":6595,"ĠRauÃ°a":6596,"Ġveldur":6597,"Ġ1995":6598,"ugt":6599,"ĠMargir":6600,"ĠleiÃ°beiningar":6601,"ĠviÃ°brÃ¶gÃ°":6602,"ud":6603,"tÃ¶kum":6604,"ĠalÃ¾jÃ³Ã°legs":6605,"skjÃ¡lf":6606,"urin":6607,"spil":6608,"Ġdrykk":6609,"ton":6610,"ĠÃįtal":6611,"rÃ¦Ã°slu":6612,"Haf":6613,"ĠHin":6614,"ĠÃ¾jÃ³Ã°in":6615,"ĠÃĸrn":6616,"Ġseld":6617,"ĠorÃ°a":6618,"holti":6619,"NÃ¦":6620,"Ġgar":6621,"ĠfjÃ¶lmiÃ°la":6622,"eyrissjÃ³Ã°":6623,"nefningar":6624,"ĠlÃŃfeyrissjÃ³Ã°":6625,"ĠhÃ¦rra":6626,"Ġumfang":6627,"Ã¡hrif":6628,"vikmynd":6629,"lendis":6630,"ĠBol":6631,"riÃ°um":6632,"Ã°ari":6633,"ĠHl":6634,"ĠbeÃ°iÃ°":6635,"ĠÃ¾ver":6636,"ĠSmelltu":6637,"Ġsunnudag":6638,"Ã¦la":6639,"ĠlagiÃ°":6640,"ĠstÃ¶Ã°ugt":6641,"ĠfjÃ¡rfesta":6642,"ĠliÃ°in":6643,"fs":6644,"Ġminnka":6645,"Ġsennilega":6646,"ĠsvÃŃ":6647,"Ġfyrirmynd":6648,"Ġkyns":6649,"Ġ2003":6650,"AÃ°al":6651,"Ã³a":6652,"Ã¶nsku":6653,"Ġson":6654,"Ġpeningastefnunefndar":6655,"ĠÃ¡lyk":6656,"HÃ¦gt":6657,"Dag":6658,"ĠIÃ°":6659,"ĠfÃ¡tt":6660,"shÃ³l":6661,"Ġmennta":6662,"ĠfjÃ¡rmÃ¡lafyrirtÃ¦ki":6663,"ĠalgjÃ¶rlega":6664,"ĠSjÃ³":6665,"ĠfrÃŃstunda":6666,"smann":6667,"Ġstandi":6668,"ĠhaustiÃ°":6669,"ĠÃ¾jÃ³Ã°erni":6670,"AT":6671,"ĠleitarorÃ°":6672,"Ġfela":6673,"Ġalmenna":6674,"fÃ¦rslu":6675,"hÃ¶ll":6676,"ĠIcesave":6677,"ĠviÃ°skiptum":6678,"Ġdeili":6679,"ate":6680,"ĠKon":6681,"Ġvirkilega":6682,"ĠrÃ©tti":6683,"ĠmilljÃ³num":6684,"ĠhÃ¶fÃ°":6685,"ĠdvÃ¶linni":6686,"Ġvikum":6687,"ĠjÃ¡kvÃ¦Ã°":6688,"Ġvestan":6689,"ĠHÃºsa":6690,"Ã¾Ã½Ã°u":6691,"affi":6692,"ĠslÃŃkar":6693,"ĠhÃºss":6694,"ĠferÃ°amanna":6695,"ĠKF":6696,"Ġalger":6697,"Ã¶st":6698,"ĠÃ¡kveÃ°a":6699,"ĠlÃ©k":6700,"tanir":6701,"maÃ°urinn":6702,"leikur":6703,"ĠstaÃ°festum":6704,"ĠÃ¡stÃ¦Ã°u":6705,"ÃŃku":6706,"ppa":6707,"ĠumsjÃ³n":6708,"32":6709,"rÃ¦Ã°a":6710,"ĠEgil":6711,"Ġ2019":6712,"Ġefast":6713,"ani":6714,"yfja":6715,"Ġaukist":6716,"ĠskÃ³g":6717,"ĠtÃ¶lvupÃ³sti":6718,"Ġ75":6719,"ĠtÃ¶luvert":6720,"Ġrig":6721,"Ġinnri":6722,"ogiÃ°":6723,"Ġband":6724,"Ġbrug":6725,"ĠmaÃ°urinn":6726,"mik":6727,"ĠtvÃ¶f":6728,"ĠÃĵlafsson":6729,"Ġhafir":6730,"ĠHeiÃ°":6731,"ĠOdd":6732,"bÃ¦ra":6733,"ĠkostnaÃ°i":6734,"Ġtelst":6735,"ĠbjÃ³r":6736,"Ġsumum":6737,"ydd":6738,"Ġumsagnirnar":6739,"Ġsnyr":6740,"EF":6741,"ĠfÃŃ":6742,"Ãºra":6743,"ending":6744,"ĠðŁ":6745,"Ġun":6746,"ĠviÃ°skipt":6747,"ĠhevÃ°i":6748,"2006":6749,"ĠSand":6750,"Ã¡Ã¦tl":6751,"Ãįslen":6752,"ĠfÃ¡a":6753,"ĠskilmÃ¡lana":6754,"reiÃ°slu":6755,"lÃ¦kni":6756,"Ġvernda":6757,"ĠsÃ¦k":6758,"Ġallur":6759,"Ġ55":6760,"ĠskoÃ°anir":6761,"Ġfm":6762,"ĠsviÃ°um":6763,"alaus":6764,"Ġuppfylla":6765,"Ã¡Ã°s":6766,"Ġfulltingis":6767,"Vel":6768,"ĠhljÃ³Ã°lÃ¡tt":6769,"ĠbarÃ¡ttu":6770,"ĠÃŀrÃ¡tt":6771,"Ġallri":6772,"ĠlÃŃfinu":6773,"tÃŃÃ°ir":6774,"ĠKeflavÃŃkur":6775,"Ġka":6776,"Ġinnlend":6777,"Ġeignast":6778,"ĠHrafn":6779,"Ġrenna":6780,"Ġsorg":6781,"Ġinnheim":6782,"MiÃ°":6783,"ndan":6784,"ĠskjÃ¡num":6785,"slug":6786,"ĠGrunn":6787,"Ġoftar":6788,"rÃ¦nt":6789,"Ġhind":6790,"Ġburt":6791,"ĠkÃ¶nnun":6792,"hlaup":6793,"frÃ¦Ã°ingar":6794,"42":6795,"ĠÃ¾inni":6796,"Ġathugum":6797,"hlutverk":6798,"ĠHelgi":6799,"Ã¶kv":6800,"ĠupphÃ¦Ã°":6801,"flyt":6802,"ĠfjarlÃ¦gjum":6803,"ĠÃ¾jÃ³nustugreinum":6804,"ĠframkvÃ¦mdastjÃ³ra":6805,"bbi":6806,"hreyf":6807,"Ġgesta":6808,"kst":6809,"ĠframkvÃ¦mdir":6810,"ĠbÃºnir":6811,"elg":6812,"Ġfla":6813,"Ġvaran":6814,"TÃ¶l":6815,"ingunum":6816,"ĠHÃ³tel":6817,"blÃ¶Ã°":6818,"stofur":6819,"fleik":6820,"Ġsettar":6821,"Ġberjast":6822,"Ġskuldbind":6823,"Ġspor":6824,"vÃ¦n":6825,"ĠbiÃ°ja":6826,"ĠFer":6827,"ĠHM":6828,"ĠfulltrÃºar":6829,"drÃ¦":6830,"vegis":6831,"Ġgei":6832,"Ġlanda":6833,"ho":6834,"ĠtrÃºnaÃ°aryfirlÃ½singuna":6835,"Ġvegi":6836,"ĠfÃ¡tÃ¦k":6837,"ĠbÃ³kinni":6838,"ĠtÃŃÃ°ina":6839,"rÃ¦num":6840,"Ġnotkunar":6841,"Ġlifandi":6842,"Ġgesti":6843,"Ġ99":6844,"Ġlistann":6845,"ĠFramsÃ³knar":6846,"Ġdaglega":6847,"Ġmannvirk":6848,"ĠJÃ³hannes":6849,"afniÃ°":6850,"Ġhress":6851,"ĠÃ¾ekkingar":6852,"atur":6853,"Ġeinstaklega":6854,"ĠViÃ°skipta":6855,"ldum":6856,"ĠBjÃ¶r":6857,"Ġskilgrein":6858,"Ġsettur":6859,"verka":6860,"Ġopinberum":6861,"ect":6862,"eind":6863,"rim":6864,"ÃºtgÃ¡":6865,"Ġkast":6866,"menni":6867,"ĠmÃ¶gulegt":6868,"ĠOpinber":6869,"vax":6870,"ĠStÃ³r":6871,"tional":6872,"ĠmarkaÃ°sset":6873,"Ġhetta":6874,"tekt":6875,"mÃ¡li":6876,"lys":6877,"ĠCon":6878,"ĠbjÃ¶rg":6879,"undurinn":6880,"ĠÃŃbÃºÃ°ir":6881,"ĠDi":6882,"har":6883,"upa":6884,"ĠlÃ¡t":6885,"Âħ":6886,"umb":6887,"ĠstjÃ³rnmÃ¡la":6888,"ĠArion":6889,"sÃ¡r":6890,"Ġmyndast":6891,"Ġtekjur":6892,"ĠGyl":6893,"Ġeinang":6894,"ĠtÃ¡kn":6895,"ikar":6896,"ÃŃki":6897,"ĠFjÃ¡rmÃ¡la":6898,"sinn":6899,"illd":6900,"Ġfj":6901,"Ġtilliti":6902,"08":6903,"aleigu":6904,"ĠÃįsra":6905,"ĠeyÃ°":6906,"Ġlangan":6907,"amp":6908,"Ġtekist":6909,"Ġseint":6910,"Sp":6911,"ĠuppgjÃ¶r":6912,"aldar":6913,"Ġfasteignas":6914,"nesi":6915,"vinnsla":6916,"Ġkynnast":6917,"fÃ©laginu":6918,"ĠÃŃslenskri":6919,"aland":6920,"ĠbÃºnaÃ°ur":6921,"ĠframfÃ¦ri":6922,"ĠRit":6923,"Ġaugu":6924,"Ġeinelti":6925,"Ar":6926,"ĠÃ³l":6927,"ĠSteing":6928,"ĠheimsÃ³tt":6929,"ingastof":6930,"Ġverndar":6931,"ĠKatrÃŃ":6932,"Ġdisk":6933,"Ġskilningi":6934,"aviÃ°":6935,"Ġleikmenn":6936,"ĠÃ¡hugavert":6937,"ĠvirÃ°ingu":6938,"ĠsÃ¶gÃ°u":6939,"ĠBo":6940,"ĠferÃ°amenn":6941,"Ð¸":6942,"ĠsÃŃfellt":6943,"Ġhugsun":6944,"Ġhinir":6945,"ldi":6946,"ha":6947,"staÃ°ar":6948,"ÃŃt":6949,"ĠstÃ¡l":6950,"ĠNemendur":6951,"amiÃ°stÃ¶Ã°":6952,"ãĥ":6953,"ĠskÃ³lann":6954,"Ġskylt":6955,"Ġben":6956,"iska":6957,"ĠspÃ¡Ã°":6958,"Ġkosning":6959,"leiÃ°is":6960,"ĠÃ³lÃ¶g":6961,"mp":6962,"ĠstjÃ³rna":6963,"ĠÃ¡Ã¦tlaÃ°":6964,"ĠnÃ½tingu":6965,"Ġtengja":6966,"Ġstarfandi":6967,"Ġfallegt":6968,"Ġhenta":6969,"ĠSo":6970,"Ġsnjall":6971,"Ġ+":6972,"ĠmeÃ°li":6973,"ĠsjÃ¡lft":6974,"ĠÃŃslenskir":6975,"LÃ¶g":6976,"Ġbirtast":6977,"Ġgerum":6978,"vinna":6979,"Sum":6980,"umÃ¡la":6981,"Ġskapi":6982,"kan":6983,"ĠHring":6984,"ÃŃtiÃ°":6985,"arfi":6986,"avÃ©lar":6987,"ĠBretlandi":6988,"ĠyfirlÃ½singu":6989,"ĠÃ¡skor":6990,"ĠplÃ¡ss":6991,"Ġsleppa":6992,"vellinum":6993,"BAND":6994,"Ġkallar":6995,"hÃŃas":6996,"AN":6997,"ĠsveitarfÃ©lÃ¶g":6998,"ĠhÃºsi":6999,"Ġper":7000,"Ã¡ttur":7001,"LL":7002,"Ġsunnudaginn":7003,"lÃŃka":7004,"kynningar":7005,"Ġleyfis":7006,"fyrir":7007,"elf":7008,"ĠÃ³Ã¾Ã¦g":7009,"ĠstÃ³Ã°u":7010,"ĠMargrÃ©":7011,"IF":7012,"Ã°ustu":7013,"Ġskammt":7014,"Ã¶rk":7015,"ĠÃ³tta":7016,"Ġtvisvar":7017,"ljÃ³m":7018,"Ġlas":7019,"ĠJakob":7020,"Ġ150":7021,"ĠumsÃ³knar":7022,"Ġheimsins":7023,"ĠrÃ©ttur":7024,"Ġell":7025,"Ġgul":7026,"ĠsnÃ½st":7027,"mÃ¦la":7028,"Undir":7029,"Ġvildu":7030,"merki":7031,"Ã³Ã°ar":7032,"dÃ½ra":7033,"Ġstutta":7034,"Tillaga":7035,"ĠÃĵlafs":7036,"sjÃ³Ã°i":7037,"Ġx":7038,"ĠendurskoÃ°un":7039,"ĠMYNDBAND":7040,"mist":7041,"hlutir":7042,"II":7043,"Ġvop":7044,"ĠfÃ©lagi":7045,"ĠSjÃ¡lfstÃ¦Ã°isflokksins":7046,"ĠhraÃ°a":7047,"ĠÃ¾v":7048,"rita":7049,"ĠfÃ©lagslega":7050,"vÃŃsinda":7051,"kaÃ°":7052,"ĠâĢ¢":7053,"ÃįS":7054,"Ġeinstaklingum":7055,"06":7056,"vers":7057,"Ġ$":7058,"Ġeftirlits":7059,"jist":7060,"ĠsjÃ¡um":7061,"ĠbÃºast":7062,"ĠFerÃ°a":7063,"ĠHeilbrigÃ°i":7064,"jenda":7065,"ĠsÃ©rstakt":7066,"Ġgrip":7067,"100":7068,"ĠforstÃ¶Ã°um":7069,"ĠvefsÃŃÃ°a":7070,"ĠgÃ³Ã°ri":7071,"ĠvÃ¦ntanlega":7072,"Ġhorft":7073,"Ġatkv":7074,"Ġbarns":7075,"ĠvelferÃ°":7076,"ĠhÃ¡lfleik":7077,"ĠbÃ¡Ã°ir":7078,"ndum":7079,"ĠStjÃ³rnar":7080,"Ġgleym":7081,"Ġforsendur":7082,"sviÃ°s":7083,"Ġmeir":7084,"ĠtÃ¦r":7085,"alÃ¶gum":7086,"aÃ°ferÃ°":7087,"Ġpip":7088,"Ã¾jÃ¡lfun":7089,"ĠGuÃ°rÃºn":7090,"ĠrÃ¡Ã°stÃ¶f":7091,"ĠSkrÃ¡":7092,"Ġhlaupa":7093,"ĠverksmiÃ°":7094,"ĠrÃ¦kt":7095,"ĠrÃ¡Ã°her":7096,"Ġgildist":7097,"ĠVÃŃ":7098,"ĠsamrÃ¡Ã°":7099,"Ġmak":7100,"Ġros":7101,"Ã¶rÃ°u":7102,"Ġinnkaup":7103,"Ġforystu":7104,"ĠtÃ¦kn":7105,"Ġforeldraorlof":7106,"komur":7107,"ĠÃ¾ak":7108,"naÃ°ist":7109,"vÃ¦gt":7110,"ĠÅ¤":7111,"ĠbÃ¡t":7112,"Ġhlutum":7113,"hÃºsum":7114,"ĠyÃ°ur":7115,"Ġ'":7116,"Ġgamall":7117,"ĠspilaÃ°":7118,"ĠTr":7119,"full":7120,"ĠverÃ°tryggingu":7121,"09":7122,"aÃ°r":7123,"Ã©la":7124,"ĠSnor":7125,"ĠbeÃ°":7126,"mund":7127,"Ġberi":7128,"Ġupplifa":7129,"Ã¶ttum":7130,"ĠhÃ¡skÃ³l":7131,"Ġunga":7132,"ĠnÃ¦rri":7133,"Ġloks":7134,"ĠstrÃ¡k":7135,"ĠhÃ¦fil":7136,"ĠgÃ¦rkvÃ¶ldi":7137,"ĠkjÃºk":7138,"io":7139,"ĠVit":7140,"Ġfiski":7141,"Ġflugi":7142,"ĠHelg":7143,"runn":7144,"ĠnÃ¦tur":7145,"Ġselt":7146,"Ġ69":7147,"Ġkallast":7148,"Ġformlega":7149,"ĠveÃ°riÃ°":7150,"Ġstopp":7151,"ĠlÃ¡na":7152,"ĠÃ¡rsfjÃ³rÃ°ungi":7153,"Ġbisku":7154,"Ġinnflutning":7155,"Ġborgarinnar":7156,"Ġteknar":7157,"Ġskipulags":7158,"ĠMÃ½":7159,"Ġloksins":7160,"Ġdan":7161,"illinn":7162,"ĠstefnumÃ³t":7163,"EB":7164,"ferÃ°is":7165,"Ġupplif":7166,"ĠMik":7167,"ĠMun":7168,"Ġth":7169,"hildur":7170,"ttar":7171,"ĠriÃ°":7172,"Ġleiknum":7173,"KlapptrÃ©":7174,"Ġtilgang":7175,"Ġdoktor":7176,"Ġnefnt":7177,"prÃ³":7178,"ĠviÃ°urkenningu":7179,"asteig":7180,"ĠatvinnulÃŃfsins":7181,"oÃ°iÃ°":7182,"ĠsÃºr":7183,"ĠHarÃ°ar":7184,"Ġopnar":7185,"ĠBryn":7186,"ink":7187,"Ġskilning":7188,"ĠIcelandair":7189,"tÃŃmabil":7190,"sviÃ°i":7191,"ĠfaÃ°ir":7192,"ĠhundraÃ°":7193,"Ġheimildir":7194,"Ġmenningu":7195,"Ġsatt":7196,"Ġupprun":7197,"stuÃ°":7198,"ĠÃ½msa":7199,"ester":7200,"ĠmiÃ°jan":7201,"ĠÃŀarna":7202,"Ġborgara":7203,"ĠÃ¡rsverÃ°bÃ³lgan":7204,"ĠauÃ°velda":7205,"ĠmenningarmÃ¡l":7206,"ĠÃ¦fingar":7207,"ĠsÃ¶gur":7208,"LÃ½sing":7209,"Ġkan":7210,"Ġkonungs":7211,"Ġskar":7212,"ÃŃkt":7213,"ĠCom":7214,"ĠkÃ¦randi":7215,"framleiÃ°slu":7216,"ĠskjÃ³":7217,"hugs":7218,"stoÃ°":7219,"ĠhugsaÃ°":7220,"ĠÃ¾riÃ°judaginn":7221,"unga":7222,"Ġreikning":7223,"ĠlÃŃtill":7224,"Ã¦ja":7225,"Ġframundan":7226,"jÃ¶t":7227,"ĠNÃ¦":7228,"ĠefniÃ°":7229,"sav":7230,"Ġspjall":7231,"Ġmyndin":7232,"eitar":7233,"Ġfylgt":7234,"ĠKannski":7235,"Leik":7236,"Ġfasteign":7237,"Ġleyf":7238,"ĠÃ¡gÃ¦":7239,"ĠfÃ¸roy":7240,"ndu":7241,"Ġdul":7242,"hjÃ³":7243,"bÃºÃ°um":7244,"yrkur":7245,"ĠundanfariÃ°":7246,"ĠNei":7247,"67":7248,"ĠEnd":7249,"ĠfjÃ¶lmarg":7250,"aleiÃ°":7251,"ĠflÃ³tt":7252,"ÃĿ":7253,"ĠskjÃ³l":7254,"ĠsÃ½ni":7255,"ĠÃ¡ramÃ³t":7256,"ĠrÃ¦Ã°ir":7257,"ĠfÃ©lagsmenn":7258,"Ġaustan":7259,"Ġlengd":7260,"styrk":7261,"ĠÃºtskÃ½r":7262,"ĠkartÃ¶f":7263,"orp":7264,"Ġpla":7265,"ykkishÃ³l":7266,"Ġverki":7267,"Ġnefndarinnar":7268,"Ġlofti":7269,"Ġgolf":7270,"Ġheiminn":7271,"ĠreglugerÃ°ar":7272,"Ġca":7273,"ĠHef":7274,"ĠframÃºr":7275,"Ġmeirihluta":7276,"Ġsamningi":7277,"ĠhegÃ°un":7278,"seti":7279,"ĠrÃŃ":7280,"ysa":7281,"efnis":7282,"ĠVald":7283,"Ã¦rri":7284,"samningar":7285,"ĠkjÃ¶t":7286,"ferÃ°a":7287,"Ġstarfsleyfi":7288,"ĠviÃ°skiptavina":7289,"stÃŃma":7290,"Ġeinhverjar":7291,"Ġeigandi":7292,"Ġ2002":7293,"ĠEyjaf":7294,"ĠÃ¾votta":7295,"KK":7296,"Ġforeldrum":7297,"ĠbÃ¡rust":7298,"ĠBarna":7299,"Ã¦n":7300,"ingja":7301,"ĠglÃŃ":7302,"ĠHallg":7303,"ĠRa":7304,"Ġeinkar":7305,"ĠKirkju":7306,"Ġkven":7307,"Ġhreint":7308,"ĠinnrÃ©tt":7309,"skirkju":7310,"Ġha":7311,"Ġskyndi":7312,"ĠgerÃ°um":7313,"atil":7314,"ĠsamtÃŃm":7315,"ĠglÃ¦p":7316,"ĠKristÃŃn":7317,"ninn":7318,"jÃ³Ã°ar":7319,"vet":7320,"ÃŃra":7321,"Ġskug":7322,"herberg":7323,"ĠTÃ¶l":7324,"gen":7325,"ĠlokaÃ°":7326,"ĠStykkishÃ³l":7327,"ĠfjÃ³rÃ°ung":7328,"ĠsuÃ°":7329,"ĠsannfÃ¦r":7330,"ĠKri":7331,"Ġsystur":7332,"Ġpo":7333,"krafa":7334,"Ġtagi":7335,"greidd":7336,"ĠvÃ¦l":7337,"ĠÃ³skar":7338,"ĠhjÃ³na":7339,"sneyti":7340,"rÃ³k":7341,"ĠfjÃ¡rmagna":7342,"Ġcm":7343,"ĠhÃ©ldu":7344,"dÃ¡":7345,"ĠÅĲ":7346,"Ã°iÃ°":7347,"burÃ°ur":7348,"ĠsamgÃ¶ngu":7349,"ĠgrÃ¦nmeti":7350,"ĠaÃ°ferÃ°ir":7351,"ĠÃºtlendinga":7352,"uneytinu":7353,"ĠFÃ¦rey":7354,"ĠumferÃ°ar":7355,"ĠmÃ³ts":7356,"vÃ¦Ã°i":7357,"ĠgerÃ°ir":7358,"ÃŃnver":7359,"ĠÃ¡framhaldandi":7360,"Ã¦rum":7361,"egna":7362,"skÃ¡ld":7363,"Ġneinum":7364,"jarÃ°":7365,"Ġheimsm":7366,"And":7367,"Ġstofnunarinnar":7368,"ĠfljÃºga":7369,"ĠplÃ¶n":7370,"ĠlÃ¦kkun":7371,"ĠVilhjÃ¡l":7372,"Ã¶mm":7373,"Ġhross":7374,"ĠhÃ³pnum":7375,"ĠjÃ³kst":7376,"ĠfrÃ¦Ã°a":7377,"legrar":7378,"ĠsÃ¦n":7379,"ĠÃ¾roska":7380,"jÃ³si":7381,"konu":7382,"ĠGe":7383,"Ġeini":7384,"ĠskrÃ¡ningar":7385,"ĠrjÃ³":7386,"LE":7387,"Ġfyrirkomulag":7388,"ĠÃŀessar":7389,"ĠstÃ³ran":7390,"Ġafs":7391,"ĠsÃ½ndi":7392,"ÃºÃ°ar":7393,"ĠfÃ¦rni":7394,"deildinni":7395,"Menn":7396,"ĠuppÃ¡halds":7397,"ĠNoreg":7398,"Ã¶rygg":7399,"ĠhlutafÃ©lÃ¶g":7400,"ĠKR":7401,"fylgjandi":7402,"Ġhverjir":7403,"Ġnu":7404,"ĠbrÃ©fi":7405,"hjÃ³l":7406,"ĠSta":7407,"ĠÃ¡gÃ¦t":7408,"Ġframmi":7409,"leys":7410,"angar":7411,"fremur":7412,"lunar":7413,"iblÃŃ":7414,"ĠflÃŃs":7415,"ith":7416,"ĠfalliÃ°":7417,"ĠhÃ¦st":7418,"Ġhlutir":7419,"ĠstÃ¶Ã°ugleika":7420,"ĠJÃ³h":7421,"ĠAnna":7422,"afla":7423,"ĠframtÃŃÃ°inni":7424,"tÃ¶lur":7425,"agan":7426,"ĠGangi":7427,"hÃ½":7428,"ĠbrjÃ³st":7429,"Ġversla":7430,"linu":7431,"Ġmyndirnar":7432,"ĠsjÃ¡lfbÃ¦r":7433,"ĠStÃ¶Ã°":7434,"Ã¦riÃ°":7435,"ĠtÃŃmabilinu":7436,"ĠgÃ³l":7437,"tÃ¡n":7438,"essu":7439,"ĠkostnaÃ°ur":7440,"ĠskuldabrÃ©f":7441,"angreind":7442,"ĠstÃŃl":7443,"llinn":7444,"ĠframkvÃ¦mda":7445,"ilegra":7446,"uleika":7447,"Ġeil":7448,"lÃ¦":7449,"ĠhvÃ¸r":7450,"Ġstol":7451,"ĠHauk":7452,"brÃ¶gÃ°um":7453,"ningunni":7454,"ĠKÃ³pavogs":7455,"Ġstuttu":7456,"Ġrennur":7457,"Ã¡tta":7458,"ĠÃģrna":7459,"lysingar":7460,"ĠOf":7461,"Ġflokkum":7462,"ĠÃ½mist":7463,"MarkmiÃ°":7464,"ĠSÃ¶lu":7465,"Ġro":7466,"Ġ65":7467,"ĠundirbÃºa":7468,"ĠgerÃ°ur":7469,"2013":7470,"ĠBu":7471,"larnir":7472,"hafi":7473,"Ġsitur":7474,"Ã¶ndur":7475,"ĠdauÃ°a":7476,"ĠsnÃ½r":7477,"Ġskipuleggja":7478,"Ãºni":7479,"lutninga":7480,"ĠsamfÃ©lagiÃ°":7481,"Ġvakti":7482,"ĠhÃ¦fni":7483,"ĠLÃ¦k":7484,"sheim":7485,"ĠstarfiÃ°":7486,"Ġhreinlega":7487,"Ġleitast":7488,"Ġeignir":7489,"Ġteljum":7490,"ĠneyÃ°ar":7491,"rÃŃku":7492,"ĠSA":7493,"ĠkjÃ³s":7494,"ĠfjÃ¶lmiÃ°lum":7495,"ĠÃ¸ll":7496,"ĠumrÃ¦Ã°":7497,"ĠafnÃ¡m":7498,"Ġbless":7499,"Ãĸnnur":7500,"Ã¶ndunum":7501,"ĠvÃŃg":7502,"Pr":7503,"Ġkunn":7504,"ĠbÃ³l":7505,"Ġsleg":7506,"ĠJohn":7507,"ĠmeÃ°altali":7508,"ĠÃŃtrek":7509,"ĠaÃ°stand":7510,"viÃ°skipti":7511,"Ġsemja":7512,"insamlegast":7513,"Ġeitur":7514,"ĠaÃ°alfundi":7515,"lic":7516,"ÑĤ":7517,"ilja":7518,"tÃ¶kur":7519,"ĠskÃŃr":7520,"atal":7521,"sher":7522,"Ġreynir":7523,"69":7524,"arferÃ°":7525,"ĠstjÃ³rnarskrÃ¡":7526,".</":7527,"ĠgjaldmiÃ°":7528,"ĠspÃ¡ir":7529,"Ġunnu":7530,"Ġtug":7531,"ick":7532,"):":7533,"Ã¦lt":7534,"ĠsÃ³larhring":7535,"HiÃ°":7536,"Ġstiga":7537,"Ġeinhverjir":7538,"eislu":7539,"41":7540,"ĠalÃ¾ingismanna":7541,"fund":7542,"ĠsjÃ¡lfa":7543,"ĠÃ¾rÃ³a":7544,"uÃ°a":7545,"spjall":7546,"lagt":7547,"ĠvÃŃsu":7548,"yfirvÃ¶ld":7549,"ĠsvaraÃ°":7550,"ĠsamrÃ¡Ã°i":7551,"Ġlanga":7552,"bre":7553,"Ġas":7554,"stjÃ³rinn":7555,"ĠverÃ°lagningu":7556,"tengd":7557,"ĠsÃ¶kum":7558,"Ġkennt":7559,"afur":7560,"ĠHjal":7561,"Ġkrakk":7562,"Ġbls":7563,"ĠÃŃslenskar":7564,"78":7565,"ĠhÃ¶fÃ°um":7566,"Ġlu":7567,"Ġ400":7568,"ĠlÃ¡gu":7569,"ĠlÃŃkams":7570,"Ã©g":7571,"Ġklst":7572,"ĠÃŀÃ³rÃ°ar":7573,"Ġkeppnum":7574,"ĠÃ¶Ã°ruvÃŃsi":7575,"Ġpakk":7576,"ĠbyggÃ°a":7577,"ĠsveitarfÃ©lagsins":7578,"ĠframleiÃ°a":7579,"ĠnÃ³gv":7580,"ĠSama":7581,"ĠsamhliÃ°a":7582,"Enginn":7583,"ĠbyggÃ°ar":7584,"Ġkrabbamein":7585,"ĠliÃ°s":7586,"Ġken":7587,"ĠÃºtgef":7588,"ĠÃ¡s":7589,"ĠundanfÃ¶rnu":7590,"ĠverÃ°bÃ³lga":7591,"lingu":7592,"etti":7593,"ĠhlotiÃ°":7594,"ĠÃģrni":7595,"Ã¶ru":7596,"ĠMarÃŃa":7597,"ĠÃ¶nd":7598,"ĠDe":7599,"ĠrÃ¡Ã°stafanir":7600,"Ġkg":7601,"ĠsÃ©rhÃ¦":7602,"Ġvinir":7603,"ĠAg":7604,"ĠÃĸl":7605,"ĠUndir":7606,"Ġmetin":7607,"Inn":7608,"43":7609,"ĠÃ³m":7610,"ĠnÃºtÃŃm":7611,"fÃ¡":7612,"bandalag":7613,"Ġch":7614,"issa":7615,"IS":7616,"Ġeigna":7617,"ĠverkiÃ°":7618,"lurnar":7619,"198":7620,"renn":7621,"jÃ¶ri":7622,"ĠauÃ°l":7623,"ĠEyr":7624,"SkrÃ¡":7625,"ĠSamtaka":7626,"eyk":7627,"ĠÃºtil":7628,"Ġgetu":7629,"unefnd":7630,"Sn":7631,"ĠÃ¾Ã¡ttur":7632,"ĠfyrirtÃ¦kinu":7633,"ĠstaÃ°festingu":7634,"Ġstofna":7635,"Ġalmanna":7636,"ĠrithÃ¶f":7637,"ĠvefsÃŃ":7638,"vÃ¦la":7639,"Ġstofnunum":7640,"Ġkveik":7641,"Ġ49":7642,"ĠloftiÃ°":7643,"ĠviÃ°skiptavini":7644,"Ġathugasemdum":7645,"sstÃ¶Ã°um":7646,"ĠKÃ³pavogi":7647,"ĠuppÃ¡st":7648,"Ġtutt":7649,"ĠhÃ¡lend":7650,"Ġmel":7651,"ĠfÃ¦rri":7652,"kona":7653,"ĠmÃ¦list":7654,"se":7655,"Ã¦Ã°ar":7656,"Ġbirtar":7657,"jasta":7658,"ĠhlÃ©":7659,"markaÃ°":7660,"Ġtilkynnti":7661,"stÃ¶rf":7662,"rÃ¶Ã°":7663,"kra":7664,"Ġfing":7665,"ĠembÃ¦tti":7666,"Ġsparis":7667,"Ã¶lur":7668,"ĠmiÃ°la":7669,"ide":7670,"ĠviÃ°halda":7671,"ĠmÃŃnar":7672,"ĠtÃŃmanum":7673,"ĠSport":7674,"slegum":7675,"Ġsalt":7676,"ĠNÃ¡":7677,"ĠgÃ¶mul":7678,"anefndar":7679,"Ġrug":7680,"ĠhÃ¦kkaÃ°":7681,"Ġpeningum":7682,"ĠsamiÃ°":7683,"ĠkvÃ¶ldiÃ°":7684,"Eitt":7685,"ĠÃ¦fa":7686,"Ġhvergi":7687,".[":7688,"Ġhaus":7689,"ĠhÃ©rlendis":7690,"ĠÃ¾arftu":7691,"Ġdrei":7692,"Ġdval":7693,"ĠEÃ°a":7694,"Ã¶finni":7695,"ĠFÃ¡":7696,"hor":7697,"ena":7698,"komin":7699,"afÃ©lagiÃ°":7700,"Ġkomum":7701,"ĠveiÃ°a":7702,"tunum":7703,"ĠKvikmynd":7704,"Ġhinni":7705,"leiÃ°slu":7706,"ĠSuÃ°urlands":7707,"âĢĿ.":7708,"borgarar":7709,"ĠÃºtbÃº":7710,"ĠAlÃ¾jÃ³Ã°":7711,"emÃŃ":7712,"ĠÃģgÃºst":7713,"ĠkÃ¦ru":7714,"Ġundantek":7715,"Ġfagna":7716,"Ġtilfinning":7717,"ĠendurgreiÃ°slu":7718,"ĠMosf":7719,"kerfisins":7720,"engis":7721,"Ã¶fnum":7722,"Ġafhent":7723,"ĠfjÃ³rar":7724,"ĠfjÃ¶lbrey":7725,"ĠskjÃ¶l":7726,"nab":7727,"ĠvÃ¶nd":7728,"Ġfrelsi":7729,"Ã¦tis":7730,"skÃ½rslu":7731,"lÃŃnu":7732,"efnan":7733,"ĠbarÃ¡tt":7734,"skju":7735,"ĠÃ¡ttum":7736,"68":7737,"Ġdru":7738,"Ã¶kunar":7739,"ĠEnter":7740,"lunum":7741,"ĠHarald":7742,"vÃŃg":7743,"rid":7744,"ĠhÃºsnÃ¦Ã°ismÃ¡l":7745,"ĠhÃ³tela":7746,"tas":7747,"ĠnÃ¦ringar":7748,"ĠpappÃŃr":7749,"Ġreyk":7750,"ĠÃŃslenskrar":7751,"ĠjÃ¡r":7752,"ĠrÃ¡Ã°um":7753,"ĠfÃ¦Ã°ingarorlof":7754,"ĠParÃŃs":7755,"ĠRÃºnar":7756,"ĠÃ¦sku":7757,"ĠlÃŃkama":7758,"Ġstofu":7759,"75":7760,"Ġvina":7761,"Ġ2001":7762,"rikk":7763,"ĠraÃ°":7764,"rÃ³Ã°ir":7765,"eppi":7766,"Ġstraum":7767,"ĠAlls":7768,"verÃ°ur":7769,"Ġofur":7770,"asemdir":7771,"Ã¦Ã°ingarorlof":7772,"berandi":7773,"Ġskemmti":7774,"ĠmÃ¦ttu":7775,"Ġefst":7776,"Ġkosninga":7777,"ãĤ":7778,"ĠrÃŃkja":7779,"Ġsamtali":7780,"ĠfaliÃ°":7781,"boriÃ°":7782,"Ġsteik":7783,"Ġnefni":7784,"heimil":7785,"JÃ³":7786,"lei":7787,"ĠReykjavÃŃkurborgar":7788,"ĠMag":7789,"ĠÃģÃ°ur":7790,"alÃŃf":7791,"rin":7792,"ĠÃ¾rÃ¡":7793,"aldri":7794,"deginum":7795,"les":7796,"Ġgreinir":7797,"ĠauglÃ½singar":7798,"kepp":7799,"ĠsvaraÃ°i":7800,"ĠtjÃ³n":7801,"ĠEur":7802,"Almenn":7803,"ĠleiÃ°arl":7804,"Ġkrefjast":7805,"uleiÃ°is":7806,"nÃ¡mi":7807,"ack":7808,"Skip":7809,"Ġverkefninu":7810,"ĠhÃºssins":7811,"leit":7812,"ment":7813,"Ġrefs":7814,"01":7815,"Ġpanta":7816,"OpiÃ°":7817,"Ġork":7818,"te":7819,"ĠÃ¾Ã¡ttum":7820,"ĠaÃ°ferÃ°um":7821,"Ġlitlum":7822,"RE":7823,"ĠUmhverfisstofnun":7824,"Ġgildandi":7825,"ĠSjÃ³nvarp":7826,"ĠaÃ°ildarrÃŃk":7827,"ion":7828,"Ð½":7829,"NÃ¡m":7830,"randi":7831,"ĠnotaÃ°ur":7832,"ĠsÃ½k":7833,"Ġkynnir":7834,"punk":7835,"Ã³Ã°i":7836,"ĠendaÃ°i":7837,"ĠMart":7838,"ĠBlÃ¡":7839,"ĠvoriÃ°":7840,"ĠerfÃ°a":7841,"arfirÃ°i":7842,"ĠrÃ¡Ã°iÃ°":7843,"lags":7844,"1991":7845,"ĠBrey":7846,"tanrÃŃkis":7847,"ĠfrÃ©ttum":7848,"Ġdeig":7849,"ĠÃ¡kveÃ°na":7850,"Ġstofnana":7851,"kenni":7852,"ĠVÃ©l":7853,"ĠÃŃbÃºÃ°a":7854,"1993":7855,"ĠLjÃ³smyndir":7856,"Ãŀema":7857,"Ġeflaust":7858,"engja":7859,"ĠmÃº":7860,"ĠstarfsfÃ³lki":7861,"firÃ°":7862,"ttan":7863,"unir":7864,"imp":7865,"Ġ=":7866,"Ġfyrirfram":7867,"ock":7868,"Ã¤":7869,"Ġyfirlit":7870,"ags":7871,"jam":7872,"ĠByggÃ°a":7873,"frv":7874,"ĠvÃŃÃ°ar":7875,"Ġsundur":7876,"imar":7877,"ĠfÃ¦rt":7878,"Ġlausnir":7879,"Ã¡byrg":7880,"Ġbarst":7881,"Ġstur":7882,"Ġlei":7883,"Ã¦Ã°ingarorlofss":7884,"Ġfly":7885,"Ġefri":7886,"El":7887,"ĠskÃ½rt":7888,"horniÃ°":7889,"ĠhÃ¶gg":7890,"Ã©kk":7891,"boÃ°aliÃ°":7892,"ĠÃ¡vÃ¶x":7893,"ĠlÃ¦knis":7894,"ĠeldhÃºs":7895,"Ġbyl":7896,"ĠgjÃ¶ldum":7897,"uglar":7898,"Ġgreinum":7899,"ĠnjÃ³":7900,"slaus":7901,"02":7902,"Ġhol":7903,"ĠnÃ¡ttÃºruvernd":7904,"Ġ1990":7905,"arv":7906,"viliÃ°":7907,"Ã¸gu":7908,"ĠÃ¡stÃ¦Ã°um":7909,"Ġpass":7910,"Ġteim":7911,"Ã¸Ã°":7912,"ĠeinfÃ¶ld":7913,"ĠÃºtreik":7914,"Ġnotast":7915,"Ġfyrstur":7916,"eyg":7917,"yp":7918,"Ġauglysingar":7919,"ĠbÃ¦jarins":7920,"ĠAd":7921,"Ġ42":7922,"ĠvÃŃsb":7923,"ĠsjÃ¡lfstÃ¦tt":7924,"ĠsmÃŃÃ°":7925,"ĠmarkmiÃ°um":7926,"Ġleiks":7927,"ĠFrakklandi":7928,"Ġtilskip":7929,"Ġtakt":7930,"ĠsjÃºklinga":7931,"ĠhundruÃ°":7932,"yra":7933,"ĠviÃ°hald":7934,"The":7935,"skjal":7936,"ĠHjÃ¡":7937,"ĠtÃ¶lublaÃ°":7938,"ĠÃºtflutning":7939,"Ġinnihalda":7940,"Ġ101":7941,"frÃ¡":7942,"ĠÃŀorsteinn":7943,"ika":7944,"ĠeÃ°lilega":7945,"ral":7946,"ĠkerfiÃ°":7947,"ĠheitiÃ°":7948,"ĠnÃ¶fn":7949,"ĠstÃ½ra":7950,"ĠMÃ³t":7951,"ĠAmer":7952,"ĠviÃ°skiptavinum":7953,"ĠJÃ³na":7954,"ĠembÃ¦ttis":7955,"age":7956,"ĠnÃ½tist":7957,"Ġsinnt":7958,"igt":7959,"ĠnÃ½bir":7960,"Ġgag":7961,"Ã¶stu":7962,"Ġfyrrum":7963,"ĠmiÃ°vikudag":7964,"ĠmÃ¶rkum":7965,"ĠHafnarfjarÃ°ar":7966,"ĠuppÃ¡komur":7967,"ĠhÃºm":7968,"ĠhlutabrÃ©f":7969,"ĠkÃ¦mi":7970,"Ġdreifingu":7971,"atÃŃ":7972,"emmt":7973,"Ġsvart":7974,"svegar":7975,"ĠheimasÃŃÃ°":7976,"Ġ41":7977,"Ġgos":7978,"vari":7979,"afÃ©lagsins":7980,"ĠjafnvÃ¦gi":7981,"aflokki":7982,"jÃ³ni":7983,"Ġrekur":7984,"minjasafn":7985,"teg":7986,"ĠTak":7987,"ĠniÃ°urstaÃ°a":7988,"Ã¾rÃ³tta":7989,"olÃŃu":7990,"65":7991,"Allir":7992,"samningi":7993,"ĠborÃ°i":7994,"ĠbrÃºn":7995,"Ġminnir":7996,"amik":7997,"2012":7998,"ĠbÃŃlast":7999,"rÃ¡Ã°s":8000,"uth":8001,"Ġefa":8002,"ĠMenningar":8003,"ĠÃ¡kvÃ¶rÃ°":8004,"72":8005,"ogar":8006,"ÃŀrÃ¡tt":8007,"ĠbÃºvÃ¶rum":8008,"stÃ¶Ã°inni":8009,"ĠmeÃ°vit":8010,"rÃ¡Ã°a":8011,"Ġallavega":8012,"sala":8013,"ĠLok":8014,"IÃĲ":8015,"ĠdjÃºp":8016,"ĠÃ¡stÃ¦Ã°ur":8017,"ĠrÃ¦Ã°u":8018,"SÃ½na":8019,"ddar":8020,"ĠĠ":8021,"verÃ°a":8022,"erka":8023,"ĠSuÃ°urnes":8024,"ĠGott":8025,"za":8026,"umiÃ°":8027,"agiÃ°":8028,"mt":8029,"ĠAnnars":8030,"ĠlÃ¶ng":8031,"ĠlÃŃklegt":8032,"Ġkrydd":8033,"ĠFramkvÃ¦md":8034,"Ġstigum":8035,"aÃ°sdÃ³m":8036,"ĠhjÃºkrunar":8037,"napp":8038,"ĠfurÃ°u":8039,"ĠskÃ½ra":8040,"lauk":8041,"FjÃ¡r":8042,"ĠsvÃ¦Ã°um":8043,"ĠIS":8044,"ĠdÃ¶finni":8045,"indur":8046,"Ġeinkenn":8047,"ĠFyrsta":8048,"Ġ88":8049,"Ġinnihald":8050,"inginn":8051,"sel":8052,"Ġtapa":8053,"entun":8054,"ati":8055,"Ġgir":8056,"ĠÃ³n":8057,"ĠblÃ¶nd":8058,"Ġtalar":8059,"Ġnotenda":8060,"ĠeÃ°lis":8061,"itter":8062,"ĠÃ¡stÃ¦Ã°":8063,"Ġ98":8064,"ĠMaÃ°ur":8065,"ĠjÃ³lag":8066,"ÑĢ":8067,"ĠstoÃ°":8068,"dum":8069,"ĠSet":8070,"ĠHÃ¡l":8071,"valla":8072,"lus":8073,"Ã¶guleika":8074,"ĠÃŀorstein":8075,"ĠbrjÃ³ta":8076,"ĠstarfaÃ°i":8077,"ĠfÃŃkni":8078,"ĠList":8079,"Ġstarfsmann":8080,"ĠSigurÃ°ardÃ³ttir":8081,"lestur":8082,"sÃŃu":8083,"Ġflokksins":8084,"ĠEÃ°":8085,"900":8086,"Ġumtals":8087,"Ġ68":8088,"flokksins":8089,"anak":8090,"></":8091,"ĠrÃ½mi":8092,"ĠEirÃŃk":8093,"fÃ¶ng":8094,"Ġleiti":8095,"Ã¡t":8096,"ĠFar":8097,"ge":8098,"ĠNÃ¡nari":8099,"Ġvikna":8100,"ĠaÃ°gangur":8101,"ĠsÃ©rlega":8102,"ĠÃ¦Ã°i":8103,"ĠmilljÃ¶rÃ°um":8104,"Ġblanda":8105,"Ġsnilld":8106,"ĠHlut":8107,"Ġforset":8108,"ĠsagÃ°ist":8109,"ĠSkÃ³la":8110,"eyt":8111,"bjar":8112,"jo":8113,"ĠÃºrgang":8114,"ĠGro":8115,"ĠplÃ¶tu":8116,"Ġnefndar":8117,"mennsku":8118,"ĠMel":8119,"ext":8120,"ĠSumir":8121,"ĠgÃ³Ã°ir":8122,"Ġfangelsi":8123,"augar":8124,"Einnig":8125,"Ġfalli":8126,"ĠÃ³venju":8127,"ĠkrÃ¶fum":8128,"ea":8129,"ĠbÃ³kina":8130,"ĠÃįslandsm":8131,"Ġaukin":8132,"ĠJÃºlÃŃ":8133,"ĠliÃ°ur":8134,"Hvernig":8135,"ĠdjÃº":8136,"ĠfÃ¦tur":8137,"afram":8138,"ĠÃ¾Ã¡tta":8139,"ĠPer":8140,"ĠÃ¡grein":8141,"ĠÃ¾rÃ½st":8142,"ĠÃŀÃ³tt":8143,"ĠyfirborÃ°":8144,"Ġbreytinga":8145,"ĠlÃ¦gri":8146,"Ġcookies":8147,"ĠbÃ¦k":8148,"Ġspjald":8149,"ĠJÃ¶k":8150,"Ġkrafa":8151,"sgrein":8152,"kos":8153,"Ġlandslag":8154,"lÃ½sing":8155,"ĠnÃ¡i":8156,"ĠjafnrÃ©ttis":8157,"Ġhugmyndum":8158,"ĠSan":8159,"Ġefstu":8160,"skÃ³lar":8161,"ĠSeÃ°labankinn":8162,"ĠskÃ¶mmu":8163,"Ġheimav":8164,"svÃ¶r":8165,"Ġlandsmanna":8166,"taÃ°i":8167,"Ġneinu":8168,"ĠrÃ©ttu":8169,"gÃ¶tu":8170,"ĠÃ¾eg":8171,"Ã³su":8172,"brÃºn":8173,"Ġhav":8174,"ÃŀvÃŃ":8175,"Ġdeildar":8176,"ĠÃŀur":8177,"eftirlitiÃ°":8178,"ĠpersÃ³nuupplÃ½singa":8179,"gis":8180,"Ġinnflyt":8181,"Ġteimum":8182,"ĠEFTA":8183,"ĠRaf":8184,"Ġfundinn":8185,"ĠÃ¡kaf":8186,"Ġjaf":8187,"andans":8188,"ĠÃ¾arfir":8189,"Ñģ":8190,"Ġheill":8191,"gÃ¶gn":8192,"slÃ¶g":8193,"Ġkerfis":8194,"SeÃ°lab":8195,"Ġskuldir":8196,"Ġgreiningu":8197,"ĠHB":8198,"ĠbrÃ³Ã°ur":8199,"ĠJÃ³nsdÃ³ttir":8200,"ĠsjÃ¡lfu":8201,"ĠStur":8202,"bundiÃ°":8203,"Ġhreyfingu":8204,"Verk":8205,"Ġfest":8206,"ĠbyrjaÃ°":8207,"ĠÃ¡berandi":8208,"ĠviÃ°kvÃ¦m":8209,"aflug":8210,"veldi":8211,"Ã¨":8212,"still":8213,"Ġreynst":8214,"ĠefnahagsrÃ¡Ã°":8215,"Hugmyndir":8216,"Ġslag":8217,"ĠmÃ³Ã°ir":8218,"Vef":8219,"ĠMin":8220,"verÃ°trygg":8221,"gil":8222,"ĠFÃ¦Ã°ingarorlofss":8223,"Ġkynningu":8224,"Ġdaglegu":8225,"ĠGrinda":8226,"ĠstaÃ°ir":8227,"deil":8228,"skarandi":8229,"Ġflokkur":8230,"ĠNÃ¡mskeiÃ°":8231,"notkun":8232,"Ġfarinn":8233,"ĠferÃ°aÃ¾jÃ³nustunnar":8234,"ĠmÃºs":8235,"ĠvatniÃ°":8236,"sjÃ³Ã°ur":8237,"Ġfrumkv":8238,"Ġfylla":8239,"td":8240,"rast":8241,"Ġkenni":8242,"ĠSiglu":8243,"Ġhagsmuni":8244,"enging":8245,"flu":8246,"hlÃŃÃ°":8247,"sÃ¶gum":8248,"Ġbreyst":8249,"Ġ61":8250,"ĠÃ¡hugi":8251,"ĠuppÃ¡stungu":8252,"ĠÃģst":8253,"Ġ>":8254,"ĠfjallaÃ°i":8255,"ĠfjÃ¶ll":8256,"ĠOk":8257,"Ġkennarar":8258,"ĠfjÃ¡rmÃ¶gnun":8259,"ĠalÃ¾jÃ³Ã°lega":8260,"ĠvÃ¶ld":8261,"ĠdÃ³mstÃ³l":8262,"lausu":8263,"fal":8264,"ĠASÃį":8265,"ĠMatthÃŃas":8266,"ĠEll":8267,"ĠuppgÃ¶t":8268,"oo":8269,"skipt":8270,"Ã¡Ã°i":8271,"Ġleikjum":8272,"ĠprÃ³sen":8273,"Ġlenti":8274,"ĠmiÃ°jum":8275,"ĠvÃ¶kv":8276,"Ġmyndar":8277,"ĠrÃ³t":8278,"SÃ©r":8279,"Ġmikils":8280,"stofunni":8281,"Ġreyndi":8282,"tÃ³n":8283,"sjÃºkdÃ³m":8284,"RÃŃk":8285,"reglum":8286,"Ã¦slu":8287,"ĠmÃ¡lefnum":8288,"ĠMagnÃºsson":8289,"ĠUmhverfisstofnunar":8290,"annar":8291,"ĠNot":8292,"rÃ½st":8293,"ĠhÃ¡degis":8294,"ĠnÃ½veriÃ°":8295,"ĠverÃ°brÃ©f":8296,"ĠglaÃ°":8297,"Ġmillum":8298,"kynhneig":8299,"Ġbarnsins":8300,"lausn":8301,"Kom":8302,"MA":8303,"veig":8304,"ĠsmjÃ¶r":8305,"ĠmetnaÃ°":8306,"Ġvitni":8307,"Ġrosalega":8308,"Ġoss":8309,"ĠÃºtsÃ½ni":8310,"ĠBÃ¦jar":8311,"ĠBaldur":8312,"ĠGunnarsson":8313,"okka":8314,"ĠSjÃ¡var":8315,"ĠÃ¡ratugi":8316,"vÃ¶llum":8317,"Ġ67":8318,"Hel":8319,"ĠdauÃ°":8320,"ĠskoraÃ°i":8321,"hÃ¡skÃ³la":8322,"ĠHorn":8323,"ĠmiÃ°ju":8324,"sniÃ°":8325,"ĠsÃ½nist":8326,"Ġflugvellinum":8327,"Ġheyrt":8328,"Ġleiddi":8329,"SÃŃÃ°an":8330,"ĠUn":8331,"ĠsamfÃ©lagsins":8332,"ĠnorÃ°":8333,"Ġ120":8334,"ĠSkrif":8335,"ĠKÃ¦r":8336,"ĠAld":8337,"eitum":8338,"ĠbÃ¦tir":8339,"grunn":8340,"ĠSnÃ¦r":8341,"ĠhÃ³pinn":8342,"Ġnokkurra":8343,"ĠlÃ¦kna":8344,"ĠmÃ³tinu":8345,"ĠmiÃ°lun":8346,"Ġ*":8347,"bragÃ°":8348,"ĠÃįtalÃŃu":8349,"Fara":8350,"stÃ¶Ã°in":8351,"mingar":8352,"rÃ¦tt":8353,"Ġkeyra":8354,"sy":8355,"alÃ¡":8356,"ĠOl":8357,"Ġsundlaug":8358,"Ġskrey":8359,"Ġverkefnisins":8360,"ĠeruÃ°":8361,"engt":8362,"ĠheyrÃ°i":8363,"ĠÃŀorlÃ¡":8364,"stÃ¶Ã°vum":8365,"aÃ°inn":8366,"ĠÃ¡reiÃ°":8367,"Ġsveig":8368,"ĠmistÃ¶k":8369,"ĠAug":8370,"ĠÃ¾jÃ³na":8371,"Ġhesum":8372,"Ġandlit":8373,"TÃ¶lvur":8374,"ĠgÃ¶ng":8375,"ĠfarÃ¾egar":8376,"ĠfatlaÃ°ra":8377,"MÃ¡l":8378,"ĠstarfsmÃ¶nnum":8379,"Ġsannleik":8380,"1995":8381,"ĠutanaÃ°":8382,"ĠStu":8383,"fyrirtÃ¦k":8384,"Ġgefst":8385,"ĠsjÃºkdÃ³ma":8386,"Ã³kasafn":8387,"Auka":8388,"ĠfrumkvÃ¦Ã°i":8389,"Ġhollu":8390,"gjafa":8391,"ĠlÃ½sti":8392,"ĠSigurjÃ³n":8393,"ĠVegna":8394,"ĠsamfÃ©lagsmiÃ°":8395,"stÃ¦Ã°an":8396,"vÃ¶llur":8397,"ĠrÃ¦ktun":8398,"ĠÃ¡hÃ¦tt":8399,"Ã¡Ã°u":8400,"ĠaÃ°dÃ¡":8401,"Ġsamantekt":8402,"ĠsamanboriÃ°":8403,"orÃ°iÃ°":8404,"ĠBakka":8405,"ĠhljÃ³ta":8406,"ĠEinarsson":8407,"ĠfÃ¡st":8408,"ĠfrÃ¡bÃ¦ra":8409,"ĠÃŀeim":8410,"ĠsÃºkkulaÃ°i":8411,"ĠkÃŃkja":8412,"ĠklÃºbb":8413,"Keppni":8414,"ÃŃtar":8415,"Ã©t":8416,"ĠstÃ¦rsti":8417,"ginn":8418,"hÃ¦ttu":8419,"ĠGrÃŃms":8420,"Ã¶Ã°in":8421,"ĠBjÃ¶rk":8422,"heimilt":8423,"ĠÃ¾rÃ³ast":8424,"66":8425,"ĠvefsvÃ¦Ã°i":8426,"ĠstuÃ°nings":8427,"Ġfitu":8428,"Ġstarfsem":8429,"Ġforrit":8430,"Ġrannsak":8431,"heiÃ°":8432,"ĠÃ¾vert":8433,"ĠEvrÃ³pusambandinu":8434,"ino":8435,"ilma":8436,"emb":8437,"ĠskÃ¶ttum":8438,"ĠvirÃ°is":8439,"ĠsÃ¶gunnar":8440,"ĠaÃ°lÃ¶g":8441,"ĠforstjÃ³ra":8442,"virÃ°i":8443,"ĠHau":8444,"ĠTra":8445,"ĠÃ¶kum":8446,"frestur":8447,"In":8448,"eiki":8449,"ĠfjÃ³ra":8450,"Ġminningar":8451,"unt":8452,"ĠstarfskjÃ¶r":8453,"olÃŃ":8454,"ĠpersÃ³nulega":8455,"slok":8456,"%,":8457,"skild":8458,"ĠaÃ°ildarviÃ°":8459,"ĠskilyrÃ°um":8460,"ĠÄįÃŃ":8461,"Ġtryggingar":8462,"skÃ¡l":8463,"ĠstrÃ¶nd":8464,"ĠlÃŃfsins":8465,"efnin":8466,"ĠbÃ¦tur":8467,"hÃ½si":8468,"ĠafleiÃ°ingar":8469,"ĠHannes":8470,"Ġherbergis":8471,"ĠForn":8472,"ĠflogiÃ°":8473,"lÃŃÃ°an":8474,"ation":8475,"Ġgengu":8476,"ĠvÃ¶x":8477,"ĠauglÃ½st":8478,"ĠÃ¾ekki":8479,"Ã³mynd":8480,"Ġyvir":8481,"ĠÃįsrael":8482,"ĠBenediktssonar":8483,"BV":8484,"StÃºd":8485,"ĠskjÃ³ta":8486,"line":8487,"ĠGÃŃsli":8488,"Ġverka":8489,"Ġ77":8490,"ĠlÃŃfsg":8491,"ljÃ³msveit":8492,"Ã¾aÃ°":8493,"ĠVG":8494,"ĠhleÃ°":8495,"byggÃ°in":8496,"svein":8497,"ĠSpÃ¡":8498,"Ġan":8499,"ĠsjÃ¡lfkrafa":8500,"Ġfundum":8501,"Ġbit":8502,"ble":8503,"Ġuppskriftir":8504,"ĠGreiningardeild":8505,"Ġeinstaklingur":8506,"skif":8507,"rop":8508,"dÃ³mi":8509,"fast":8510,"Ġvelur":8511,"drÃ¡ttar":8512,"witter":8513,"Ã³tta":8514,"Ġengum":8515,"Ġ1999":8516,"ĠsÃ½slum":8517,"53":8518,"HjÃ¡lp":8519,"Br":8520,"mÃ¶gnun":8521,"ĠEd":8522,"Ã©tti":8523,"Ã¶nnuÃ°":8524,"ĠLaugardal":8525,"ĠhjÃ³n":8526,"ĠHÃºsavÃŃk":8527,"Ġupphaflega":8528,"Ġfars":8529,"ĠtakmÃ¶rk":8530,"ĠLÃŃk":8531,"ĠnÃ½jasta":8532,"ĠÃ¡nÃ¦gÃ°":8533,"unniÃ°":8534,"ĠSelfossi":8535,"Ġfrels":8536,"Ġeinstaklings":8537,"Sem":8538,"Ġsmell":8539,"Ġforsendum":8540,"ĠÃ¾yngd":8541,"pla":8542,"alar":8543,"Ã¡mi":8544,"Ġeykur":8545,"ĠFull":8546,"skipan":8547,"Ġbjart":8548,"Ġeigendur":8549,"ĠmÃ¡nudag":8550,"ĠveÃ°ri":8551,"hall":8552,"ĠdÃ½p":8553,"Ã¦tur":8554,"rÃ³Ã°":8555,"IK":8556,"alegu":8557,"areg":8558,"sleiÃ°":8559,"angav":8560,"ĠsÃ½ningunni":8561,"Ġlaunum":8562,"Ġveitti":8563,"ĠSkÃº":8564,"ĠvakiÃ°":8565,"ĠandstÃ¦Ã°":8566,"auÃ°i":8567,"ĠsafnaÃ°":8568,"staklega":8569,"Ġpassa":8570,"ĠgÃ¡tu":8571,"ĠmjÃºk":8572,"ĠnÃ¡ttÃºrulega":8573,"der":8574,"vatni":8575,"ĠST":8576,"ĠskÃ³lum":8577,"Ġsj":8578,"03":8579,"ĠsÃ½ningu":8580,"ĠvinnubrÃ¶gÃ°":8581,"ĠhagnÃ½":8582,"ĠnÃ½s":8583,"orld":8584,"Ã³lfur":8585,"ĠinnviÃ°":8586,"Ġalgerlega":8587,"Rey":8588,"ros":8589,"ĠlÃ©st":8590,"Ġ161":8591,"ĠeinstÃ¶k":8592,"jafa":8593,"ĠÃĸnnur":8594,"rÃ¦ktar":8595,"Nor":8596,"Ġvonum":8597,"aferÃ°ir":8598,"ĠLjÃ³smyndun":8599,"ljÃ³s":8600,"ĠAthug":8601,"Ġmm":8602,"ÂŃÂŃ":8603,"Ġfundur":8604,"ĠrÃ©ttum":8605,"ĠtrÃºa":8606,"Ġhvattir":8607,"gildi":8608,"ĠgrÃŃpa":8609,"Ġhir":8610,"sÃ³knum":8611,"lyndi":8612,"ĠskjÃ¡ir":8613,"ĠhrÃ³":8614,"ĠpÃ³":8615,"riti":8616,"ĠsauÃ°":8617,"ĠvÃ¶k":8618,"ĠÃ¾rÃ¦":8619,"04":8620,"miÃ°a":8621,"Ġsamanst":8622,"ĠEv":8623,"ĠbjÃ¶rgunar":8624,"Ġyndi":8625,"Ġskri":8626,"efli":8627,"ĠGre":8628,"Ġendursk":8629,"jÃ¶kli":8630,"ĠleiÃ°arljÃ³si":8631,"Ġalvarlega":8632,"Ġvekur":8633,"Ã¶fur":8634,"ĠrekiÃ°":8635,"ĠutanaÃ°komandi":8636,"eiga":8637,"anÃ¡m":8638,"Ã³f":8639,"anlegar":8640,"ĠLind":8641,"arins":8642,"ĠFljÃ³":8643,"ĠundanÃ¾Ã¡":8644,"ĠskipuÃ°":8645,"ĠslÃŃku":8646,"ĠVestfjarÃ°a":8647,"brauÃ°":8648,"ĠhÃ¸v":8649,"nÃ¡mskeiÃ°":8650,"ĠstÃ³rkost":8651,"ĠKaupmannahafnar":8652,"ĠnÃºtÃŃma":8653,"Ġskiptist":8654,"Ġmerkingu":8655,"viÃ°ur":8656,"Ġsameiginlegt":8657,"ĠSkipulag":8658,"illu":8659,"Icel":8660,"jung":8661,"ĠniÃ°ri":8662,"Ãºk":8663,"ĠÃģlf":8664,"Ġ)":8665,"hÃºssins":8666,"Ġkennari":8667,"lausa":8668,"Ã¶rnin":8669,"sÃ¶gur":8670,"ĠÃ¡hugaverÃ°a":8671,"ttur":8672,"ĠfÃ©lÃ¶gum":8673,"avn":8674,"ĠGau":8675,"Ġsonur":8676,"Ġveturinn":8677,"rÃ¦ti":8678,"nema":8679,"arfÃ©lÃ¶gum":8680,"Eig":8681,"Ġtekst":8682,"ĠKeflavÃŃk":8683,"boÃ°a":8684,"ĠÃįsafjarÃ°ar":8685,"Greinar":8686,"Ġalmenningi":8687,"Ġlengst":8688,"ĠjÃ¶rÃ°u":8689,"ĠframÃºrskarandi":8690,"NÃ½jasta":8691,"Ġnefnist":8692,"ĠdÃ³ttir":8693,"heilsu":8694,"len":8695,"ĠmyndavÃ©l":8696,"Ġkeppendur":8697,"Ġlamb":8698,"ĠframkvÃ¦ma":8699,"Ġheimildar":8700,"hÃ¡tt":8701,"Ġsvik":8702,"jurnar":8703,"skipulagi":8704,"Ġgrunni":8705,"stefna":8706,"ĠlÃ¦rt":8707,"sleit":8708,"Ã¡rs":8709,"ĠleiÃ°sÃ¶gn":8710,"ĠendurgreiÃ°":8711,"fÃ¶ll":8712,"ĠsÃŃman":8713,"ĠhÃ¦starÃ©ttar":8714,"ĠÃĵskar":8715,"ĠhÃ¶fundur":8716,"anlegur":8717,"ĠnÃ½birtum":8718,"Ey":8719,"ĠMÃ½vatn":8720,"bank":8721,"jÃ³ri":8722,"ĠLax":8723,"ĠPort":8724,"heimildir":8725,"ĠÃ¾jÃ³n":8726,"Ġkvikmyndir":8727,"Ġramma":8728,"Ġopnum":8729,"dan":8730,"Ã¦dd":8731,"erra":8732,"ĠferÃ°um":8733,"ĠfÃ³lksins":8734,"ssÃ½":8735,"ekstur":8736,"ĠkÃŃlÃ³m":8737,"Ġviti":8738,"ĠhÃºsa":8739,"ĠÃ¡standi":8740,"hi":8741,"Ġfesta":8742,"Ġgeymslu":8743,"ĠvarnaraÃ°ila":8744,"RA":8745,"ĠÃ¾ingi":8746,"ĠpÃ¶ntun":8747,"ĠviÃ°tali":8748,"ĠÃºthlutun":8749,"Ġmannkyn":8750,"ĠÃĿms":8751,"ĠlÃ¶gin":8752,"kor":8753,"Ġeftirliti":8754,"Ġhrif":8755,"Ġ72":8756,"Ġsofa":8757,"Ð¾Ð":8758,"ĠviÃ°burÃ°i":8759,"ĠsamÃ¾ykkti":8760,"tarnir":8761,"ĠSaga":8762,"1992":8763,"Ġstrand":8764,"ĠLandspÃŃtala":8765,"are":8766,"ĠbÃºÃ°":8767,"ĠFÃ¸royum":8768,"ĠnotaÃ°i":8769,"eis":8770,"stjÃ³rar":8771,"ĠGuÃ°i":8772,"onandi":8773,"okku":8774,"ĠhjÃ³la":8775,"skynning":8776,"ĠRÃºsslandi":8777,"isti":8778,"Ġfylgdi":8779,"aÃ°ilum":8780,"erg":8781,"Ġ57":8782,"ĠNokk":8783,"ĠÃ¾jÃ¡":8784,"ĠÃ¡rÃ¡s":8785,"ĠtalaÃ°i":8786,"ĠÃ¡bendingar":8787,"%...":8788,"Ġgra":8789,"Ġdrekka":8790,"smÃ¡larÃ¡Ã°herra":8791,"Ġ87":8792,"Ġfylgst":8793,"ĠHÃį":8794,"ĠviÃ°urkennd":8795,"ĠÃŀorlÃ¡k":8796,"Ġuppsetningu":8797,"ĠAlÃ¾Ã½Ã°u":8798,"Ġis":8799,"Ġex":8800,"ĠsÃŃÃ°unnar":8801,"ĠÃ¾Ã½Ã°ingu":8802,"Ġevra":8803,"Ġframleidd":8804,"vÃ¦Ã°":8805,"ĠkÃ¶rfunni":8806,"shÃ¶f":8807,"Ġleyfir":8808,"ĠleikiÃ°":8809,"ĠÃ³skum":8810,"ĠbÃ³lu":8811,"Ġorkum":8812,"Ġle":8813,"ĠUms":8814,"lna":8815,"slegu":8816,"ĠskrÃŃ":8817,"ĠopnaÃ°":8818,"ĠverÃ°launa":8819,"agrein":8820,"ĠSÃ¶lutorg":8821,"ĠElsta":8822,"ĠbÃŃÃ³mynd":8823,"ĠKennar":8824,"Ġokkum":8825,"ĠfjÃ¶lskyldur":8826,"hÃ¦tti":8827,"Ġlins":8828,"MyndbÃ¶nd":8829,"ĠbÃŃÃ°ur":8830,"vÃŃsun":8831,"Ã¶ndurhorniÃ°":8832,"Ġhal":8833,"Ġpakka":8834,"ussu":8835,"Ġmarki":8836,"red":8837,"ĠrÃŃkiss":8838,"ĠprÃ½":8839,"Ġtungu":8840,"arn":8841,"hagsm":8842,"ĠforÃ°ast":8843,"ĠfÃ¦ddur":8844,"hone":8845,"fanga":8846,"ĠSver":8847,"ostnaÃ°ur":8848,"Ġ89":8849,"ĠSvan":8850,"Ġrekstr":8851,"verÃ°ar":8852,"ulum":8853,"jalli":8854,"ĠEkkert":8855,"liÃ°i":8856,"ĠYou":8857,"ĠorÃ°i":8858,"ĠmÃ³ta":8859,"veitu":8860,"ekki":8861,"sambands":8862,"ĠThor":8863,"Ġspill":8864,"Ġveitinga":8865,"ĠathÃ¶fn":8866,"Ġspreng":8867,"asp":8868,"ĠEgg":8869,"ĠstÃŃga":8870,"Ġlitum":8871,"Ġflestar":8872,"ĠTÃ¦ki":8873,"arkit":8874,"ĠRÃ©tt":8875,"ortiÃ°":8876,"ĠstjÃ³rnun":8877,"nari":8878,"Ġhinar":8879,"Ġsamtakanna":8880,"ĠTe":8881,"Ġbesti":8882,"men":8883,"ÃŃfi":8884,"ĠHÃ¶":8885,"ĠlÃ¶gÃ°u":8886,"ĠTÃ³l":8887,"dagskvÃ¶ldiÃ°":8888,"aÃ°ra":8889,"Ġlandam":8890,"Ġeldsneyti":8891,"ĠVinstri":8892,"ĠLeit":8893,"Ġhorm":8894,"ĠÃ¡rangurs":8895,"bÃ½lishÃºs":8896,"ĠHand":8897,"Ã¦lir":8898,"ĠSil":8899,"ĠvikiÃ°":8900,"Hvort":8901,"slegar":8902,"Ġhvetjum":8903,"Ġkraft":8904,"nam":8905,"Ġtalsins":8906,"ĠGÃŃsla":8907,"verja":8908,"Ġundanfarna":8909,"LjÃ³smyndir":8910,"Ġstyrki":8911,"afÃ³lki":8912,"bÃºÃ°ar":8913,"arÃ¡Ã°s":8914,"hef":8915,"ĠÃŀÃ¡tt":8916,"ĠviÃ°tÃ¶l":8917,"entarar":8918,"onald":8919,"bÃ¦rt":8920,"ct":8921,"ĠfÃ¦rslu":8922,"ĠtilbÃºin":8923,"ĠAkranesi":8924,"ĠbÃ¡Ã°ar":8925,"ĠÃ¡fanga":8926,"Ġvefurinn":8927,"ĠmiÃ°hÃ¡l":8928,"ĠdÃ³mara":8929,"Ã¾r":8930,"linn":8931,"Ġtekinn":8932,"Ġvinnumark":8933,"ĠGarÃ°ar":8934,"ĠsÃ©rfrÃ¦Ã°ingar":8935,"Ġfalleg":8936,"mislegt":8937,"ĠGrikk":8938,"Ãĵska":8939,"bÃ¦kur":8940,"Ġopinberra":8941,"ĠhÃ¶fuÃ°borg":8942,"ĠrÃ¡Ã°sins":8943,"HÃ¶f":8944,"ÃŃm":8945,"bÃŃla":8946,"afÃ©":8947,"ĠÃºtivistar":8948,"Ġvelkomnir":8949,"Hag":8950,"ganga":8951,"SS":8952,"lÃŃfi":8953,"fÃ¶rum":8954,"rÃºmsl":8955,"Ġ85":8956,"ĠsjÃ¡lfsagt":8957,"ĠkallaÃ°ur":8958,"Ã¾ega":8959,"Ġatvik":8960,"ĠJÃ³nas":8961,"AL":8962,"sÃŃma":8963,"Ġinnra":8964,"Tilkynningar":8965,"ÃŃska":8966,"ĠpÃ³l":8967,"ĠsÃ¡u":8968,"ĠljÃ³sm":8969,"ĠkynferÃ°is":8970,"Ġkosningum":8971,"nanna":8972,"osti":8973,"ĠtÃŃminn":8974,"Ġstefnt":8975,"ĠFrÃŃ":8976,"ĠKÃ³l":8977,"ĠyfirvÃ¶ld":8978,"ĠdÃ¦ma":8979,"Ġspurningu":8980,"ĠMargrÃ©t":8981,"avar":8982,"alÃ¦k":8983,"ĠGrein":8984,"bundin":8985,"Ġskera":8986,"ĠÃŀorvald":8987,"Ġsagn":8988,"Ġfimmtudag":8989,"ĠbrotiÃ°":8990,"gÃ³Ã°":8991,"Ġforvit":8992,"dist":8993,"ĠÃ¾Ã¦tt":8994,"ĠsÃ©rfrÃ¦Ã°inga":8995,"ĠvinsÃ¦la":8996,"bÃ³":8997,"ĠkÃ¶lluÃ°":8998,"ash":8999,"ĠsjÃºklingum":9000,"hyggju":9001,"ĠHjÃ¶r":9002,"ĠverÃ°mÃ¦ti":9003,"Ġkvenn":9004,"nustu":9005,"ĠÃ¡rsreikninga":9006,"gjafi":9007,"ĠpÃº":9008,"ĠupplÃ½singarnar":9009,"ĠGunnlaug":9010,"Ġheitt":9011,"ĠFariÃ°":9012,"asa":9013,"ĠÃģs":9014,"Ġverald":9015,"ĠlÃŃÃ°an":9016,"ĠmjÃ³lk":9017,"ĠaÃ°lÃ¶gunar":9018,"ĠFrank":9019,"ĠfÃ©lagsmanna":9020,"ĠÃŃbÃºÃ°arhÃºsnÃ¦Ã°i":9021,"GagnrÃ½ni":9022,"ĠMosfells":9023,"hrun":9024,"ĠjarÃ°skjÃ¡lf":9025,"Ġstyrktar":9026,"nuÃ°um":9027,"ĠSeg":9028,"ĠmÃ¦tir":9029,"Ġvinnuveit":9030,"ĠsekÃº":9031,"ĠfarÃ¾eg":9032,"hreins":9033,"ĠlÃŃkamanum":9034,"flugvelli":9035,"gengni":9036,"ÃģrbÃ³k":9037,"Mikil":9038,"Ġfarar":9039,"Ġkennil":9040,"ĠByggÃ°asafn":9041,"aF":9042,"Ġhafna":9043,"spar":9044,"ĠJarÃ°":9045,"Ġklukku":9046,"Ã¡kvÃ¦Ã°i":9047,"ĠgeturÃ°u":9048,"Or":9049,"sÃºrslit":9050,"ĠfjÃ¶lgun":9051,"ulltrÃºar":9052,"Ġrannsaka":9053,"Ãºtvarp":9054,"stÃ¦Ã°um":9055,"ĠmÃ¡nuÃ°ir":9056,"Ġflokks":9057,"Ġbra":9058,"Bl":9059,"Ġkap":9060,"Ġdra":9061,"ĠÃ¡kaflega":9062,"Ġkyrr":9063,"ĠkynferÃ°i":9064,"ĠsmÃ¡tt":9065,"ĠÃ¡fengis":9066,"Ġberst":9067,"Fuglar":9068,"ĠumsÃ³knir":9069,"eypa":9070,"Aukahlutir":9071,"felld":9072,"2015":9073,"ĠÃ¡rabil":9074,"ĠkrÃ³nunnar":9075,"ĠLjÃ³sÃ¡r":9076,"ĠnÃ¡Ã°u":9077,"Ġeinkahlut":9078,"ĠSÃģ":9079,"ĠÃ¾Ã¦ttir":9080,"Ġaugnab":9081,"ĠSon":9082,"ĠstÃ¶kk":9083,"ĠsmÃ¦rri":9084,"ĠTÃ³ma":9085,"ĠbÃ¦r":9086,"ĠgreinargerÃ°":9087,"ĠauÃ°lindum":9088,"ĠKeppnir":9089,"Ġsamkynhneig":9090,"Ġerind":9091,"Ġevru":9092,"ĠBru":9093,"ĠkynlÃŃf":9094,"ĠfÃ¶t":9095,"skaplega":9096,"Ġeinstakra":9097,"StÃºdÃŃÃ³":9098,"ĠDaga":9099,"ĠSamtÃ¶k":9100,"Ġboltann":9101,"ĠfÃ¦ddist":9102,"Ġleggjum":9103,"Ãºg":9104,"istof":9105,"Sigur":9106,"Prentun":9107,"ĠAlmenn":9108,"ĠÄĽÅĻ":9109,"ĠsÃ©rhÃ¦f":9110,"ĠSigrÃŃÃ°ur":9111,"ĠLaug":9112,"ĠbÃ¦j":9113,"Ġfinnast":9114,"pool":9115,"vestur":9116,"ĠVikur":9117,"Ġbreytast":9118,"kennslu":9119,"Ġneikv":9120,"Ã¦tta":9121,"reiÃ°slur":9122,"Ġafkomu":9123,"Ġskapandi":9124,"ĠUpplÃ½singar":9125,"Ġbrenn":9126,"fÃ¦rt":9127,"Ġklass":9128,"asÃ½":9129,"rÃ©ttind":9130,"ĠdÃ³mi":9131,"national":9132,"Keppnir":9133,"ĠPrentarar":9134,"Ġopinn":9135,"MyndavÃ©lar":9136,"ĠsÃ¶k":9137,"Ã¾ol":9138,"Ġmyndlist":9139,"ĠByr":9140,"Ġsameiginlega":9141,"Ġtuttugu":9142,"bÃ¶ndum":9143,"hvort":9144,"LandsbyggÃ°in":9145,"Krist":9146,"ĠvÃ¶ll":9147,"ĠnauÃ°synleg":9148,"Myndvinnsla":9149,"Filma":9150,"ĠMÃ¡nuÃ°":9151,"dÃ³mara":9152,"frÃ¦Ã°inga":9153,"Ġvarafor":9154,"shygg":9155,"ĠrÃ¦ddi":9156,"Ġbjarga":9157,"Ġnev":9158,"ĠeftirAnnar":9159,"ĠmÃ¡lLandsbyggÃ°in":9160,"ĠvefKeppnir":9161,"ĠsÃ¶luÃĵska":9162,"Allar":9163,"ĠgangiKeppni":9164,"ĠumrÃ¦Ã°aSjÃ¡lf":9165,"LjÃ³smyndatÃ¦kni":9166,"ĠDÃ½rÃŀema":9167,"ĠOpinberaF":9168,"LÃ½singFilma":9169,"ĠkeppnumUppÃ¡stungur":9170,"NÃ¡mHiÃ°":9171,"ĠdÃ¶finniÃĸnnur":9172,"ĠskjÃ¡irPrentun":9173,"GreinarMyndvinnsla":9174,"skynningGreinarMyndvinnsla":9175,"LjÃ³smyndirGagnrÃ½ni":9176,"TilkynningarHugmyndir":9177,"sÃºrslitÃģ":9178,"AukahlutirHvaÃ°":9179,"ĠPrentararAukahlutirHvaÃ°":9180,"MyndavÃ©larStÃºdÃŃÃ³":9181,"ĠgangiKeppnisÃºrslitÃģ":9182,"ĠumrÃ¦Ã°aSjÃ¡lfskynningGreinarMyndvinnsla":9183,"LjÃ³smyndatÃ¦kniHjÃ¡lp":9184,"ĠDÃ½rÃŀemaMyndbÃ¶nd":9185,"ĠOpinberaFÃ¶ndurhorniÃ°":9186,"LÃ½singFilmaTÃ¶lvur":9187,"LjÃ³smyndirGagnrÃ½niFuglar":9188,"ĠumrÃ¦Ã°aSjÃ¡lfskynningGreinarMyndvinnslaLjÃ³smyndatÃ¦kniHjÃ¡lp":9189,"nota":9190,"ÌĪ":9191,"Ġbleik":9192,"Ġpart":9193,"arfa":9194,"ĠvirÃ°isauka":9195,"avefurinn":9196,"ĠrÃ¡Ã°stefnu":9197,"Ġelda":9198,"ĠgÃ¶tu":9199,"ĠTÃ¦kni":9200,"ĠÃ¦tli":9201,"ĠBÃ¦Ã°i":9202,"Ġkjarasamninga":9203,"Ġafrit":9204,"FjÃ¶l":9205,"ĠsÃ©rstÃ¶kum":9206,"safni":9207,"shlut":9208,"lok":9209,"Ġsta":9210,"Ġtilfinningar":9211,"ĠsjÃºkling":9212,"ĠBÃ¡r":9213,"verjar":9214,"ĠheiÃ°ur":9215,"ĠÃºtb":9216,"ĠleikmaÃ°ur":9217,"Bir":9218,"Ġverkal":9219,"ĠkÃ¶kur":9220,"ĠefnahagssvÃ¦Ã°inu":9221,"ĠSkil":9222,"Ġverra":9223,"verkum":9224,"ĠslegiÃ°":9225,"bu":9226,"aft":9227,"ĠfÃ¦rÃ°u":9228,"afÃ©laga":9229,"gaÃ°i":9230,"agar":9231,"Ġgeim":9232,"ĠÃįBV":9233,"ĠBlÃ¶nd":9234,"ĠKatrÃŃn":9235,"ĠskiptiÃ°":9236,"ĠmÃ¶rgu":9237,"ĠmÃ³tiÃ°":9238,"verndarsamtaka":9239,"menntun":9240,"Ġreyndist":9241,"ĠhrÃ¡efni":9242,"ĠfrumsÃ½":9243,"drag":9244,"Ã¶nnunum":9245,"mikiÃ°":9246,"Ġdeildinni":9247,"vind":9248,"Ġkrossinn":9249,"Ġveruleika":9250,"Ġkeppa":9251,"ĠSveinn":9252,"ĠÃ½missa":9253,"Ġfasteignasala":9254,"ĠÃ¾ingmaÃ°ur":9255,"Ġkor":9256,"Ġsand":9257,"veÃ°":9258,"kkaÃ°":9259,"ĠframhaldsskÃ³la":9260,"bylg":9261,"Ġskyni":9262,"CE":9263,"stÃ³r":9264,"ĠfulltrÃºi":9265,"ĠfrÃ©ttabrÃ©f":9266,"Ġtreysta":9267,"ĠPÃ³st":9268,"ĠfÃ¡ir":9269,"Ġstigi":9270,"Ġkrefjandi":9271,"ĠFyrst":9272,"eldrar":9273,"ĠhagkvÃ¦m":9274,"Ġeftirlaun":9275,"Ġtim":9276,"skÃ¶pun":9277,"Ġerlent":9278,"ĠstuÃ°ningi":9279,"ĠviÃ°urkenna":9280,"amaÃ°urinn":9281,"ĠHefur":9282,"ĠJokku":9283,"ĠsetiÃ°":9284,"ĠStundum":9285,"ĠskipaÃ°":9286,"part":9287,"Ġskilar":9288,"Ġdal":9289,"ĠTal":9290,"ĠsÃŃmanÃºmer":9291,"Ġsla":9292,"ĠEvrÃ³pur":9293,"ĠsÃ³k":9294,"mans":9295,"ĠandrÃºmsl":9296,"Ġhenda":9297,"mÃ¡liÃ°":9298,"Ã³ri":9299,"Ġraunar":9300,"ĠgÃ³Ã°s":9301,"Vegna":9302,"starfiÃ°":9303,"fo":9304,"ĠmeÃ°fylgjandi":9305,"ĠHetta":9306,"ĠaugljÃ³st":9307,"ĠRÃ³":9308,"ĠtÃ¶lul":9309,"ĠÃ¾jÃ³Ã°kirk":9310,"Ã¾egar":9311,"Ġmunur":9312,"ĠliÃ°inu":9313,"ipp":9314,"gin":9315,"ĠMÃ¡r":9316,"arfrÃ¦Ã°i":9317,"ĠÃ³viÃ°eigandi":9318,"gÃ¦Ã°a":9319,"Ġkonungur":9320,"angurinn":9321,"ÃŀÃ³r":9322,"ĠPet":9323,"ĠGranda":9324,"ĠrÃºss":9325,"ĠlÃŃfrÃ¦nni":9326,"ĠÃ³sam":9327,"ĠrÃ¦tur":9328,"Ġbyggist":9329,"sjÃ³nar":9330,"ensen":9331,"ĠKana":9332,"ĠslÃ©tt":9333,"79":9334,"ĠsnÃºast":9335,"Reg":9336,"ĠÃºtgerÃ°":9337,"reisn":9338,"Ġgreind":9339,"ĠfrÃ¡s":9340,"Ġmeina":9341,"ĠAÃ°eins":9342,"ĠmÃ¦ldust":9343,"ĠstÃ½rivÃ¶xtum":9344,"ĠMA":9345,"mÃ³ti":9346,"Ã¶rÃ°um":9347,"arÃ¶Ã°":9348,"ĠfÃ¶rum":9349,"ĠbÃ³kin":9350,"ĠviÃ°skiptal":9351,"alegum":9352,"ĠInga":9353,"ĠStofnanir":9354,"Ã¡na":9355,"Ġmeistara":9356,"Ġrok":9357,"Ġ1998":9358,"ĠnÃ¦m":9359,"Ġtilvik":9360,"ĠsjÃ¡lfboÃ°aliÃ°":9361,"Ġbirtu":9362,"ĠmÃ¦lir":9363,"ĠHvort":9364,"con":9365,"ĠvariÃ°":9366,"ĠbÃ¦inn":9367,"ĠHafÃ°u":9368,"ĠstjÃ³rnvald":9369,"Ãºna":9370,"ĠstÃ¶Ã°va":9371,"ĠneikvÃ¦Ã°":9372,"ire":9373,"ĠstjÃ³rnendur":9374,"rÃ¦nna":9375,"ĠmatarÃ¦Ã°i":9376,"Ġupps":9377,"Ġheyrnar":9378,"ĠvÃ¡ru":9379,"ĠgreiÃ°ir":9380,"ĠfyrstNÃ½jasta":9381,"ĠhÃ¦kkar":9382,"ĠfjÃ¶lskyldunni":9383,"Hr":9384,"ĠsamfÃ©lags":9385,"ĠSamfylkingarinnar":9386,"Ġslit":9387,"irÃ°u":9388,"ĠrÃ³m":9389,"UN":9390,"ĠVor":9391,"ĠÃ³t":9392,"ĠnauÃ°synlegar":9393,"ĠJap":9394,"ĠmilljarÃ°ar":9395,"ĠgÃ³lfi":9396,"Ġaldrinum":9397,"Ġkomnar":9398,"ĠfjÃ³rir":9399,"veiÃ°i":9400,"Vil":9401,"slita":9402,"ĠspÃŃtal":9403,"Ġblind":9404,"ĠÃįbÃºÃ°":9405,"ĠPo":9406,"Ġ96":9407,"nuÃ°ur":9408,"kennara":9409,"Ġbreytist":9410,"Ġsyngja":9411,"ĠHÃ¶rpu":9412,"erum":9413,"lo":9414,"skyni":9415,"Ã¾rÃ½st":9416,"ĠÃ¾ekkir":9417,"2016":9418,"ĠÃįslenska":9419,"ĠMatvÃ¦la":9420,"Ġreyni":9421,"Ġhelgar":9422,"Ã¶Ã°var":9423,"ĠÃ¡Å¡":9424,"Ġvirtist":9425,"skÃŃr":9426,"Ã¦Ã°ra":9427,"Ġtengt":9428,"Ġnefndin":9429,"Ġbankanna":9430,"ĠKal":9431,"ĠTa":9432,"olla":9433,"afre":9434,"ĠrÃŃf":9435,"ĠauÃ°veldara":9436,"ĠmÃŃnir":9437,"sÃ¡Ã¦tlun":9438,"anlegum":9439,"ĠkÃ¦ra":9440,"hliÃ°":9441,"ĠPÃ³ll":9442,"tarÃ¡Ã°":9443,"Ġreynsla":9444,"Ġaukinni":9445,"ĠEgill":9446,"Ġrangt":9447,"fÃ©lÃ¶gum":9448,"ĠmÃ¦likvar":9449,"ĠsÃ¦m":9450,"ĠummÃ¦lum":9451,"ĠgrÃ³Ã°urhÃºs":9452,"narl":9453,"ĠHverager":9454,"unina":9455,"ĠhÃ³l":9456,"ĠÃ¾urf":9457,"lita":9458,"ĠAtl":9459,"ĠÃļti":9460,"ĠfullnÃ¦gjandi":9461,"ĠKÃ³lumb":9462,"mars":9463,"Ġlita":9464,"skÃ¡p":9465,"Ġsanna":9466,"Ġerlenda":9467,"eyÃ°":9468,"tÃ¦kja":9469,"Ġhlutfalli":9470,"Ġhvussu":9471,"ĠlangaÃ°i":9472,"ĠlÃ©tta":9473,"ĠÃŃbÃºar":9474,"ĠAlÃ¾jÃ³Ã°a":9475,"ĠÃºtgÃ¡fa":9476,"ĠSka":9477,"ĠPÃŃra":9478,"ĠlÃ¦kki":9479,"vÃŃn":9480,"Ãįsl":9481,"ĠniÃ°urstaÃ°an":9482,"1994":9483,"ÃŀÃ³tt":9484,"EvrÃ³p":9485,"Ġraka":9486,"ĠHeilbrigÃ°is":9487,"Ġskugga":9488,"Ġ1000":9489,"Ġendurvinnslu":9490,"ĠÃŀessir":9491,"verpool":9492,"Ġ1997":9493,"Ġinter":9494,"ilegir":9495,"fundar":9496,"Land":9497,"upplÃ½singar":9498,"ago":9499,"Ġerlendu":9500,"Ġstand":9501,"ĠrÃ¡Ã°ast":9502,"PS":9503,"ĠÃ¡Ã°r":9504,"tik":9505,"bbameins":9506,"ĠEnglandi":9507,"Ġlokinni":9508,"sÃŃn":9509,"Ġskella":9510,"ĠLoft":9511,"ĠstaÃ°festa":9512,"ĠÃĸn":9513,"Ġkunni":9514,"ĠAnt":9515,"Ġvikunnar":9516,"ĠlÃŃt":9517,"flokkurinn":9518,"Ġathyglis":9519,"esson":9520,"ĠGull":9521,"ĠstaÃ°setningu":9522,"ĠMarkmiÃ°iÃ°":9523,"ĠliÃ°sins":9524,"Ġafur":9525,"tuÃ°u":9526,"GA":9527,"eitu":9528,"hlaÃ°":9529,"ĠÃ¡kveÃ°ur":9530,"Ġendar":9531,"Ġframhaldi":9532,"Ġby":9533,"ĠgÃ¦tir":9534,"Fyrsta":9535,"afli":9536,"jÃ¡ls":9537,"alof":9538,"eistaramÃ³t":9539,"blÃ¡stur":9540,"pen":9541,"ĠkosiÃ°":9542,"ĠhjÃºkrunarfrÃ¦Ã°inga":9543,"ĠÃ¡kveÃ°inn":9544,"pakk":9545,"ĠStykkishÃ³lmi":9546,"ĠUr":9547,"ĠdagskrÃ¡r":9548,"varandi":9549,"Ġvalin":9550,"Ġhverfa":9551,"Ġvefsins":9552,"ĠHR":9553,"Ġsteyp":9554,"Ġstolt":9555,"Ġdeildarinnar":9556,"ĠMjÃ¶g":9557,"ildir":9558,"ĠStokk":9559,"stÃ¦Ã°a":9560,"ĠRagn":9561,"virkjun":9562,"ĠÅĺ":9563,"mail":9564,"ĠkÃ¶k":9565,"Ġgla":9566,"ĠmÃ³tun":9567,"Ġfresti":9568,"Ġhvoru":9569,"vill":9570,"Ġfleir":9571,"ĠSauÃ°":9572,"Ġaka":9573,"ĠTel":9574,"Ġendanum":9575,"rÃ½mi":9576,"ĠbÃ¦ti":9577,"2004":9578,"lÃŃÃ°ar":9579,"ĠstjÃ³rnunar":9580,"Ġ84":9581,"eilis":9582,"endingum":9583,"Ġ;":9584,"Ġstilla":9585,"Ġtilnef":9586,"ĠSkot":9587,"ĠÃ³hÃ¦tt":9588,"slÃŃf":9589,"ĠfjÃ¡rlag":9590,"ĠEm":9591,"ĠbÃŃlnum":9592,"ĠÃ¡gÃ¦tlega":9593,"Lesa":9594,"tis":9595,"ĠrÃ©ttlÃ¦ti":9596,"Ġvafa":9597,"ĠNorÃ°urlÃ¶ndunum":9598,"Ġfyrirspurn":9599,"ĠlÃ¦ri":9600,"ĠbÃ¦tti":9601,"Ãįsland":9602,"farir":9603,"ĠgjaldÃ¾rotaskipti":9604,"aÃ°lÃ¶gun":9605,"ĠstjÃ³rnarskrÃ¡r":9606,"use":9607,"Ġreikna":9608,"Ġvextir":9609,"Ġendurgjald":9610,"SjÃ¡":9611,"Ġvissu":9612,"ĠlÃ¦kkaÃ°":9613,"dreg":9614,"ĠbÃºsetu":9615,"Ġit":9616,"ĠEndilega":9617,"ĠÃ³r":9618,"burÃ°ir":9619,"EN":9620,"ĠMikilvÃ¦gt":9621,"ĠNÃ¡m":9622,"arfull":9623,"ĠnÃ½rrar":9624,"Ġskilgreind":9625,"kÃ¶kum":9626,"Ġtilkynningar":9627,"Ġ--":9628,"jara":9629,"Ġfrest":9630,"ĠdÃ¡lÃŃtiÃ°":9631,"bÃºar":9632,"ĠAlex":9633,"ĠstÃ¦rÃ°frÃ¦Ã°i":9634,"reyn":9635,"ĠnauÃ°":9636,"Ġokkara":9637,"ĠhugleiÃ°":9638,"ĠmikilvÃ¦gasta":9639,"sÃ¡Ã¦tl":9640,"ĠTor":9641,"Ġnemandi":9642,"Ġspurt":9643,"ĠBjarnason":9644,"Ġsaum":9645,"Ġskynd":9646,"OW":9647,"ĠHof":9648,"ĠiPhone":9649,"ez":9650,"Ġkvar":9651,"Ġhreinu":9652,"ĠKÃ³lumbÃŃu":9653,"Ġskulum":9654,"sÃ¦tisrÃ¡Ã°":9655,"ĠgreiÃ°slna":9656,"eysis":9657,"Ġheimsk":9658,"Ġfry":9659,"ĠLeif":9660,"Ġvettvangur":9661,"Ġkalt":9662,"ĠmiÃ°hÃ¡lendi":9663,"ĠhÃºsaleigu":9664,"hÃ¦kkun":9665,"han":9666,"Ġhaldnir":9667,"ĠvÃŃsar":9668,"aÃ°gerÃ°":9669,"ÃŃsil":9670,"Ġkrepp":9671,"ĠKo":9672,"IL":9673,"ĠsÃ¡rs":9674,"strong":9675,"Ġkrafti":9676,"ĠbÃºnaÃ°":9677,"ĠFjÃ³r":9678,"ĠNÃ½ja":9679,"Ġmynt":9680,"Ġmargf":9681,"skapur":9682,"Ġflokkun":9683,"Ġnaut":9684,"ĠbÃŃlinn":9685,"verÃ°um":9686,"Ãļr":9687,"ĠhÃ¶nnunar":9688,"Ã¶sku":9689,"ssur":9690,"Ġvaxa":9691,"ĠrÃ¡Ã°stefn":9692,"grip":9693,"nuna":9694,"myn":9695,"ĠFasteig":9696,"ĠÃ¡hrifa":9697,"ÃŃsk":9698,"ĠMikiÃ°":9699,"ĠÃ³dÃ½ra":9700,"Ġliggi":9701,"Ġvinsamlegast":9702,"rÃŃmsson":9703,"ĠniÃ°urstÃ¶Ã°um":9704,"ĠÃ¾Ã½Ã°":9705,"Ġkarlar":9706,"ĠlÃ¦gra":9707,"ĠskÃŃ":9708,"ĠKjartan":9709,"ĠFlat":9710,"styr":9711,"lagar":9712,"shÃ¶fn":9713,"ĠsÃ¦kir":9714,"ĠupplÃ½sa":9715,"ĠmilljÃ³na":9716,"ĠkÃ¶rfu":9717,"Ġforgangs":9718,"ĠÃ¡vinn":9719,"ĠhÃ¡marki":9720,"ĠviÃ°rÃ¦Ã°u":9721,"ĠGroup":9722,"ĠÃºttekt":9723,"az":9724,"Ġdoll":9725,"Ġpall":9726,"ĠhliÃ°sjÃ³n":9727,"Ġeytt":9728,"kirkju":9729,"Ġdrey":9730,"ĠÃ¾rosk":9731,"Enn":9732,"ssviÃ°":9733,"ĠslÃ³Ã°":9734,"Ġungt":9735,"ĠstÃ©ttarfÃ©lag":9736,"agÃ°i":9737,"vandi":9738,"litÃŃk":9739,"ĠstaÃ°an":9740,"ĠÃŃslenz":9741,"ĠDrottinn":9742,"Ġmerkir":9743,"ĠlÃ½singu":9744,"ĠSkal":9745,"ĠljÃ³Ã°a":9746,"edia":9747,"ĠnetiÃ°":9748,"ĠMich":9749,"ET":9750,"agjÃ¶f":9751,"ĠleiÃ°rÃ©tt":9752,"vun":9753,"Ġfynd":9754,"ĠÃįS":9755,"kostnaÃ°":9756,"Ġhitti":9757,"ĠHÃºsiÃ°":9758,"ĠlandsvÃ¦Ã°i":9759,"ĠVestfjÃ¶rÃ°um":9760,"vika":9761,"ĠumhverfiÃ°":9762,"unÃºmer":9763,"Ġgri":9764,"2014":9765,"âĢ¢":9766,"ĠInst":9767,"ĠIngÃ³lf":9768,"ĠverÃ°mÃ¦":9769,"ingarnir":9770,"ital":9771,"ĠslÃ¶kkviliÃ°":9772,"Ã¡tur":9773,"ĠLes":9774,"orÃ°a":9775,"Ġkosta":9776,"bo":9777,"ĠrÃŃkisstjÃ³rnin":9778,"ĠsamgÃ¶ngur":9779,"ĠMorgunblaÃ°inu":9780,"aÃ°gerÃ°ir":9781,"Ġtakk":9782,"ĠFag":9783,"Ġraunverulega":9784,"ĠJan":9785,"Ġelsk":9786,"stÃ¦tt":9787,"Ġkomust":9788,"varna":9789,"ĠbÃ³ta":9790,"Ġprest":9791,"2011":9792,"Ġflytur":9793,"Ġarf":9794,"own":9795,"Ġlitlar":9796,"Ġkonan":9797,"Ġno":9798,"ĠhÃºsnÃ¦Ã°is":9799,"ĠQu":9800,"Ġsyst":9801,"ĠÅĤ":9802,"ĠBiblÃŃ":9803,"ĠarÃ°":9804,"ĠstÃ¦":9805,"ĠHol":9806,"ĠKrists":9807,"Ġkald":9808,"jÃ¶lda":9809,"ÃŀÃ³":9810,"Ġveislu":9811,"heiÃ°i":9812,"sÃŃm":9813,"ĠÃ¡t":9814,"Ġ250":9815,"ĠlÃ¡gmarki":9816,"ĠListasafn":9817,"afjÃ¡r":9818,"ĠtÃ¦":9819,"ĠCol":9820,"ler":9821,"ungiÃ°":9822,"ĠatkvÃ¦Ã°a":9823,"ance":9824,"Ġkun":9825,"ĠHeildar":9826,"Ġsveita":9827,"afundi":9828,"ĠverÃ°iÃ°":9829,"Ġvali":9830,"ĠsnÃºiÃ°":9831,"52":9832,"ĠrÃ¡Ã°stÃ¶fun":9833,"ĠmiÃ°bÃ¦":9834,"dagurinn":9835,"vog":9836,"hÃ©r":9837,"smanns":9838,"Ġsveigjan":9839,"ĠkÃ¶f":9840,"Ġsamningur":9841,"ĠHelgu":9842,"ĠnÃ¦stunni":9843,"Ġkal":9844,"Ã¶tunni":9845,"Ġskort":9846,"Ġstofnunin":9847,"Ã°ri":9848,"ĠsjÃºkratryggingar":9849,"ĠRi":9850,"ĠsÃŃÃ°degis":9851,"ĠJu":9852,"ĠsjÃ³num":9853,"ĠEru":9854,"ĠviÃ°fangsefni":9855,"Ġfata":9856,"Ġdatt":9857,"Ġeiganda":9858,"Ġgjalda":9859,"Ġheilsug":9860,"ĠmÃ¶mmu":9861,"Ġstelp":9862,"ĠhafnaÃ°":9863,"Ġfella":9864,"ĠReglugerÃ°":9865,"sagt":9866,"Ġtilheyrandi":9867,"Ġmi":9868,"Ġglugga":9869,"ence":9870,"Ã¦Ã°in":9871,"Â´":9872,"Ġ62":9873,"fjÃ¡rmÃ¶gnun":9874,"bÃ³tar":9875,"ĠstarfsfÃ³lks":9876,"ĠjÃ¶rÃ°inni":9877,"ĠSkÃ¡l":9878,"myndin":9879,"ĠbÃºnaÃ°i":9880,"rÃºnu":9881,"Ġhentug":9882,"ĠrÃ¡s":9883,"eyrir":9884,"ĠtiltÃ¶lu":9885,"ĠTim":9886,"ĠsamrÃ¦m":9887,"ĠFH":9888,"arfar":9889,"ĠÃ¦vi":9890,"lings":9891,"ano":9892,"ĠsÃ¦ta":9893,"ĠgÃ¡fu":9894,"rÃ¦tÃ³":9895,"ĠskrÃº":9896,"ale":9897,"Ġ1994":9898,"fisk":9899,"ĠÃ¾rÃ¡Ã°":9900,"ĠMinn":9901,"ĠNord":9902,"teng":9903,"Ġtryggt":9904,"ÃŃslen":9905,"ĠfÃ©lagasamtÃ¶k":9906,"gÃ¦slu":9907,"Ġheilt":9908,"Ġhraun":9909,"Ġbla":9910,"jÃºka":9911,"Ġkirkjunni":9912,"Ġburtu":9913,"ĠsveitarstjÃ³rn":9914,"Ġellef":9915,"Ġhur":9916,"Ġframvegis":9917,"ĠSvona":9918,"Ġeiginleika":9919,"ĠTilnefningar":9920,"tandi":9921,"ĠBand":9922,"Ġflesta":9923,"TaÃ°":9924,"sÃ©r":9925,"svÃŃk":9926,"ÃŃfur":9927,"ĠaÃ°gerÃ°um":9928,"frum":9929,"Ã¦li":9930,"Ġmyndlistar":9931,"lÃ¶ndum":9932,"erli":9933,"Ġ600":9934,"Ġ</":9935,"ĠmÃŃnÃºtu":9936,"Ġaukast":9937,"ĠVef":9938,"vest":9939,"ĠviÃ°miÃ°unar":9940,"ĠmaÃ°r":9941,"kaka":9942,"ĠSpur":9943,"gefiÃ°":9944,"ĠbrÃ³Ã°ir":9945,"svÃ¦Ã°um":9946,"ĠkynÃ¾Ã¦tti":9947,"ĠÃ¡stÃ¦Ã°an":9948,"beiÃ°":9949,"ĠJam":9950,"Ġinnanlands":9951,"Ġ180":9952,"dyr":9953,"Ġur":9954,"spurn":9955,"ĠÃ¡rstÃŃ":9956,"ĠlandlÃ¦kni":9957,"ĠSveit":9958,"vagn":9959,"ĠkallaÃ°i":9960,"ssamvinnu":9961,"Ġdetta":9962,"ĠbÃ³kstaf":9963,"Ġbrenni":9964,"Ġhend":9965,"skÃ½":9966,"Ġmenntunar":9967,"ĠHeilsu":9968,"lunnar":9969,"ĠmiÃ°ast":9970,"Ġvalkost":9971,"Ġfundarins":9972,"sur":9973,"ĠyÃ°ar":9974,"ĠÃ¾jÃ³Ã°ina":9975,"ight":9976,"ĠmiÃ°n":9977,"Ġauknum":9978,"gerandi":9979,");":9980,"dagar":9981,"ĠsÃ¶gunni":9982,"Ã¾Ã¦tt":9983,"eifl":9984,"snefndar":9985,"Ã¶ryggi":9986,"Ġsagan":9987,"ĠvÃ©lar":9988,"ĠtilbÃºinn":9989,"ĠpersÃ³n":9990,"reglan":9991,"ĠmÃ³ttÃ¶ku":9992,"ĠlÃ¦kkar":9993,"raÃ°a":9994,"ĠdrÃ¡tt":9995,"Ġframmist":9996,"ĠframkvÃ¦mdar":9997,"tteg":9998,"umhverfi":9999,"afrumvarp":10000,"ĠStjarn":10001,"ĠKA":10002,"Ġvanvir":10003,"Ã¶lluÃ°u":10004,"koman":10005,"skerfi":10006,"ĠHelgason":10007,"ssel":10008,"ĠFÃ³r":10009,"Ġbyg":10010,"Ġfullkomlega":10011,"ĠskjÃ¡lftar":10012,"unarinnar":10013,"Ġrann":10014,"eyfis":10015,"ĠspilaÃ°i":10016,"stand":10017,"ĠHÃ³lm":10018,"Ġafrek":10019,"ĠÃ¦sk":10020,"kvÃ³ta":10021,"__":10022,"Ġtryggir":10023,"Ã¡nÃ¦g":10024,"Ġalmenningur":10025,"ĠnÃ¦gilega":10026,"ted":10027,"ĠIP":10028,"Ġdu":10029,"ĠrÃ©ttindum":10030,"lymp":10031,"eginum":10032,"ĠgreiÃ°sluaÃ°lÃ¶gun":10033,"otu":10034,"Ġeinasta":10035,"Ġseina":10036,"eni":10037,"Ġhart":10038,"otta":10039,"ĠstarfshÃ³p":10040,"ĠCity":10041,"ĠnÃŃ":10042,"Ġklukkustundir":10043,"Ġvikuna":10044,"ĠInternational":10045,"Ġkn":10046,"ĠviljaÃ°":10047,"fars":10048,"Ġ73":10049,"ĠLÃŃfeyrissjÃ³Ã°":10050,"Ġhlutina":10051,"Ġskell":10052,"Ġstefnd":10053,"ats":10054,"ĠLandsbankans":10055,"alÃ¡nas":10056,"ĠslÃŃkra":10057,"rad":10058,"Ġbruna":10059,"Ġsettu":10060,"bÃŃÃ³":10061,"lÃ½Ã°s":10062,"Ã¡Ã°um":10063,"ĠPat":10064,"bolt":10065,"ĠÃ¡tak":10066,"Ġmerkt":10067,"Ġformanns":10068,"ĠLÃŃfvÃŃsindi":10069,"ĠkynslÃ³Ã°":10070,"ĠStjarnvÃŃsindi":10071,"ĠÃģrnason":10072,"skr":10073,"Ġtog":10074,"ĠBandarÃŃkin":10075,"Ġskam":10076,"borÃ°i":10077,"ĠsÃºkkulaÃ°":10078,"ĠskÃ³lar":10079,"firÃ°inga":10080,"pre":10081,"ĠKrÃ³":10082,"ddum":10083,"ĠUM":10084,"ĠneÃ°ri":10085,"ĠmetiÃ°":10086,"ĠhÃ¦sta":10087,"hags":10088,"ĠumsjÃ³nar":10089,"veldis":10090,"ĠeinkahlutafÃ©lÃ¶g":10091,"PP":10092,"istar":10093,"ĠGeorg":10094,"ĠAng":10095,"ĠhÃ³purinn":10096,"NÃ¡mskeiÃ°":10097,"Ġreit":10098,"Ġ64":10099,"ĠbrÃºÃ°":10100,"ĠrjÃ³ma":10101,"speki":10102,"ĠforstÃ¶Ã°umaÃ°ur":10103,"gri":10104,"Ġpipar":10105,"ĠsÃ©rstÃ¶Ã°u":10106,"ĠÃ¦tluÃ°":10107,"ĠFÃ©lagiÃ°":10108,"ĠÃ¾jÃ³Ã°ernisupp":10109,"ĠnÃ½gg":10110,"Ġspilar":10111,"ĠviÃ°rÃ¦Ã°ur":10112,"ĠÃģbyrg":10113,"ĠlÃ¶ggjÃ¶f":10114,"Ġandlega":10115,"Ġgegna":10116,"ĠÃ¾jÃ³Ã°ernisuppruna":10117,"Ġmatur":10118,"vÃ©lar":10119,"ĠstyÃ°ur":10120,"Ġloknum":10121,"ĠviÃ°halds":10122,"ĠVan":10123,"Ġmenning":10124,"Ġ54":10125,"ĠFlestir":10126,"ĠkÃ³l":10127,"verki":10128,"Ġhjart":10129,"Ġhey":10130,"ĠÃįslensku":10131,"ĠstÃ¸":10132,"ĠbÃ³kmennta":10133,"ĠSpÃ¡ni":10134,"2001":10135,"ĠaÃ°drag":10136,"Ġtef":10137,"Ġpru":10138,"stigiÃ°":10139,"ĠhÃºsnÃ¦Ã°issamvinnu":10140,"ĠÃ¾Ã©ttbÃ½li":10141,"nÃºmer":10142,"bÃºnir":10143,"ĠauÃ°veldar":10144,"Ã¦kt":10145,"dags":10146,"ĠHÃ¡skÃ³lans":10147,"Ġauga":10148,"sjÃ³Ã°s":10149,"engiÃ°":10150,"ĠMarÃŃu":10151,"Ãŀarna":10152,"Ġbiskup":10153,"Ġbeinni":10154,"helgi":10155,"hvert":10156,"hen":10157,"Ġbeggja":10158,"ldiÃ°":10159,"ÃŃsa":10160,"ĠslÃ³":10161,"ĠrÃŃkisfjÃ¡r":10162,"54":10163,"Ġodd":10164,"ĠmiÃ°ar":10165,"klÃºbb":10166,"ĠvÃŃk":10167,"Ġhlekk":10168,"ĠopnaÃ°i":10169,"ĠtÃºr":10170,"hÃ¦tt":10171,"Var":10172,"Athugasemdir":10173,"Ġfermet":10174,"ĠÃ¶rlÃŃtiÃ°":10175,"Ġdreifa":10176,"Ġverslanir":10177,"Ġgras":10178,"ĠVatna":10179,"Ã°rum":10180,"slunar":10181,"helgar":10182,"Ġdrepa":10183,"urr":10184,"Ġneit":10185,"ĠslÃŃkri":10186,"ĠÃ¡hugasam":10187,"Ġuttan":10188,"ĠsjÃ¡lfri":10189,"ĠGuÃ°laug":10190,"Ġtelji":10191,"DÃ³m":10192,"ĠsvipaÃ°":10193,"ĠSvavar":10194,"Auk":10195,"Ġeignum":10196,"fjÃ¶rÃ°":10197,"ĠCar":10198,"Ġsameiningu":10199,"SiÃ°":10200,"Ġfullri":10201,"ĠstÃ¶Ã°una":10202,"ĠMyndin":10203,"ĠNorÃ°urlandi":10204,"ĠhÃ¶nnu":10205,"ĠfjÃ¶lga":10206,"ĠhlutafÃ©lags":10207,"aÃ°arins":10208,"ĠbÃ¶rnunum":10209,"nunni":10210,"ĠEvrÃ³pum":10211,"Ġkynja":10212,"ĠklÃ¦Ã°a":10213,"Ġtegundum":10214,"ĠFri":10215,"ĠaÃ°ilaskipti":10216,"ĠAtvinnu":10217,"ĠHerjÃ³l":10218,"Ġfullum":10219,"Ġhverfur":10220,"Ġmyrk":10221,"framl":10222,"ĠsÃ¶muleiÃ°is":10223,"ĠfyrirtÃ¦kjaskrÃ¡":10224,"heiÃ°ur":10225,"ninnar":10226,"ĠhÃ¡deg":10227,"ĠMad":10228,"Ġgrill":10229,"sna":10230,"Ġallskonar":10231,"verksmiÃ°":10232,"!âĢľ":10233,"fÃ¦rslur":10234,"Ġeyk":10235,"nandi":10236,"ĠhÃ¦starÃ©ttardÃ³mara":10237,"blogg":10238,"Ġkirkjan":10239,"Ġdeilt":10240,"SkrÃ¡ning":10241,"ĠÃŃÄį":10242,"ttir":10243,"ĠfjÃ¶lbreyt":10244,"ĠmikilvÃ¦gur":10245,"off":10246,"GS":10247,"Ġdanska":10248,"Ġlenda":10249,"ĠÃģsm":10250,"Ġtilra":10251,"miÃ°stÃ¶Ã°":10252,"Ġveikindi":10253,"Ġmannsins":10254,"ĠmÃ³tmÃ¦la":10255,"Ġreikninga":10256,"ĠstofnaÃ°ur":10257,"ĠsjÃ¡lfstÃ¦Ã°":10258,"Ġsnyrti":10259,"setja":10260,"ĠryÃ°":10261,"ĠHjÃ¡l":10262,"lipp":10263,"ĠmÃ³tmÃ¦l":10264,"Ġskelf":10265,"ĠRannsÃ³knir":10266,"ĠbloggiÃ°":10267,"Ġlosna":10268,"ĠumrÃ¦Ã°um":10269,"Ġforeldri":10270,"Ġneytendavernd":10271,"skilyrÃ°i":10272,"Ġfelld":10273,"Ġveittur":10274,"ander":10275,"ĠSnorra":10276,"hvÃŃ":10277,"ics":10278,"ĠhjÃ³lreiÃ°":10279,"stakur":10280,"ĠframbjÃ³Ã°":10281,"ĠferÃ°ina":10282,"skost":10283,"kveÃ°":10284,"ĠlÃ¦knir":10285,"ĠAc":10286,"Ġlokin":10287,"frÃ¦Ã°ing":10288,"bi":10289,"Ġkarlmenn":10290,"ĠLtd":10291,"reint":10292,"ĠupplÃ½st":10293,"ĠStefÃ¡nsson":10294,"ĠvÃŃsbendingar":10295,"ĠÃįslensk":10296,"Ġz":10297,"Ġbrau":10298,"Ġgengis":10299,"Ġhaga":10300,"ĠEinhver":10301,"ĠdÃ¶nsku":10302,"ĠPe":10303,"gre":10304,"ĠbÃ³kum":10305,"stofnana":10306,"yÃ°ju":10307,"ingastofnun":10308,"Ġfundist":10309,"fÃ¦rsla":10310,"Andri":10311,"Ġsamanstendur":10312,"ssp":10313,"Ġalheim":10314,"amÃ³tum":10315,"Ġmisskil":10316,"ningurinn":10317,"ĠdÃ¡sam":10318,"Ġafhenda":10319,"hÃ¡tÃŃÃ°ar":10320,"ĠbaÃ°herbergi":10321,"Ã¾Ã¡ttum":10322,"Ġstefnir":10323,"rur":10324,"KÃį":10325,"Ġol":10326,"unkt":10327,"bro":10328,"Ġvinnuna":10329,"rann":10330,"Ġsamskipta":10331,"ĠAust":10332,"ĠkvÃŃÃ°a":10333,"Ġdekk":10334,"Ġathaf":10335,"ĠsiÃ°ferÃ°i":10336,"SÃ³l":10337,"Â»":10338,"ĠdÃº":10339,"ĠJÃ¶kul":10340,"ĠFjal":10341,"ĠtÃŃsku":10342,"ĠrÃ¦kta":10343,"ĠveiÃ°ig":10344,"ĠMenntun":10345,"Ġkunnugt":10346,"Ġendurtek":10347,"Ġtilfelli":10348,"ĠViss":10349,"Ġgreininni":10350,"Ġbarnanna":10351,"lÃ¡n":10352,"Ġumfangsm":10353,"cookies":10354,"ĠmeÃ°gÃ¶ngu":10355,"ĠGjald":10356,"ĠvÃ¶Ã°va":10357,"ĠkÃŃnver":10358,"Ġmunt":10359,"Ġveitingar":10360,"Ġaukaverk":10361,"jaÃ°i":10362,"ĠhlutaÃ°":10363,"allinn":10364,"Ġmeirihluti":10365,"ĠlÃŃkamann":10366,"yfirlÃ½singu":10367,"hÃ¦fingar":10368,"Undan":10369,"verÃ°launa":10370,"Ġinnl":10371,"Ġleyndar":10372,"ĠhÃºman":10373,"ĠstÃ¦kk":10374,"stjÃ³rnun":10375,"eymi":10376,"ĠÃ¾Ã¡tttaka":10377,"frÃŃ":10378,"ĠvÃ¶runÃºmer":10379,"Ġtalinn":10380,"gs":10381,"ĠhÃ©raÃ°":10382,"starfs":10383,"2009":10384,"Ġbeit":10385,"Ġmorgni":10386,"luna":10387,"Ġmaka":10388,"ĠÃŀriÃ°":10389,"Ġsala":10390,"bÃ³tum":10391,"Ġtilraunir":10392,"ĠsÃ©rstakar":10393,"Ġkass":10394,"arfrÃŃ":10395,"stjÃ³rnin":10396,"ĠfjÃ¶lskyldum":10397,"ĠvefsÃŃÃ°una":10398,"ĠNoregs":10399,"IT":10400,"Ġskemmtilegu":10401,"Ġhesta":10402,"Ġbro":10403,"ĠBretlands":10404,"ĠtiltÃ¶lulega":10405,"].":10406,"vexti":10407,"Ġhyl":10408,"ĠÃ¡rek":10409,"Ġhet":10410,"Fimm":10411,"Ġmundu":10412,"ĠvÃ¦ntingar":10413,"Ġhro":10414,"NÃ¦st":10415,"etrar":10416,"ĠVinnu":10417,"ĠÃŃtrekaÃ°":10418,"jÃ¶fnuÃ°":10419,"Ġsma":10420,"ĠSkÃ½r":10421,"Ġ1993":10422,"HÃ¡":10423,"Heil":10424,"ĠrÃŃkjum":10425,"ĠsÃ³tti":10426,"51":10427,"Ġleikurinn":10428,"ĠUnn":10429,"ign":10430,"Ġleikir":10431,"ĠSviss":10432,"ĠViltu":10433,"ĠeinstÃ¶kum":10434,"ĠRÃºm":10435,"ĠSuÃ°urlandi":10436,"ĠhÃ¡gÃ¦Ã°a":10437,"ĠlÃ¶gfrÃ¦Ã°i":10438,"Ġminnis":10439,"Ġlaust":10440,"ĠAfrÃŃku":10441,"Ġfrost":10442,"FÃį":10443,"Flest":10444,"legi":10445,"Ġtvenn":10446,"Ġtilteknum":10447,"ĠtilvaliÃ°":10448,"astaÃ°":10449,"Ġfallegu":10450,"ĠPen":10451,"ĠÃºthlutaÃ°":10452,"ĠmatvÃ¦la":10453,"sÃ¶g":10454,"aÃ°stÃ¶Ã°u":10455,"Ġcom":10456,"Ġmissti":10457,"ĠÃ³mÃ¶gu":10458,"ĠVÃ¡":10459,"essa":10460,"ĠÃĸrygg":10461,"ĠEva":10462,"Ġtreyst":10463,"gn":10464,"ĠÃįÃ¾rÃ³tt":10465,"ĠSV":10466,"Ġkomm":10467,"Ġklukkustund":10468,"Ġaugnablik":10469,"ĠKanada":10470,"Ã°inn":10471,"ĠstundaÃ°":10472,"ante":10473,"ĠPal":10474,"ĠWorld":10475,"ĠhÃ¦Ã°um":10476,"veik":10477,"Ġsnertir":10478,"Ġsjaldan":10479,"ĠBerlÃŃn":10480,"Ġarkit":10481,"dÃŃsar":10482,"ĠinnÃ¡":10483,"ĠalÃ¾jÃ³Ã°legum":10484,"Ġaldurs":10485,"Ġbjug":10486,"ĠSer":10487,"ĠKor":10488,"ĠiPad":10489,"SÃ©":10490,"ĠtjÃ¡ningar":10491,"62":10492,"Ġeldg":10493,"ĠBjÃ¶rnsson":10494,"hraun":10495,"Ġ52":10496,"ĠhrÃ¦dd":10497,"ĠfÃŃnt":10498,"verÃ°launanna":10499,"Ġne":10500,"ĠvandrÃ¦Ã°um":10501,"Ġvarlega":10502,"ĠBara":10503,"ĠTÃ¡":10504,"ĠSumar":10505,"snar":10506,"kerfis":10507,"ĠÃįslendingum":10508,"Ġheimspeki":10509,"ĠmÃ¡naÃ°":10510,"ĠlagÃ°ur":10511,"Ġseldi":10512,"Ã¦fingar":10513,"ĠsamgÃ¶ngum":10514,"OS":10515,"tÃ¦kjum":10516,"ĠlÃŃkamans":10517,"ĠsigraÃ°i":10518,"staÃ°ur":10519,"andann":10520,"ĠNÃ½jar":10521,"ugjald":10522,"Ġskrifstof":10523,"atÃ¶ku":10524,"Ġdrott":10525,"drÃ¦tti":10526,"iÃ°naÃ°i":10527,"Ã¡ttÃºr":10528,"ĠkveÃ°ur":10529,"Ġtext":10530,"Far":10531,"Åĵ":10532,"ĠnÃ½tast":10533,"MikiÃ°":10534,"tÃŃn":10535,"pok":10536,"Ġtillaga":10537,"ĠHe":10538,"ĠstofnuÃ°":10539,"ĠIngvar":10540,"drif":10541,"ya":10542,"Ġframandi":10543,"ĠÃ¦finga":10544,"ĠrÃŃkir":10545,"ĠHelstu":10546,"Ġklipp":10547,"endinga":10548,"tÃŃmann":10549,"ĠkveÃ°a":10550,"ĠnÃ¡granna":10551,"ĠÃ¦ttir":10552,"ĠrÃ©":10553,"saga":10554,"Ġbita":10555,"Ġsegjast":10556,"vÃŃsind":10557,"Ġsterka":10558,"ĠÃºrrÃ¦Ã°i":10559,"Mat":10560,"ĠKa":10561,"ĠhÃ¦fileika":10562,"ĠÃ¡varp":10563,"Ġrefsi":10564,"ĠviÃ°rÃ¦Ã°uferli":10565,"framlenging":10566,"Ġbenti":10567,"lisfrÃ¦Ã°i":10568,"ĠSjÃºkra":10569,"strÃ¶nd":10570,"ĠljÃ³smyndir":10571,"SÃ¡":10572,"pÃ³st":10573,"ĠÃºrslitum":10574,"sgjald":10575,"Ġmamma":10576,"alista":10577,"ĠstjÃ³rnmÃ¡laflokk":10578,"bÃ¦ri":10579,"ĠHÃ³p":10580,"ĠLiÃ°":10581,"ĠaÃ°skil":10582,"ĠMÃ¶r":10583,"ĠjarÃ°veg":10584,"vÃ¶xtur":10585,"ĠverkfÃ¦ri":10586,"Ġfengi":10587,"ĠðŁĻ":10588,"kennd":10589,"ĠJÃ³hannsson":10590,"ulda":10591,"ingini":10592,"Ã¡riÃ°":10593,"Ġatvikum":10594,"ĠPla":10595,"neska":10596,"Ġkaupir":10597,"byl":10598,"Ã¾Ã³l":10599,"ĠÃ¾re":10600,"hÃ³pur":10601,"Ġ%":10602,"ĠNo":10603,"ĠboÃ°aÃ°":10604,"Ã¶fu":10605,"illum":10606,"ĠÃ¾jÃ³Ã°inni":10607,"fari":10608,"orÃ°i":10609,"ĠÃįbÃºÃ°alÃ¡nas":10610,"RannsÃ³k":10611,"ĠgÃ¦tt":10612,"ĠSamgÃ¶ngu":10613,"Ġmisseri":10614,"ĠnÃ¡ttÃºrunni":10615,"ĠKenn":10616,"ĠBÃ³kin":10617,"Ġmyr":10618,"brÃº":10619,"svÃ¦Ã°isins":10620,"Ġsturtu":10621,"virkum":10622,"Ġundirritun":10623,"Ġspennu":10624,"ĠhjÃ³last":10625,"ean":10626,"ĠpÃ³sti":10627,"Ġdreift":10628,"ING":10629,"ĠEM":10630,"Ġfangels":10631,"hÃºsa":10632,"ĠafgreiÃ°":10633,"ĠBA":10634,"Ġmanninn":10635,"Ġhagsmunum":10636,"ĠBro":10637,"flokki":10638,"taliÃ°":10639,"ĠmÃŃnÃºt":10640,"kir":10641,"tamÃŃn":10642,"agl":10643,"ĠFlest":10644,"ĠSagn":10645,"sbÃ³k":10646,"?\"":10647,"Ġopnun":10648,"Ġsambandsins":10649,"Ġpan":10650,"ĠPa":10651,"ĠsÃ©rhÃ¦fir":10652,"Ã½Ã°s":10653,"itiÃ°":10654,"ĠHringbraut":10655,"ilmar":10656,"ĠfrumkvÃ¶Ã°":10657,"hjÃ³la":10658,"ĠSkoÃ°":10659,"che":10660,"Ġlager":10661,"ĠskrÃ¡Ã°a":10662,"ĠbakiÃ°":10663,"Tv":10664,"ĠPre":10665,"ĠMari":10666,"ĠLu":10667,"ĠÃºtsk":10668,"samningum":10669,"garÃ°s":10670,"ĠskÃº":10671,"ĠblÃ¶Ã°":10672,"ĠverÃ¶ld":10673,"ĠÃ¶rstu":10674,"leiÃ°ir":10675,"ela":10676,"akerfi":10677,"ĠlÃ¶gaÃ°ila":10678,"ĠbÃ³ndi":10679,"ĠsÃ©rstÃ¶ku":10680,"ĠSÃ¡l":10681,"Ġatvinnust":10682,"skÃºr":10683,"ĠNÃºna":10684,"Ġgre":10685,"ĠBa":10686,"ĠannaÃ°hvort":10687,"ĠVerÃ°laun":10688,"ĠGarÃ°abÃ¦":10689,"ĠmÃ½":10690,"rÃŃkjanna":10691,"atriÃ°um":10692,"ĠByggingar":10693,"ĠhlutaÃ°eigandi":10694,"Ġformann":10695,"ĠÃ¾ingfara":10696,"ben":10697,"ĠrÃ¶dd":10698,"afÃ©lagi":10699,"ĠVÃįS":10700,"verslunar":10701,"ĠÃŃÅ¾":10702,"Ġlek":10703,"alandi":10704,"Ġsvepp":10705,"ugla":10706,"skylda":10707,"ĠÃ¾riÃ°judag":10708,"Mar":10709,"ĠlÃŃtinn":10710,"ĠÃ³lÃŃkum":10711,"ĠJÃ³ni":10712,"ĠnÃ¡mskeiÃ°inu":10713,"Ã¡Ã¦tlunar":10714,"Ġ111":10715,"regla":10716,"Ġhunda":10717,"ĠFimm":10718,"kennari":10719,"AÃ°alfundur":10720,"ĠalfariÃ°":10721,"shreyf":10722,"shafta":10723,"Ġopnunarhelgar":10724,"ĠFoss":10725,"Ġhreinsa":10726,"skurÃ°ar":10727,"ĠÃ¾Ã¦ttinum":10728,"ĠhÃºsnÃ¦Ã°isl":10729,"ĠstÃ¦rra":10730,"aftur":10731,"Ġskemmtilegur":10732,"ĠsjÃ¡st":10733,"Ġbirtingar":10734,"EvrÃ³pu":10735,"ĠVeit":10736,"Ġpro":10737,"ĠfjÃ¶lmenn":10738,"ĠUnivers":10739,"ĠÃ¦vintÃ½ri":10740,"Ġminnast":10741,"Ġneinn":10742,"ĠMu":10743,"Ġskora":10744,"angavel":10745,"Ġhreyfing":10746,"ĠGrÃ©":10747,"ofn":10748,"SÃŃÃ°ast":10749,".....":10750,"ee":10751,"ĠhagkerfiÃ°":10752,"Ġaugun":10753,"einbÃ½li":10754,"ĠfjÃ¶lskyldan":10755,"ĠMig":10756,"ĠtÃŃmam":10757,"ĠsÃŃÃ°ani":10758,"LAND":10759,"Ġhorfur":10760,"Ġhlakka":10761,"ĠfulltrÃºum":10762,"ikk":10763,"ath":10764,"hrepps":10765,"fin":10766,"ĠlÃŃfsst":10767,"ĠRÃ³m":10768,"Ġfarnir":10769,"Ġbind":10770,"Ġju":10771,"Ġkynsl":10772,"efninu":10773,"Ġskilvirkni":10774,"byggingu":10775,"ĠsÃ¶fn":10776,"ĠgrÃ¡Ã°u":10777,"ĠIngibjÃ¶rg":10778,"ĠGÃŃsl":10779,"âĢĺ":10780,"Ġhafin":10781,"ĠfjÃ¡rmagnshafta":10782,"ĠvirÃ°isaukaskatt":10783,"ĠÃ¡skrif":10784,"Ġafgerandi":10785,"Ġkynni":10786,"ĠÃŀork":10787,"ĠsvÃ¦Ã°is":10788,"ĠEggert":10789,"Ġgervi":10790,"Ġofbeldis":10791,"Ġhau":10792,"ĠgÃ¦Ã°um":10793,"ĠskÃ½ringar":10794,"nefnda":10795,"Ġkjarn":10796,"ĠstÃ³l":10797,"ĠEngin":10798,"ĠvÃŃÃ°tÃ¦k":10799,"slaust":10800,"igh":10801,"ĠOft":10802,"ĠhugsaÃ°i":10803,"Ġtekjum":10804,"agr":10805,"NÃ¡nar":10806,"ĠPersÃ³nu":10807,"kÃ³r":10808,"veldisins":10809,"Ġlo":10810,"frelsi":10811,"Nei":10812,"ĠtÃ¦kja":10813,"ĠbrÃ¦Ã°ur":10814,"ĠtÃŃÃ°ar":10815,"ĠVol":10816,"Ġsmekk":10817,"Ã¾yng":10818,"Ġaugn":10819,"ellu":10820,"asafn":10821,"ĠBald":10822,"ite":10823,"ĠlÃºta":10824,"ĠtÃ©":10825,"ĠjafnrÃ©tti":10826,"ĠWOW":10827,"ica":10828,"Ġskilur":10829,"Ġheyrir":10830,"ĠSÃ¶gu":10831,"ĠmÃ¡lin":10832,"to":10833,"Ġfekk":10834,"ĠJafnvel":10835,"ĠspÃ¡m":10836,"ĠtrjÃ¡":10837,"opn":10838,"ĠmÃ¶guleiki":10839,"fan":10840,"ÃŃskum":10841,"Ġsami":10842,"ĠÃºtbÃºa":10843,"ĠPÃ¡lsson":10844,"Ġminnkar":10845,"ĠSpar":10846,"ysi":10847,"Halld":10848,"Ġskr":10849,"ĠDav":10850,"ĠÃŀiÃ°":10851,"Ġfugla":10852,"fit":10853,"Ġflugvallar":10854,"ĠsÃ©reignar":10855,"ĠÃ¾ekktum":10856,"ĠFyl":10857,"Ġsterkari":10858,"ĠAuÃ°vitaÃ°":10859,"ĠloÃ°":10860,"agram":10861,"ulÃ¶g":10862,"eigendur":10863,"ford":10864,"ĠaÃ°standendur":10865,"staÃ°i":10866,"ĠSc":10867,"ĠMS":10868,"boÃ°iÃ°":10869,"iku":10870,"araÃ¾":10871,"ĠsÃ©um":10872,"ĠsÃŃÃ°astliÃ°num":10873,"Ġvakna":10874,"ĠtÃ¦kjum":10875,"Ġfulla":10876,"uninni":10877,"Ġgefinn":10878,"ĠSjÃ¡varÃºtveg":10879,"ĠÃ¾Ã¶kkum":10880,"Ġlat":10881,"Ã¶fnun":10882,"ĠreiÃ°u":10883,"ĠðŁĻĤ":10884,"ĠGuÃ°na":10885,"ĠlÃ¶gunum":10886,"atriÃ°":10887,"HÃºs":10888,"andamÃ¡l":10889,"shÃ¡":10890,"aldra":10891,"ĠSkemm":10892,"ĠHinsvegar":10893,"ĠmeiÃ°":10894,"ĠnÃ½skÃ¶pun":10895,"Ġlestur":10896,"Ġhluthaf":10897,"ĠglÃ¦":10898,"ĠfrÃ¡bÃ¦ru":10899,"arfundi":10900,"ĠtÃŃÃ°ni":10901,"ĠlÃ¦rÃ°i":10902,"ĠLÃ¡ru":10903,"ĠsÃ©rt":10904,"ĠLei":10905,"ĠÃŃslensks":10906,"JÃ¦ja":10907,"ĠgÃ¦tum":10908,"gandi":10909,"ĠHjar":10910,"Ġsu":10911,"enska":10912,"Ġsyni":10913,"Ã¡mark":10914,"Ġaukna":10915,"ii":10916,"Ġstrey":10917,"ĠtÃºlkun":10918,"Ġsvif":10919,"Ġmanneskja":10920,"lÃ³":10921,"los":10922,"ĠlÃ¶ngum":10923,"1996":10924,"ĠÃºrvals":10925,"Ġsamkomulagi":10926,"savia":10927,"ĠÃ³hug":10928,"byggingar":10929,"Ġ113":10930,"ĠgjÃ¸rt":10931,"Ġlent":10932,"ĠfÃ³rnarl":10933,"ĠÃºrskurÃ°":10934,"ĠNeyt":10935,"ĠÃ¾ola":10936,"ĠslÃ¦mt":10937,"ĠSvar":10938,"ĠupplÃ½":10939,"Ġtilgreind":10940,"Ġsendar":10941,"ĠinnleiÃ°ingu":10942,"Ġspeg":10943,"gefandi":10944,"ĠgÃ¶mlum":10945,"SR":10946,"ĠÃ½ta":10947,"ĠsamanburÃ°i":10948,"ĠÃ¶m":10949,"ĠbÃ³karinnar":10950,"ĠÃºrslita":10951,"ĠStofnun":10952,"ĠÃŃslenskunni":10953,"ettu":10954,"ĠSamt":10955,"Ġeykst":10956,"sherjar":10957,"ĠkrÃ³num":10958,"ĠlÃ©tu":10959,"skÃŃrtein":10960,"ĠVestmannaeyjar":10961,"hljÃ³Ã°":10962,"hand":10963,"jÃ¶rnur":10964,"BÃ¦":10965,"ĠsjÃ³Ã°i":10966,"ĠUnited":10967,"ĠEyÃ¾Ã³r":10968,"ĠÃ¾jÃ¡lfari":10969,"ĠvinnustaÃ°":10970,"miss":10971,"........":10972,"ruÃ°u":10973,"ĠumfjÃ¶llunar":10974,"aloftteg":10975,"Ġryk":10976,"ĠkÃ¶ku":10977,"oleiÃ°is":10978,"blaÃ°i":10979,"ĠÃ³skaÃ°i":10980,"ĠmyndbÃ¶nd":10981,"ĠsÃ½ndu":10982,"Ġskynsam":10983,"Ġban":10984,"kin":10985,"ĠÃ¡ratugum":10986,"heiti":10987,"afull":10988,"Ġgistingu":10989,"cy":10990,"ĠorÃ°nir":10991,"Ġ1996":10992,"ĠstÃ¦Ã°i":10993,"ĠÃ¾ekktur":10994,"ĠbÃ³kasafn":10995,"ĠvanvirÃ°ing":10996,"ĠRE":10997,"ĠsegÃ°i":10998,"eftirlitsins":10999,"ĠMc":11000,"ĠflÃ³kiÃ°":11001,"ĠfiskveiÃ°a":11002,"ĠÃ¡Ã¦tlanir":11003,"hÃ¦fi":11004,"ĠmÃ¦lingum":11005,"ĠafgreiÃ°slufÃ³lk":11006,"ĠfrÃ³Ã°leik":11007,"Ġframangreind":11008,"Ġ51":11009,"ĠSkar":11010,"ĠHÃ¡tÃŃÃ°ir":11011,"Ã¦lu":11012,"Ġkjall":11013,"Ã¶mb":11014,"ĠKSÃį":11015,"Ġ140":11016,"skyns":11017,"ĠVatns":11018,"ĠVott":11019,"ĠnÃ½rnas":11020,"issu":11021,"ĠFrÃ©tt":11022,"ĠnÃ¡mskeiÃ°iÃ°":11023,"Ã¾Ã¶rf":11024,"sÃ¶m":11025,"andanum":11026,"ĠSeÃ°labanki":11027,"Ġdeyja":11028,"efndin":11029,"ĠneÃ°st":11030,"ĠaÃ°draganda":11031,"kvÃŃ":11032,"ĠGest":11033,"brjÃ³":11034,"gert":11035,"eikar":11036,"ĠjÃ¡kvÃ¦Ã°a":11037,"sÃ¡tt":11038,"ĠmÃŃnÃºtum":11039,"ĠÃŀorsteins":11040,"ninum":11041,"stÃ³ll":11042,"ĠgÃ¦Ã°":11043,"ĠstÃ³rar":11044,"Ġskylda":11045,"uÃ°ar":11046,"!!!":11047,"CO":11048,"Ä¾":11049,"Ġsetjast":11050,"fag":11051,"ÄĽ":11052,"ĠMac":11053,"ĠrÃŃkinu":11054,"vottun":11055,"Ġverkefnis":11056,"Ġskapar":11057,"Ġungmenna":11058,"ĠdÃ³":11059,"otel":11060,"ĠstefnumÃ³tun":11061,"okkar":11062,"Ã¶tuna":11063,"elliÃ°":11064,"Ġyou":11065,"ĠvirÃ°a":11066,"Ġsettir":11067,"ĠHest":11068,"bundnum":11069,"ĠÃ¾vÃŃlÃŃk":11070,"astaÃ°ir":11071,"ĠÃŃslenskan":11072,"ĠsjÃºkratrygg":11073,"dals":11074,"Ġga":11075,"ĠstjÃ³rnsÃ½":11076,"Ġbygging":11077,"ĠsafniÃ°":11078,"burg":11079,"Ġopinberlega":11080,"inka":11081,"ĠtÃŃmabiliÃ°":11082,"Ġmikillar":11083,"Margir":11084,"ĠÃ¦v":11085,"Ġskipar":11086,"aradÃŃs":11087,"ĠmargvÃŃsleg":11088,"ĠÃ¡gÃ¦tis":11089,"ĠklÃ¦Ã°":11090,"byrÃ°i":11091,"ĠSigf":11092,"76":11093,"Ã½rum":11094,"ĠMerk":11095,"ĠÃŃÃ¾rÃ³ttir":11096,"ĠsÃ©rfrÃ¦Ã°ingur":11097,"ington":11098,"Ġtakmarka":11099,"dik":11100,"Ġfacebook":11101,"Ãºb":11102,"ĠÃ³ttast":11103,"ĠTrÃº":11104,"Ġdvalar":11105,"Op":11106,"eu":11107,"Ġstyrkir":11108,"Ġvinning":11109,"Ġhittast":11110,"ĠfÃ¦rir":11111,"ĠJÃ³hanna":11112,"ĠAra":11113,"Ġframar":11114,"ĠdrÃ¶g":11115,"ĠbrÃ¦Ã°":11116,"Ġvefjum":11117,"ĠvinsÃ¦ld":11118,"SH":11119,"Ġ116":11120,"ĠaÃ°komu":11121,"sÃ³kna":11122,"ĠleiÃ°inlegt":11123,"Ġengi":11124,"ĠtrÃºn":11125,"kostnaÃ°ur":11126,"Ġlog":11127,"ĠkÃ¦m":11128,"ĠEnda":11129,"Ġstarfsh":11130,"Ã¦tlaÃ°":11131,"aukinn":11132,"gengi":11133,"Ãŀau":11134,"ĠHvaÃ°a":11135,"ĠNorÃ°urland":11136,"ĠMyndir":11137,"Ġbarni":11138,"ĠhliÃ°ina":11139,"Ġmisst":11140,"Ġsanng":11141,"ĠRang":11142,"Ġopinberu":11143,"Ġungu":11144,"barna":11145,"ish":11146,"ĠBrussel":11147,"ĠSonur":11148,"ĠrÃ©ttinda":11149,"Ġefnahags":11150,"ĠkÃ¶kum":11151,"takendur":11152,"tekjur":11153,"meÃ°ferÃ°":11154,"Ġverri":11155,"rich":11156,"stofna":11157,"ĠskÃ³linn":11158,"Ġ53":11159,"rÃ¡Ã°u":11160,"Ã¦lingar":11161,"ĠBirgir":11162,"ĠgrÃ³Ã°urhÃºsaloftteg":11163,"mÃŃ":11164,"Ã¡lk":11165,"ĠStÃ¦rÃ°":11166,"Ġkrossins":11167,"SeÃ°labankinn":11168,"Ã³d":11169,"Ġdettur":11170,"Ġskuldara":11171,"ĠritaÃ°":11172,"ĠHveragerÃ°i":11173,"breytingu":11174,"Ġgistim":11175,"lausir":11176,"hÃ³pa":11177,"Ġtilvit":11178,"Ġloftslags":11179,"ĠÃ¡lyktun":11180,"RO":11181,"emar":11182,"farar":11183,"ĠtillÃ¶gum":11184,"Ġheimilinu":11185,"Äº":11186,"Ġpark":11187,"bÃºin":11188,"ĠtiltekiÃ°":11189,"ĠlÃ¶gmÃ¦":11190,"ĠBak":11191,"ĠKÃ¡ra":11192,"Ġmiklir":11193,"ĠhvÃŃtlauk":11194,"TÃŃ":11195,"Ã³re":11196,"ĠMal":11197,"Ġgangandi":11198,"ĠupplifaÃ°":11199,"hÃº":11200,"Ġlosa":11201,"Ġalmennar":11202,"ĠlÃ½Ã°heilsu":11203,"redit":11204,"ĠÃ¡lagi":11205,"iÃ°naÃ°ar":11206,"ĠÃģl":11207,"Ġskapast":11208,"Sveit":11209,"Ġnotendum":11210,"ome":11211,"Ġhval":11212,"lÃŃnis":11213,"rÃ¦Ã°is":11214,"igi":11215,"Ġkoll":11216,"ĠEyjÃ³l":11217,"ĠBlÃ³m":11218,"Ġbreska":11219,"ĠÃŀrÃ³":11220,"MS":11221,"rÃ©ttum":11222,"Ġhelming":11223,"ĠmÃŃnÃºtna":11224,"tive":11225,"Ġleys":11226,"frÃ¦Ã°ilegar":11227,"hlutfall":11228,"stÃ¸":11229,"ory":11230,"Ã¾jÃ³Ã°ar":11231,"Ġind":11232,"ĠÃĨt":11233,"Ġ92":11234,"Ġ188":11235,"ĠÃ³heimilt":11236,"Ġ76":11237,"ĠvÃ¶runa":11238,"ĠÃŃbÃºum":11239,"Ġ74":11240,"Ġvinur":11241,"ĠHiÃ°":11242,"Ġkonungi":11243,"bandiÃ°":11244,"ĠLjÃ³":11245,"ĠatkvÃ¦Ã°agreiÃ°":11246,"ows":11247,"bÃ¦tt":11248,"skrifstofu":11249,"ĠAron":11250,"krÃ³":11251,"ĠtjÃ³ni":11252,"ĠskurÃ°":11253,"ĠlagÃ°ar":11254,"ĠÄĳ":11255,"setningum":11256,"jÃ¶rÃ°ur":11257,"ĠupplÃ½singalaga":11258,"ĠrÃ¡Ã°gjafar":11259,"MR":11260,"ÃŃel":11261,"Ġskipan":11262,"ĠSkÃ³l":11263,"Ã¦mis":11264,"sÃ½ning":11265,"âĢĿ,":11266,"visku":11267,"ĠhÃ¶g":11268,"ĠÃ³vÃ¦nt":11269,"lÃ½singa":11270,"Atvinnu":11271,"samningur":11272,"gerÃ°ur":11273,"Ġeinfalda":11274,"skort":11275,"juÃ°u":11276,"ĠaÃ°gengileg":11277,"Ġbarnaverndar":11278,"web":11279,"Ġraunver":11280,"ĠÃ¡gÃ¦tt":11281,"Ġvild":11282,"ĠVonandi":11283,"kunn":11284,"rem":11285,"Ġyfirskrift":11286,"ettir":11287,"Ġhollustu":11288,"ĠKer":11289,"ĠÃ¦ttum":11290,"ĠÃ³skÃ¶p":11291,"Ġvakt":11292,"nit":11293,"Ġsigri":11294,"ĠrÃ¡Ã°inn":11295,"alegur":11296,"lagiÃ°":11297,"ĠsamanburÃ°ar":11298,"ĠNorÃ°urlandar":11299,"lsis":11300,"ĠafslÃ¡tt":11301,"ĠhÃ³t":11302,"ĠsÃŃmann":11303,"vÃŃsa":11304,"ĠsÃ³ttu":11305,"Ġsendum":11306,"Ġfyrirmyndar":11307,"Ġalgengt":11308,"NÃ¡ttÃºru":11309,"ĠviÃ°gerÃ°":11310,"ĠGal":11311,"SD":11312,"bÃºiÃ°":11313,"ĠGrund":11314,"ĠnakaÃ°":11315,"ungum":11316,"liÃ°iÃ°":11317,"ĠSÃŃÃ°a":11318,"ĠvaxiÃ°":11319,"ĠFyrirtÃ¦kiÃ°":11320,"ĠstjÃ³rnmÃ¡lum":11321,"ĠKristinn":11322,"ĠbeinlÃŃnis":11323,"ĠSÃ©rstaklega":11324,"Ã°arinnar":11325,"smark":11326,"Ġlandsleik":11327,"ĠmÃ¦lst":11328,"Ġstem":11329,"ĠÃ¶rfÃ¡":11330,"SÃ¦k":11331,"Ġlim":11332,"Ġkerfinu":11333,"ĠNorrÃ¦na":11334,"ĠInnan":11335,"Ã¶nsk":11336,"Ġduga":11337,"Ã¥":11338,"ĠbeÃ°nir":11339,"Ġlistamenn":11340,"stÃ³la":11341,"ĠfrÃ¡sÃ¶gn":11342,"jumst":11343,"ĠBjÃ¶":11344,"Ġkjarna":11345,"Ġtoga":11346,"Ġskipinu":11347,"aÃ°la":11348,"ĠmeÃ°hÃ¶ndlun":11349,"Ġellefu":11350,"ĠsÃŃld":11351,"Ġvirkja":11352,"ĠFran":11353,"ĠaÃ°alfund":11354,"nÃ¡ms":11355,"lÃºbb":11356,"sÃ¦ti":11357,"ĠstjÃ³rnvÃ¶ldum":11358,"Ġsamsvar":11359,"ĠPau":11360,"ĠÅ¾ÃŃ":11361,"uÃ°ust":11362,"ĠKirk":11363,"ĠsamrÃ¦mis":11364,"Ġhinnar":11365,"Ã³Ã°u":11366,"ner":11367,"ĠfagnaÃ°ar":11368,"ĠnÃ½st":11369,"ĠÃ¡kvÃ¶rÃ°unar":11370,"Ġeptir":11371,"ĠtÃ³kum":11372,"ĠMorgunblaÃ°iÃ°":11373,"uga":11374,"Ã¶fnunar":11375,"vÃ¡":11376,"ĠgÃŃtar":11377,"ĠpÃ¶nnu":11378,"Svona":11379,"Yfir":11380,"ĠBank":11381,"Ġafskaplega":11382,"ĠskÃ½rslunni":11383,"Ġtrufl":11384,"frey":11385,"Ġfyrirlestur":11386,"ĠÃ¶ryrkja":11387,"StÃ³r":11388,"Ġmerkja":11389,"ongd":11390,"stÃ¶Ã°varinnar":11391,"ĠÃ¡ÅĻ":11392,"rÃ¦Ã°na":11393,"ĠskapaÃ°":11394,"ĠlÃ¶greglum":11395,"ĠÃ¶fl":11396,"ĠmagnaÃ°":11397,"ĠliÃ°num":11398,"ĠÃŀr":11399,"Ġungur":11400,"ĠaÃ°fanga":11401,"vt":11402,"farin":11403,"ĠÃºrskurÃ°arnefnd":11404,"ĠÃ¡herslur":11405,"Ġforgang":11406,"Ġspara":11407,"ĠReykjavÃŃkurborg":11408,"ĠgistimÃ¶guleika":11409,"ĠgildistÃ¶ku":11410,"wa":11411,"ĠundirbÃºningi":11412,"unc":11413,"Ġumdeild":11414,"ĠsÃ©rfrÃ¦Ã°i":11415,"lÃ½Ã°":11416,"Ġkrafta":11417,"hÃ¡ttar":11418,"ĠskrÃ¡Ã°ur":11419,"ĠsÃ¦tt":11420,"ĠSiÃ°":11421,"ektar":11422,"Ġhelmingur":11423,"ĠstjÃ¶rnugjÃ¶f":11424,"Ġhrik":11425,"Ġeinsog":11426,"Ġbeinum":11427,"samnings":11428,"ĠÃ³sÃ¦mileg":11429,"ĠBÃ¡rÃ°ar":11430,"ĠsvokallaÃ°a":11431,"ĠGrÃ¦nlandi":11432,"Ġsnar":11433,"ĠhÃ¦ttir":11434,"ĠJer":11435,"Ġfil":11436,"Ã¶ss":11437,"ĠJÃ³l":11438,"Ġrusl":11439,"kall":11440,"ĠFÃ¦reyjum":11441,"ĠÃ¡nÃ¦gÃ°ur":11442,"BC":11443,"Ġ86":11444,"Tek":11445,"ĠÃįr":11446,"ĠFormaÃ°ur":11447,"ĠMer":11448,"Ġvori":11449,"ĠÂ«":11450,"ĠtakmarkaÃ°":11451,"MÃ¡":11452,"Ġumsv":11453,"Ġvert":11454,"ĠfrjÃ¡lst":11455,"ĠlÃ¡ti":11456,"arin":11457,"Ġut":11458,"Ġpant":11459,"Ġ1986":11460,"stÃ©tt":11461,"eÃ°l":11462,"ĠskilaÃ°i":11463,"stÃ¶Ã°va":11464,"hÃ³purinn":11465,"Ġbreytir":11466,"hlutun":11467,"Ġrokk":11468,"herja":11469,"alegar":11470,"ĠÃ¡rslok":11471,"Ã³tum":11472,"Ġrass":11473,"Ġskyldum":11474,"ĠÃ³tal":11475,"ĠfjÃ¶lskylda":11476,"ĠauglÃ½singu":11477,"Ġtilheyra":11478,"VerÃ°lag":11479,"hÃ³li":11480,"Ġskuldi":11481,"Ġstyrkt":11482,"ĠstjÃ³rnmÃ¡lamenn":11483,"me":11484,"ĠReyndar":11485,"Ã¾ingsins":11486,"stral":11487,"Ð»":11488,"ĠÄĻ":11489,"disk":11490,"ĠÃ¦fing":11491,"ĠÃ¡hugaverÃ°":11492,"ĠÃ³lÃŃklegt":11493,"ĠsamÃ¾ykktar":11494,"ĠHu":11495,"Ã¶fum":11496,"Nemendur":11497,"hreppi":11498,"UK":11499,"Ġoc":11500,"ĠÄ¹":11501,"Ġfelast":11502,"ĠtilbÃºiÃ°":11503,"FR":11504,"eyjum":11505,"ĠsjÃ³Ã°a":11506,"ĠseÃ°lab":11507,"ĠopnunartÃŃma":11508,"Ġinternet":11509,"Ġmats":11510,"Ġskildi":11511,"Ġstarfinu":11512,"SÃ¶gu":11513,"ĠnÃ½ir":11514,"ĠstÃ¶Ã°v":11515,"Ġskriflega":11516,"ĠefnahagssvÃ¦Ã°iÃ°":11517,"ĠklukkutÃŃma":11518,"tÃŃÃ°in":11519,"zz":11520,"ĠGrand":11521,"ĠfrjÃ³":11522,"ĠrÃ¡Ã°ningar":11523,"tasta":11524,"ĠlÃ¸":11525,"ĠViÃ°tÃ¶l":11526,"Ġeinstakt":11527,"Ġbundin":11528,"Ġaukning":11529,"ĠÃŀorgeir":11530,"Ġleyst":11531,"bik":11532,"ĠStaÃ°rey":11533,"Ã¶kust":11534,"ĠStyrk":11535,"iliga":11536,"ppiÃ°":11537,"Ġlandsmenn":11538,"Amer":11539,"ĠÃ³happ":11540,"nÃ³":11541,"ĠauglÃ½singa":11542,"ĠlÃ¶gheimili":11543,"Skrif":11544,"Sm":11545,"Ġsamningar":11546,"Ãŀannig":11547,"Ġ63":11548,"Ã¶skun":11549,"ĠframlÃ¶g":11550,"snÃ¡m":11551,"isst":11552,"enter":11553,"ĠfrÃŃtt":11554,"ĠmenntamÃ¡l":11555,"ĠnÃ¡mskeiÃ°i":11556,"Ġborgina":11557,"ĠhugmyndafrÃ¦Ã°i":11558,"ĠLiverpool":11559,"jÃ³lk":11560,"ĠafÃ¾reyingu":11561,"skÃ¡k":11562,"ĠdÃ¶kk":11563,"Ġmagni":11564,"ĠvarÃ°veita":11565,"ĠJÃ³hannesson":11566,"markmiÃ°":11567,"Ġsera":11568,"Ġeflingu":11569,"Ġris":11570,"ligt":11571,"RÃŃkis":11572,"ĠÃ¾ings":11573,"Ġ130":11574,"ĠheimiliÃ°":11575,"ĠfjÃ¶lskylduna":11576,"ĠfÃ¶g":11577,"Ġkaupum":11578,"ĠÃ¶ruggt":11579,"ĠGuÃ°mundsdÃ³ttir":11580,"ĠSunna":11581,"ĠÃ³tt":11582,"Ġgalla":11583,"}.":11584,"Ġaldeilis":11585,"liÃ°ar":11586,"Ġgo":11587,"ĠKristjÃ¡nsson":11588,"inm":11589,"efnunnar":11590,"ĠspjaldtÃ¶l":11591,"bÃºÃ°a":11592,"ĠflugiÃ°":11593,"Ġsamningum":11594,"ĠbrjÃ¡l":11595,"ĠhÃ¡ttar":11596,"Ġmetrar":11597,"Ġstundir":11598,"ĠHafa":11599,"ĠvinsÃ¦lu":11600,"ĠfegurÃ°":11601,"ugg":11602,"uÃ°s":11603,"Ġhvarf":11604,"ĠNau":11605,"bÃ³lgu":11606,"lÃ¦knir":11607,"Ã¦ka":11608,"ĠsÃ¶luvef":11609,"rosoft":11610,"manum":11611,"ĠkÃ³k":11612,"ĠinnÃŃ":11613,"arsdÃ³ttir":11614,"ĠskrÃ¡Ã°ir":11615,"sÃ¦i":11616,"ĠÃĿmislegt":11617,"ĠfeÃ°":11618,"ĠGunnars":11619,"ĠGrindavÃŃk":11620,"ĠHafi":11621,"Ġsvig":11622,"lausum":11623,"Ġspjalla":11624,"ĠsÃŃÃ°astliÃ°in":11625,"Ġhreyfi":11626,"ingjar":11627,"ĠNÃ¦r":11628,"ĠlegiÃ°":11629,"ĠBirgi":11630,"ĠgoÃ°":11631,"ĠSu":11632,"ĠFrey":11633,"snesi":11634,"ĠendurnÃ½jun":11635,"ĠlandsbyggÃ°":11636,"eyjargÃ¡":11637,"Ġborin":11638,"ĠBenediktsson":11639,"bjÃ¶r":11640,"ĠtÃ³nleikum":11641,"ĠskÃ³gar":11642,"ĠhryÃ°ju":11643,"ĠAlic":11644,"ĠsÃ¶fnun":11645,"ĠEnnfremur":11646,"ĠÃ¦vintÃ½r":11647,"ĠHjÃ¡lp":11648,"ĠÃ³bein":11649,"ĠhraÃ°ar":11650,"ĠElÃŃ":11651,"ĠrafbÃºnaÃ°ar":11652,"ĠhljÃ³p":11653,"Ġhorfir":11654,"Ġgjafa":11655,"ĠÃ¡standiÃ°":11656,"71":11657,"Ã°st":11658,"Ġsamninginn":11659,"ĠhÃ¶ldum":11660,"lutningar":11661,"ori":11662,"ĠlÃ½sing":11663,"Ġfyrirlestra":11664,"Ġhveiti":11665,"ĠIsavia":11666,"ĠflugleiÃ°":11667,"ĠVinsamlegast":11668,"ĠGolf":11669,"virki":11670,"jÃ¶ldum":11671,"ĠfÃ©lagsÃ¾jÃ³nustu":11672,"Ġvalinn":11673,"ĠSkipiÃ°":11674,"Ġbakv":11675,"ĠsveitarfÃ©lÃ¶gum":11676,"brÃ¶gÃ°in":11677,"ban":11678,"Ġlak":11679,"eli":11680,"ĠtÃ¶lfrÃ¦Ã°i":11681,"Ġfaglegri":11682,"ĠpÃ³litÃŃk":11683,"samÃ¾ykk":11684,"Ġhreyfa":11685,"df":11686,"nattleik":11687,"ĠNÃ¡ttÃºrufrÃ¦Ã°i":11688,"afyrirtÃ¦k":11689,"ĠNi":11690,"Ġbreidd":11691,"ĠÃ¾ekking":11692,"indin":11693,"Ġmatinn":11694,"ĠTyrk":11695,"ĠlÃŃfsstÃŃl":11696,"ĠÃ¶rorku":11697,"ĠmÃ¶guleikar":11698,"ĠIII":11699,"ĠÃ¾rif":11700,"Ġhefi":11701,"rÃ¦nni":11702,"Ġveist":11703,"ĠvÃ¶nduÃ°":11704,"ĠÃ¡nÃ¦gjulegt":11705,"SÃ¦ktu":11706,"ĠsÃ½ninguna":11707,"RÃ©tt":11708,"Ġte":11709,"Ġdagsetningu":11710,"Ġstuttum":11711,"ĠÃ¾akkir":11712,"iÃ°a":11713,"ĠHek":11714,"ĠÃ¾Ã³k":11715,"Ġfugl":11716,"ĠgripiÃ°":11717,"Ġvarir":11718,"risti":11719,"Ġhugann":11720,"ĠstjÃ³rnenda":11721,"Ġhiti":11722,"ĠbÃ¦ndur":11723,"ĠtÃŃÃ°um":11724,"ĠÄĽÅ¾":11725,"ĠÃ½msir":11726,"ĠtapaÃ°i":11727,"ĠLilja":11728,"Ġeldra":11729,"skÃŃ":11730,"Ġsams":11731,"ĠvefsvÃ¦Ã°iÃ°":11732,"skapar":11733,"ĠLaugav":11734,"StarfiÃ°":11735,"PA":11736,"Ġfimmta":11737,"ĠeyÃ°ileg":11738,"Ġ79":11739,"ĠÃŃbÃºÃ°um":11740,"fÃ¶t":11741,"ĠfÃŃkniefna":11742,"ĠAÃ°rir":11743,"ĠÃ¦tlunin":11744,"Ġflokkar":11745,"Ġbarninu":11746,"ĠumboÃ°smaÃ°ur":11747,"ĠafÃ¾reyingar":11748,"ĠfÃ³lkinu":11749,"Ġraung":11750,"Ġminnk":11751,"1990":11752,"ĠLo":11753,"ĠmÃ¦lum":11754,"einkunn":11755,"ĠmÃ¸gu":11756,"Ġuppskrif":11757,"Lok":11758,"ĠÃŃÃŃ":11759,"rÃ¡n":11760,"ĠhvaÃ°an":11761,"hverju":11762,"ĠbyggÃ°ur":11763,"Ġstytta":11764,"NiÃ°ur":11765,"atar":11766,"ĠpÃŃnu":11767,"tube":11768,"Ġvarpa":11769,"ĠsmÃŃÃ°a":11770,"ĠBjÃ¶rgvin":11771,"ĠmÃ¦lingar":11772,"ĠVegagerÃ°ar":11773,"ĠstÃºlk":11774,"ĠsÃ¶guna":11775,"afmÃ¦li":11776,"ĠkÃŃsil":11777,"ĠlÃ¡gt":11778,"ĠsjÃ³Ã°num":11779,"Ġfyrirspurnir":11780,"Ġbot":11781,"Ġsnert":11782,"ĠbÃ³kar":11783,"ĠlaunafÃ³lks":11784,"Ġatvinnuleysi":11785,"Ġmo":11786,"ĠmÃ¡laflokk":11787,"ĠFÃ¦Ã°ingarorlofssjÃ³Ã°i":11788,"ĠgyÃ°":11789,"ĠMil":11790,"ĠsvÃ¦Ã°isins":11791,"aker":11792,"ĠtÃŃunda":11793,"gerÃ°i":11794,"ear":11795,"akt":11796,"ĠÃ¡kvÃ¡Ã°um":11797,"rÃ¦nar":11798,"Ġfanga":11799,"rÃ¡Ã°iÃ°":11800,"kallaÃ°":11801,"ĠskotiÃ°":11802,"ÃºtgÃ¡fu":11803,"stÃ½ri":11804,"Ġteig":11805,"ugur":11806,"Ġlifir":11807,"ĠmeÃ°fram":11808,"ĠKra":11809,"ĠGylfi":11810,"afi":11811,"ĠfundargerÃ°":11812,"ower":11813,"Ġfremstu":11814,"Ġhaldist":11815,"ĠgÃ¦lu":11816,"Ġtonnum":11817,"Ġdrukk":11818,"Ġendanlega":11819,"vas":11820,"ĠsÃ¶l":11821,"ĠfjÃ¶lmiÃ°lar":11822,"kit":11823,"Ġhrepp":11824,"angaveltur":11825,"smÃŃ":11826,"ĠlÃŃm":11827,"ĠÃĵlafsdÃ³ttir":11828,"ĠStarfsmenn":11829,".:":11830,"ĠPark":11831,"antshaf":11832,"ottiÃ°":11833,"ĠHS":11834,"ĠhÃ¦kkandi":11835,"ĠbandarÃŃska":11836,"Ġ189":11837,"skemm":11838,"ĠstÃºdent":11839,"ĠÃ¡byr":11840,"greitt":11841,"INN":11842,"ĠskrÃ¡ninguna":11843,"ĠnÃ³v":11844,"ĠÃ¾jÃ³Ã°a":11845,"ĠbÃŃlastÃ¦Ã°i":11846,"Ã¾eg":11847,"ĠsÃ¦l":11848,"Ġendurspeglar":11849,"Par":11850,"ĠkÃŃk":11851,"Ġundar":11852,"ĠvellÃŃÃ°an":11853,"ĠSÃ½r":11854,"ÃŀriÃ°":11855,"Ġskipi":11856,"steyp":11857,"akeppni":11858,"ĠOkkur":11859,"ĠlÃŃklegast":11860,"ĠÃ¸llum":11861,"ĠfjÃ¶lgaÃ°":11862,"ĠerfÃ°abreytt":11863,"ĠhugtÃ¶k":11864,"Ġerlendir":11865,"ĠÃ¾jÃ³Ã°ir":11866,"blÃ¶nd":11867,"ĠheiÃ°ar":11868,"Ġsigla":11869,"Ġplan":11870,"Ġboltanum":11871,"lÃ¶nd":11872,"strÃ¦ti":11873,"Ġstundar":11874,"ararnir":11875,"ĠspÃ¡in":11876,"FerÃ°":11877,"arfjarÃ°ar":11878,"Ã¡byrgÃ°":11879,"ĠflÃº":11880,"ĠhÃ³pum":11881,"Ġ1992":11882,"ĠtÃ³l":11883,"fyri":11884,"Ġsumri":11885,"vins":11886,"ĠÃ¡kveÃ°nar":11887,"valdi":11888,"PersÃ³nu":11889,"rÃ°i":11890,"Ġvelt":11891,"ĠAftur":11892,"BÃ³k":11893,"ĠÃºtilok":11894,"Ġ110":11895,"Ġelskar":11896,"ĠsamtÃ¶kin":11897,"ĠhlÃŃ":11898,"Ġafa":11899,"Ġferil":11900,"ĠbÃ¡ta":11901,"ĠVerkefniÃ°":11902,"ĠbÃ¦jarstjÃ³rnar":11903,"ĠbjÃ¶r":11904,"ĠSund":11905,"ĠTwitter":11906,"Ġborgarf":11907,"Ã¡ms":11908,"lÃŃfiÃ°":11909,"Ġskemmtun":11910,"Ġflokkurinn":11911,"ĠUniversity":11912,"kÃ¡l":11913,"ĠsÃ³s":11914,"Ġfrumvarps":11915,"ÃŃum":11916,"eigenda":11917,"skrÃ¡in":11918,"Ġ145":11919,"ĠtÃ¶lvunni":11920,"ĠfÃ©l":11921,"rÃ©tting":11922,"Ġair":11923,"eck":11924,"ĠStÃ¦r":11925,"Ġalltof":11926,"Ġ800":11927,"ĠpÃŃan":11928,"EC":11929,"nus":11930,"Ġbrun":11931,"ĠJapan":11932,"ĠblandaÃ°":11933,",âĢĿ":11934,"ĠbÃ¦tast":11935,"ĠFjalla":11936,"ĠsmÃ¡m":11937,"Ġvalko":11938,"ĠÃ¾jÃ³nustuna":11939,"fjall":11940,"Ġbrota":11941,"ferÃ°um":11942,"ĠvÃŃsir":11943,"ice":11944,"pappÃŃr":11945,"ĠsjÃ³nvarpi":11946,"Ġstyttri":11947,"ĠÃįÃ¾rÃ³tta":11948,"Ġfylgist":11949,"ĠvarÃ°veislu":11950,"ĠbÃ¦nda":11951,"ĠglÃŃma":11952,"Ġsakir":11953,"GuÃ°rÃºn":11954,"Val":11955,"Ġsynir":11956,"ĠskoÃ°uÃ°":11957,"ego":11958,"ĠumrÃ¦Ã°unni":11959,"ĠendurskoÃ°a":11960,"Ġ@":11961,"Ġstress":11962,"isma":11963,"ĠKristin":11964,"Ġbo":11965,"eymslu":11966,"ĠâĢĺ":11967,"Ã¾jÃ¡lfari":11968,"ĠÃ³sn":11969,"Ġendurspegla":11970,"demÃŃ":11971,"Ġkyl":11972,"Ġfjarskipta":11973,"SÃŃÃ°a":11974,"Ã¦fni":11975,"frÃ¦Ã°ilega":11976,"ĠNesk":11977,"ĠCl":11978,"Ġvinnunni":11979,"Ġhjartan":11980,"ĠskyndihjÃ¡lp":11981,"Ã¡hug":11982,"ĠmarkiÃ°":11983,"ĠafleiÃ°ingum":11984,"ĠaÃ°setur":11985,"ÃģkvÃ¶rÃ°un":11986,"valdiÃ°":11987,"Ġheimildum":11988,"ĠsÃ¡tu":11989,"ĠlÃ³Ã°a":11990,"ĠtrÃºi":11991,"ĠgrunnskÃ³lum":11992,"ĠÃ¾jÃ¡lfara":11993,"trÃ³":11994,"Ġsafnsins":11995,"Ġjur":11996,"ĠÃ¶x":11997,"ĠmeÃ°lÃ¦ti":11998,"ĠLE":11999,"ĠÃ¾ingiÃ°":12000,"Ġvaldar":12001,"Ġstrik":12002,"ĠFrÃ©ttablaÃ°inu":12003,"Ġeiningar":12004,"ĠeyÃ°i":12005,"ĠundanÃ¾Ã¡gu":12006,"ĠElÃŃs":12007,"ĠSiglufirÃ°i":12008,"ĠSverri":12009,"ĠbrÃºÃ°kaup":12010,"ĠstÃ¦kka":12011,"ĠatriÃ°um":12012,"ĠvÃ¶rurnar":12013,"ĠStjÃ³rnmÃ¡l":12014,"ĠVÃŃsindavefurinn":12015,"ĠCan":12016,"Ġvelkomin":12017,"merkur":12018,"ĠkvÃ¶ldi":12019,"ĠferÃ°amann":12020,"Ðº":12021,"ĠKald":12022,"ĠhrÃ¦r":12023,"ĠaflaÃ°":12024,"ĠReik":12025,"ĠkvÃ¶ldin":12026,"ĠÃ¾jÃ³Ã°kirkjunnar":12027,"gleika":12028,"nuÃ°ust":12029,"Ġhelmingi":12030,"sÃŃÃ°ur":12031,"ĠmÃ¡ta":12032,"ĠÃĵli":12033,"Ġskipulagi":12034,"Ġytri":12035,"Ġfermingar":12036,"Ġhnapp":12037,"Ã¸l":12038,"slau":12039,"ĠlÃ¡tum":12040,"srÃ¡Ã°herra":12041,"vek":12042,"skjÃ¡":12043,"ĠFjarÃ°a":12044,"ĠfriÃ°i":12045,"Ġlesendum":12046,"Ġnefndir":12047,"Ġfoss":12048,"ĠVarÃ°":12049,"Ġgamli":12050,"bÃ³ka":12051,"Ġsc":12052,"ĠMegin":12053,"Ġpir":12054,"chester":12055,"ĠSjÃ¡lfstÃ¦Ã°i":12056,"Ġtrom":12057,"Ġull":12058,"ĠforrÃ¡Ã°":12059,"ĠKring":12060,"ĠTveir":12061,"Ġbjuggu":12062,"Ġskiptingu":12063,"Ġafhendingu":12064,"ampi":12065,"ĠHonum":12066,"Flug":12067,"ĠRegi":12068,"ĠÃįslandsbanka":12069,"FS":12070,"ren":12071,"smarkaÃ°i":12072,"ĠSamkeppni":12073,"ĠvÃŃsinda":12074,"Ġsigurvegar":12075,"Ġstillingum":12076,"Ġdeginum":12077,"tus":12078,"Ġinnlendum":12079,"skurÃ°ur":12080,"'s":12081,"kiÃ°":12082,"ĠnorrÃ¦nu":12083,"ĠheimasÃŃÃ°unni":12084,"Ġsvon":12085,"Ġskipum":12086,"Ġframs":12087,"ĠKÃ¦randi":12088,"eyf":12089,"ĠhjÃº":12090,"ĠdÃ³ma":12091,"Ġsalti":12092,"Ġreisa":12093,"ĠhÃ¶fÃ°i":12094,"Ġkirkjum":12095,"ĠhormÃ³na":12096,"ĠhÃ¡deginu":12097,"vÃ¶rp":12098,"ĠblaÃ°inu":12099,"RÃ¡Ã°herra":12100,"ĠutanrÃŃkisrÃ¡Ã°herra":12101,"ĠSigrÃºn":12102,"Ġpeningastefnunefnd":12103,"reka":12104,"FÃ³lk":12105,"Ġleiksins":12106,"ÃģÃ°ur":12107,"ĠNÃ¡mskeiÃ°iÃ°":12108,"ĠfrÃ©ttamiÃ°":12109,"vÃŃsanir":12110,"ĠAlicante":12111,"ĠhÃ¡lft":12112,"Ġvettvang":12113,"Ġhyggst":12114,"ĠbannaÃ°":12115,"DA":12116,"Mik":12117,"ĠSÃ¦m":12118,"Ġlaug":12119,"ĠÄįÃ¡":12120,"Ġhandrit":12121,"ĠvÃ¦gi":12122,"ĠrÃ¡Ã°i":12123,"ĠgrÃ³Ã°urhÃºsalofttegunda":12124,"ĠmÃ¡lflutning":12125,"Ġad":12126,"ĠhÃ³teliÃ°":12127,"ĠeyÃ°u":12128,"Ġnokkurs":12129,"landiÃ°":12130,"ĠskÃ¶mm":12131,"Ġreist":12132,"jÃ³rinn":12133,"ĠljÃ³siÃ°":12134,"abet":12135,"ĠhÃ³fust":12136,"ĠhrÃ¦Ã°":12137,"ĠvÃŃkja":12138,"Ġnyt":12139,"lef":12140,"ĠlÃŃfsh":12141,"ĠefnahagsrÃ¡Ã°uneytiÃ°":12142,"eitiÃ°":12143,"ĠstÃ¶Ã°var":12144,"sÃŃÃ°um":12145,"runum":12146,"Ġkennurum":12147,"Ġskilgreina":12148,"ml":12149,"ĠÃĸlfu":12150,"ĠskerÃ°":12151,"Ġenska":12152,"Ġaukningu":12153,"Ġmarkviss":12154,"arflug":12155,"ĠmÃ¡nuÃ°ur":12156,"ĠpersÃ³nuvernd":12157,"ĠRannsÃ³knar":12158,"ĠVegagerÃ°arinnar":12159,"Ġvitne":12160,"Ġfagur":12161,"ĠÃŀann":12162,"angt":12163,"ĠfyrirtÃ¦kis":12164,"ĠframleiÃ°ir":12165,"ĠherbergisverÃ°i":12166,"Ekkert":12167,"ĠKepp":12168,"Ġsyk":12169,"Ġhalla":12170,"janlegt":12171,"frÃ¦Ã°ileg":12172,"ĠekiÃ°":12173,"ĠtÃºlka":12174,"ÃŃv":12175,"Ġsvari":12176,"dÃ¦mis":12177,"ssaga":12178,"ĠferÃ°al":12179,"ĠEinf":12180,"ĠNorÃ°urlanda":12181,"Ġbrenna":12182,"leiÃ°sla":12183,"Ã°ugt":12184,"ĠbÃŃlum":12185,"ĠsiÃ°areg":12186,"ĠSÃģM":12187,"Ġtvennt":12188,"fla":12189,"Ġtilvil":12190,"Ġkenndi":12191,"ĠRes":12192,"ĠaÃ°staÃ°a":12193,"Ġakk":12194,"ĠEyjum":12195,"ĠÃŀÃ³rÃ°arson":12196,"Ġbankinn":12197,"ĠmarkaÃ°ssetningu":12198,"bÃ¶rn":12199,"ĠÃ³nÃ½":12200,"ĠbÃ¦jarstjÃ³rn":12201,"elsÃŃ":12202,"ĠsvipuÃ°um":12203,"Ġhum":12204,"Ġbanna":12205,"ĠlifaÃ°":12206,"Ġframfyl":12207,"sbÃŃ":12208,"Ġnafninu":12209,"Ġafnot":12210,"ĠSelt":12211,"ĠsÃ½r":12212,"ĠkrÃ³nu":12213,"ĠÃ¾ema":12214,"ĠHitt":12215,"borgara":12216,"borÃ°iÃ°":12217,"Ġvinnuveitanda":12218,"ĠskrÃ¡ningin":12219,"ĠÃ¡fengi":12220,"ĠbrugÃ°ist":12221,"ĠKet":12222,"Ġseta":12223,"ĠHjÃ³l":12224,"ĠÃ¡hugamÃ¡l":12225,"ĠmarkmiÃ°iÃ°":12226,"ĠÃ¾jÃ¡lfa":12227,"faliÃ°":12228,"ĠSÃį":12229,"ĠBrauÃ°":12230,"ĠvÃŃmu":12231,"Ġfaglega":12232,"ĠrÃŃka":12233,"lim":12234,"Ġtra":12235,"Iceland":12236,"],":12237,"Ġkant":12238,"ĠnÃ¡ttÃºrunnar":12239,"prÃ³fi":12240,"ĠsÃ¶nnunar":12241,"Ġblekk":12242,"ĠaÃ°ildarrÃŃkja":12243,"Ġfullkomna":12244,"Ġsiga":12245,"ĠframkvÃ¦mdastjÃ³rnar":12246,"drykk":12247,"ĠAnn":12248,"Ã¸kur":12249,"ĠrÃ¡Ã°uneytisins":12250,"ĠUnniÃ°":12251,"orth":12252,"virkjunar":12253,"ĠStokkhÃ³l":12254,"Vor":12255,"ĠopnuÃ°":12256,"ĠhlaÃ°a":12257,"Ġfrumvarpi":12258,"ĠsÃ©rstakan":12259,"Ã¾rÃ³unar":12260,"ĠÃ³Ã¾ekk":12261,"Ġstelpur":12262,"ĠEÃ°lisfrÃ¦Ã°i":12263,"Ġeftirspurn":12264,"nunum":12265,"ĠÃ¡burÃ°ar":12266,"Ġtor":12267,"ĠtrÃºverÃ°u":12268,"ĠSkÃºla":12269,"ĠSagnfrÃ¦Ã°i":12270,"ĠnÃ½rna":12271,"ĠÃºtskÃ½ra":12272,"bel":12273,"reynslu":12274,"ĠÄļ":12275,"viti":12276,"tugs":12277,"ĠVaÃ°la":12278,"sfor":12279,"Ã¶s":12280,"ĠBÃ¶rn":12281,"ĠskÃ³lastarf":12282,"gefa":12283,"Ġmg":12284,"ĠsÃ¦taf":12285,"ĠKeflavÃŃkurflugvelli":12286,"FjÃ¡rmÃ¡la":12287,"varÃ°":12288,"Ġ2030":12289,"ĠreiÃ°i":12290,"Ġeitthvert":12291,"ĠmÃŃns":12292,"ĠgildistÃŃma":12293,"mo":12294,"ĠaÃ°gangs":12295,"Ġmal":12296,"Ġrekin":12297,"ĠsparisjÃ³Ã°":12298,"AuÃ°":12299,"engen":12300,"Ġallsherjar":12301,"Ġfjarri":12302,"ĠVerÃ°ur":12303,"ĠÃ¡fangastaÃ°":12304,"ĠRegion":12305,"ĠÃºtbreiÃ°slu":12306,"arÃŃk":12307,"ĠfullorÃ°na":12308,"ĠverksmiÃ°ju":12309,"KA":12310,"skjÃ¶l":12311,"ĠÃ¡lÃŃka":12312,"ĠvÃ¶rn":12313,"HÃ¡l":12314,"etri":12315,"ĠÃ¾inginu":12316,"amat":12317,"Ġsamtal":12318,"MiÃ°viku":12319,"Ġpok":12320,"asÃ¶m":12321,"Ġvefverslun":12322,"ĠfjÃ¡rmun":12323,"jÃ¶kuls":12324,"HjÃ¡":12325,"Ġkennd":12326,"heimum":12327,"ĠMÃ½r":12328,"afrÃ¦Ã°ingur":12329,"Ġgas":12330,"ĠkÃŃlÃ³metra":12331,"Ġsamkeppnish":12332,"sÃ¶ng":12333,"ĠGuÃ°ni":12334,"ĠfyrirbÃ¦ri":12335,"ĠkvaÃ°st":12336,"ĠÃ¡fangastaÃ°a":12337,"Ġgjaldeyrishaf":12338,"Ġsilfur":12339,"ĠstrÃ¡kar":12340,"ĠgÃ¶tur":12341,"Ġjarl":12342,"ĠstjÃ³rnarmanna":12343,"ĠÃĿmsar":12344,"lyf":12345,"niÃ°ur":12346,"ams":12347,"Ġ700":12348,"poka":12349,"aleyfi":12350,"ĠliÃ°inn":12351,"virkja":12352,"ĠsjÃ¡lfseignar":12353,"Ġ1980":12354,"ĠsvÃ¶rum":12355,"Einelti":12356,"ĠÃ¡horfendur":12357,"ismÃ¡l":12358,"ĠGert":12359,"heima":12360,"ĠafmÃ¦lis":12361,"ĠApple":12362,"ĠVÃ¶ru":12363,"ĠrÃŃflega":12364,"ĠÃ¾Ã½Ã°ingar":12365,"ĠerfiÃ°leikum":12366,"ĠbÃ³kun":12367,"ĠlÃŃfsskoÃ°un":12368,"ĠVÃ¶r":12369,"Ġvinstra":12370,"ĠTilgangur":12371,"Ġfagnar":12372,"arannsÃ³k":12373,"ynn":12374,"ĠHÃ¦starÃ©ttar":12375,"ĠFrÃ¡bÃ¦r":12376,"ĠReykjanesbÃ¦":12377,"samur":12378,"ĠlÃŃfrÃ¦num":12379,"ĠFax":12380,"ĠeinlÃ¦g":12381,"ĠHagstofu":12382,"jana":12383,"ĠFal":12384,"ĠfÃ³st":12385,"slÃŃk":12386,"festu":12387,"SÃº":12388,"Ġprestur":12389,"Her":12390,"ĠfÃŃna":12391,"ĠdÃ³s":12392,"Ġendalaust":12393,"ĠgreiÃ°i":12394,"ĠViÃ°skiptablaÃ°sins":12395,"ĠvarÃ°i":12396,"turnar":12397,"ĠhlaupiÃ°":12398,"Ġsmit":12399,"ugl":12400,"slegri":12401,"ĠskriÃ°":12402,"Ã¾ar":12403,"Ġungling":12404,"ura":12405,"Ġsor":12406,"vÃŃst":12407,"ĠÃĵla":12408,"ĠpÃ¡ska":12409,"ĠfarÃ¾egum":12410,"Ġpopp":12411,"ĠSlÃŃkt":12412,"74":12413,"Vinsamlegast":12414,"Ġheiman":12415,"Ġ1991":12416,"ĠKvenna":12417,"ĠSi":12418,"ading":12419,"arfÃ³lk":12420,"Ġstreitu":12421,"ĠtÃ¶ldu":12422,"tilegar":12423,"ĠsÃ½num":12424,"ĠspÃ¦n":12425,"ĠÃŀorsteinsson":12426,"Ġsr":12427,"ĠjÃ¡rn":12428,"ndin":12429,"atÃŃma":12430,"ĠÃ¦fingu":12431,"ĠHvar":12432,"ĠgrÃŃn":12433,"skipunar":12434,"Ġstillt":12435,"ĠaÃ°stÃ¦Ã°":12436,"ĠÃ¾jÃ³Ã°fÃ©lag":12437,"ĠviÃ°skiptavinir":12438,"Ġneytendur":12439,"ĠsÃ¦tafram":12440,"ĠstaÃ°festingar":12441,"ĠUtanrÃŃkis":12442,"ĠÃĸssur":12443,"Ġfyrstir":12444,"ĠGra":12445,"fice":12446,"Ġheimilum":12447,"Ġinnheimtu":12448,"ĠNorÃ°urlandarÃ¡Ã°s":12449,"Ġmanneskju":12450,"hygli":12451,"arÃ©ttur":12452,"ĠÃ¾ingsins":12453,"ÃŃni":12454,"Ġbros":12455,"ĠkaÃ¾Ã³l":12456,"ĠinngÃ¶ngu":12457,"ĠblÃ³ma":12458,"ĠfÃ¶tl":12459,"ĠÃºrskurÃ°i":12460,"dalsh":12461,"ĠlÃ¦rdÃ³m":12462,"ĠÃ¾vi":12463,"oto":12464,"listi":12465,"Ġsvak":12466,"ĠTakk":12467,"ĠvÃŃsan":12468,"ĠreiknaÃ°":12469,"ĠÃŀÃ½skalands":12470,"gram":12471,"ĠgÃŃfur":12472,"ĠumsÃ³knum":12473,"lagan":12474,"ĠRafn":12475,"Ġkennir":12476,"Austur":12477,"ppi":12478,"Ġkrakka":12479,"ĠAD":12480,"ĠÃºtveg":12481,"ĠTÃºn":12482,"ĠminnkaÃ°":12483,"uppgjÃ¶r":12484,"ĠframmistÃ¶Ã°u":12485,"ĠÃģhorf":12486,"Ġgefi":12487,"ĠkvikmyndagerÃ°ar":12488,"ĠKFUM":12489,"Ġtekna":12490,"ĠFrÃ¦Ã°":12491,"Ġpoka":12492,"ĠHeima":12493,"Ġ2020":12494,"ĠvÃ¦nta":12495,"brautar":12496,"ĠpÃŃts":12497,"verur":12498,"Ġsveif":12499,"ĠTÃ³nlistar":12500,"Ġbinda":12501,"mon":12502,"mennta":12503,"rÃŃÃ°ar":12504,"arfÃ©lagiÃ°":12505,"ĠHvers":12506,"Ġonline":12507,"rans":12508,"brigÃ°um":12509,"Ãŀor":12510,"entu":12511,"Ġvegur":12512,"Ġhagsmun":12513,"sonar":12514,"Ġstarv":12515,"ĠrÃ©ttlÃ¦":12516,"ĠkÃŃlÃ³":12517,"ĠfingiÃ°":12518,"ĠnÃ¡miÃ°":12519,"ĠOb":12520,"Ġsa":12521,"Ġskipsins":12522,"Ġgamalt":12523,"ĠlÃŃkamlega":12524,"ser":12525,"Ġflestra":12526,"ĠÃ¾akkar":12527,"eip":12528,"Ġ93":12529,"breyting":12530,"ĠgÃ³Ã°ra":12531,"ĠÃ¾riÃ°ji":12532,"smat":12533,"Ã¦knis":12534,"ĠrÃŃfa":12535,"ool":12536,"ĠÃŀrÃ¡":12537,"ĠAx":12538,"ĠlÃ¦gsta":12539,"verÃ°launin":12540,"izz":12541,"ĠjÃ¡kvÃ¦tt":12542,"ĠjarÃ°hita":12543,"ĠhagspÃ¡":12544,"Ġvatninu":12545,"ĠmÃ¦likvarÃ°a":12546,"ĠrÃ©ttarstÃ¶Ã°u":12547,"Ġgjaldeyrishafta":12548,"Ġbirg":12549,"atnaÃ°i":12550,"ĠviÃ°urken":12551,"Ġpabba":12552,"Kona":12553,"ĠhlutafÃ©lag":12554,"ĠÃ³trÃºlegt":12555,"gangurinn":12556,"ĠBelg":12557,"Ġhleyp":12558,"Ġleigja":12559,"Ġvarp":12560,"ĠPall":12561,"ĠlÃ¦knar":12562,"ĠkÃ¡":12563,"ĠMic":12564,"Ġsamvisku":12565,"ĠgreiÃ°sla":12566,"Ġheilsufar":12567,"ĠÃ¡form":12568,"ĠViÃ°horf":12569,"ĠMenu":12570,"ĠDel":12571,"kÃ¶st":12572,"ĠÃºÅĻ":12573,"sambandiÃ°":12574,"ĠValdimar":12575,"HD":12576,"Ġhverfi":12577,"ĠÃ¡hugafÃ³lks":12578,"Ġgisti":12579,"Ġjepp":12580,"ĠfortÃŃÃ°":12581,"ĠLestu":12582,"ĠalÃ¾jÃ³Ã°legu":12583,"ĠHvann":12584,"ĠHinn":12585,"ĠmÃ¡lÃ¾ing":12586,"Ġflugum":12587,"que":12588,"ĠjÃ¶k":12589,"alir":12590,"ĠsoleiÃ°is":12591,"Ġpartur":12592,"ĠProvin":12593,"Sch":12594,"stov":12595,"oth":12596,"ĠsjÃ³manna":12597,"ĠerfiÃ°ara":12598,"Ġvetr":12599,"ĠskjÃ³tt":12600,"ĠviÃ°auka":12601,"ĠSÃŃÃ°ustu":12602,"Ġskiptast":12603,"stakt":12604,"reisnar":12605,"ĠGrÃ©tar":12606,"aranum":12607,"Ġdagsetningar":12608,"ĠSkÃ¡k":12609,"Bjar":12610,"ĠUSA":12611,"ĠUndan":12612,"Ġsendingu":12613,"ĠÃĸnnu":12614,"Seg":12615,"Ġet":12616,"ĠBakk":12617,"IG":12618,"ĠStrand":12619,"Ġhausinn":12620,"skilyr":12621,"smÃŃÃ°i":12622,"lÃ½singum":12623,"Ġrau":12624,"ĠskjÃ¶ld":12625,"ĠkÃ¦runefnd":12626,"ĠBjÃ¶ssa":12627,"rat":12628,"ĠfimmtÃ¡n":12629,"ÃīR":12630,"vefur":12631,"ĠSkÃ³g":12632,"ĠverÃ°launin":12633,"88":12634,"kass":12635,"Ġtalist":12636,"ĠstÃºlkur":12637,"ForsÃ¦tisrÃ¡Ã°":12638,"Ġkynntu":12639,"ĠlÃŃfsgÃ¦Ã°i":12640,"jag":12641,"Ġfyrradag":12642,"ggjar":12643,"ĠblaÃ°amann":12644,"ĠÃºtgjÃ¶ld":12645,"sÃ³tt":12646,"Ġmerkilegt":12647,"ĠÃŃtarlega":12648,"ateg":12649,"ĠsvoleiÃ°is":12650,"ĠsÃ³lin":12651,"ĠAtli":12652,"veiÃ°ar":12653,"ĠAusturlands":12654,"ĠRÃºn":12655,"ĠPÃŃrata":12656,"ĠvÃ©lina":12657,"ĠAmerÃŃku":12658,"ĠbÃºi":12659,"ĠÃ¶rlagar":12660,"ora":12661,"verÃ°ir":12662,"amennsku":12663,"ĠnÃ¡mskeiÃ°um":12664,"ĠburÃ°ar":12665,"ĠfjÃ¶leignar":12666,"ĠNiÃ°urstÃ¶Ã°ur":12667,"TU":12668,"veri":12669,"augs":12670,"Ġuppbyggingar":12671,"Ã¸ll":12672,"hÃ¶llinni":12673,"ĠafstaÃ°a":12674,"Ġveikinda":12675,"EA":12676,"ĠlangtÃŃma":12677,"ĠÃģrnes":12678,"ĠsvariÃ°":12679,"aflutning":12680,"gott":12681,"alau":12682,"ĠÃŀjÃ³Ã°minjasafn":12683,"Ġsendur":12684,"ÃŃta":12685,"Ġsamfel":12686,"ĠBest":12687,"Ã¶kun":12688,"ĠrÃ³lega":12689,"ĠappiÃ°":12690,"Ã¾Ã©tt":12691,"**":12692,"ĠlÃ¸g":12693,"miÃ°stÃ¶Ã°var":12694,"ĠÃ³hugnan":12695,"ĠÃºtgerÃ°ar":12696,"Ġlangur":12697,"ĠFlokk":12698,"ĠElÃŃn":12699,"ĠnÃ¡lgun":12700,"ĠThom":12701,"Starfar":12702,"ement":12703,"ĠiÃ°k":12704,"ĠHlÃŃÃ°":12705,"ablik":12706,"ĠupplÃ½singatÃ¦kni":12707,"Ġfyrirbygg":12708,"Ġbakgrunn":12709,"fyll":12710,"lyfja":12711,"Ġhttps":12712,"spunk":12713,"ĠplÃ¡":12714,"ĠGen":12715,"ĠleiÃ°ina":12716,"ĠstÃ¦rÃ°um":12717,"eyrar":12718,"Ġleyft":12719,"Ġtur":12720,"Ġvestra":12721,"aÃ°stoÃ°":12722,"erna":12723,"jÃ³num":12724,"ĠMosfellsbÃ¦":12725,"ĠÃ¡Å¾":12726,"ĠprjÃ³na":12727,"ĠHÃºna":12728,"HÃ¦":12729,"ĠÃģstÃ¦Ã°an":12730,"Ġreiknings":12731,"ĠSaint":12732,"ĠlÃŃkindum":12733,"ennslu":12734,"ĠlÃŃtt":12735,"styrjÃ¶ld":12736,"ĠfrÃº":12737,"ĠhÃ¦li":12738,"ĠhÃ³par":12739,"ĠÃ³hef":12740,"Ġsalat":12741,"Ġdrep":12742,"ĠmatvÃ¦li":12743,"Ġymi":12744,"ĠmÃ¡lefna":12745,"ĠhagskÃ½r":12746,"Ġva":12747,"Ġdem":12748,"ÃŀÃ¦r":12749,"Ġjafntefli":12750,"ĠRÃŃkisÃºtvarp":12751,"furt":12752,"ĠsamtÃŃmis":12753,"legheit":12754,"ĠdÃ³mnefnd":12755,"ĠNorÃ°urlÃ¶ndum":12756,"rÃ¸":12757,"stÃ¶k":12758,"ĠhÃ³psins":12759,"usar":12760,"ĠloftslagsmÃ¡lum":12761,"Hlut":12762,"ĠtÃŃmabundna":12763,"ĠframleiÃ°endur":12764,"ĠvÃ¶Ã°v":12765,"atilkyn":12766,"ĠfjÃ¶lmÃ¶rgum":12767,"Ã¶mmum":12768,"ĠliÃ°a":12769,"Ġhagsmunir":12770,"Ġmisserum":12771,"ĠrÃŃkisskatt":12772,".).":12773,"verkefnum":12774,"Ġsnerta":12775,"ĠTÃ³nlist":12776,"ĠkÃ¶rfubolta":12777,"ĠtÃ¶flu":12778,"Gl":12779,"ersen":12780,"gni":12781,"Ġ1989":12782,"Ġnotanda":12783,"Ertu":12784,"mikil":12785,"Ġtilviki":12786,"ĠhannaÃ°":12787,"ĠvÃ©linni":12788,"lÃŃna":12789,"sc":12790,"vÃ©la":12791,"holts":12792,"Ġstemm":12793,"AnnaÃ°":12794,"ĠÃ¶mmu":12795,"Ġforsvar":12796,"Ã¾ekkingu":12797,"Ġsekt":12798,"Ġflestu":12799,"hersla":12800,"slumaÃ°ur":12801,"greiningar":12802,"ĠblaÃ°iÃ°":12803,"ĠSkipulags":12804,"hu":12805,"ĠVigdÃŃs":12806,"ĠGylfa":12807,"ESB":12808,"ĠprÃ³faÃ°":12809,"Ġkirkjug":12810,",-":12811,"ĠÃ¾iggja":12812,"ĠstuÃ°ningur":12813,"slugerÃ°":12814,"ĠbensÃŃn":12815,"ĠSauÃ°Ã¡r":12816,"ĠreglugerÃ°ir":12817,"Ġvirkan":12818,"ĠSlÃ¶kk":12819,"bragÃ°s":12820,"Ġhagkerfisins":12821,"Ġelsta":12822,"ĠÃ¶rstutta":12823,"ĠProvince":12824,"LS":12825,"arfl":12826,"ĠauÃ°lindarÃ¡Ã°uneytiÃ°":12827,"ĠFreyr":12828,"ĠHlutverk":12829,"Eld":12830,"ĠlÃ³Ã°ar":12831,"ĠrÃ¡Ã°ist":12832,"ĠÃ¡rstÃŃÃ°um":12833,"ots":12834,"ĠstjÃ³rnaÃ°":12835,"tÃ¶lum":12836,"ĠLÃº":12837,"Ġrifja":12838,"Ġtryggingagjald":12839,"ĠsmiÃ°":12840,"ĠBal":12841,"Ġ141":12842,"ĠhÃºÃ°ina":12843,"ansk":12844,"ĠstofnaÃ°i":12845,"Ġrest":12846,"ĠDavÃŃÃ°s":12847,"Ġvi":12848,"Ġversta":12849,"ĠlÃ¶ggjafar":12850,"ferÃ°in":12851,"ĠferÃ°alÃ¶g":12852,"ĠAlmennt":12853,"Ġvinkonu":12854,"Ġskuldbindingar":12855,"ĠlÃŃnur":12856,"Ġverslunum":12857,"sÃ©":12858,"Ã½mi":12859,"ĠhÃºsum":12860,"ĠÃ¾jÃ³nar":12861,"Ġframhaldinu":12862,"veÃ°ur":12863,"ĠrÃ¶kstu":12864,"ĠÃŀÃ³ri":12865,"FramkvÃ¦md":12866,"esen":12867,"ĠsÃ¡lfrÃ¦Ã°i":12868,"ĠDalvÃŃk":12869,"LÃŃf":12870,"ĠIl":12871,"ĠrÃ¡Ã°legg":12872,"ĠÃ¾Ã½Ã°a":12873,"ĠsÃ¦taframboÃ°":12874,"ĠnorÃ°a":12875,"ĠiÃ°n":12876,"ĠVerslun":12877,"Ġpil":12878,"ĠNa":12879,"slist":12880,"ĠsmÃŃ":12881,"undarÃ©ttur":12882,"ĠumhverfisÃ¡hrif":12883,"verÃ°tryggÃ°":12884,"Ġsettum":12885,"Ġleggjast":12886,"Bar":12887,"ĠÃ¶flugt":12888,"Borg":12889,"ĠdÃ³ms":12890,"ĠlÃŃtillega":12891,"ĠskÃ¶punar":12892,"ĠlÃ½tur":12893,"ĠÃ¡ratugnum":12894,"Ġvonast":12895,"Ġmild":12896,"agrunn":12897,"ĠfjÃ¡rmÃ¡larÃ¡Ã°herra":12898,"Ġfiskvinnslu":12899,"ĠAndre":12900,"Ġumhverfinu":12901,"ĠsjÃ¡lfsmynd":12902,"ĠVi":12903,"Ġhlutur":12904,"nana":12905,"ĠalhliÃ°a":12906,"ĠskoÃ°aÃ°ur":12907,"landa":12908,"ĠÃŃvil":12909,"reiÃ°a":12910,"UtanrÃŃkis":12911,"ĠNes":12912,"ulla":12913,"Ġsinnir":12914,"skrÃº":12915,"eiÃ°a":12916,"ĠsjÃ¡lfvirk":12917,"eki":12918,"ĠÃ¾unglyndi":12919,"ĠstaÃ°reyndir":12920,"skipa":12921,"Ġatvinnustarfsemi":12922,"Ġfiska":12923,"lish":12924,"igar":12925,"ĠRau":12926,"auki":12927,"svÃ¦Ã°a":12928,"helgis":12929,"''":12930,"ks":12931,"tÃºr":12932,"ĠMorgunblaÃ°sins":12933,"flokkur":12934,"RauÃ°i":12935,"ĠeldhÃºsinu":12936,"ĠvarÃ°veitt":12937,"ĠlÃŃfeyrissjÃ³Ã°um":12938,"Ġsess":12939,"Ġneina":12940,"ĠWik":12941,"ary":12942,"lad":12943,"ĠTÃ³k":12944,"rekk":12945,"ĠSov":12946,"ĠkÃ¦rlega":12947,"ĠÃºtaf":12948,"ĠBreta":12949,"ĠsÃ³sÃŃ":12950,"Ġhugtak":12951,"ĠAlÃ¾jÃ³Ã°agjald":12952,"ĠDagur":12953,"ĠValur":12954,"ĠmenningarmÃ¡larÃ¡Ã°uneytiÃ°":12955,"Ġstov":12956,"Ġfranska":12957,"mal":12958,"Ġdrif":12959,"ĠÃ³eÃ°l":12960,"ĠjÃ¶kul":12961,"Ġsleppt":12962,"Set":12963,"orÃ°um":12964,"ĠsamstÃ¶Ã°u":12965,"astjÃ³ri":12966,"Ġhlutdeild":12967,"Ġmorgunfundi":12968,"Ġkaupanda":12969,"Ã°irnar":12970,"ĠveiÃ°ar":12971,"brÃ©fi":12972,"ĠaÃ°stÃ¦Ã°na":12973,"slaga":12974,"mÃ¡lar":12975,"ĠnÃ¡kvÃ¦mni":12976,"mennirnir":12977,"MeÃ°al":12978,"Ġfallegum":12979,"aminn":12980,"ĠÃ³lÃŃkt":12981,"ÃŀjÃ³Ã°":12982,"ĠvaxtaÃ¡kvÃ¶rÃ°unarfundi":12983,"ĠmiÃ°nÃ¦tti":12984,"dagin":12985,"Ġtengingu":12986,"Ġmorgunmat":12987,"Ġvaxtar":12988,"fjÃ¡rfest":12989,"Ġnett":12990,"ĠhÃ¡lfa":12991,"ĠhÃ¡tÃŃÃ°arinnar":12992,"CA":12993,"ollur":12994,"ĠEndurvinnslu":12995,"Ġfim":12996,"angre":12997,"ĠKos":12998,"ĠÃ¾rÃ¶ng":12999,"arÃŃ":13000,"ĠatriÃ°":13001,"Ġopnast":13002,"vatns":13003,"ĠAldrei":13004,"hyr":13005,"ĠnotaÃ°ir":13006,"burÃ°um":13007,"Ġtryggi":13008,"Ġvandlega":13009,"ĠKÃ¡ri":13010,"ĠfÃ©lagsmÃ¶nnum":13011,"ĠlÃ¶greglan":13012,"ĠbÃ¸r":13013,"hÃ¦ft":13014,"stefnan":13015,"Ġendurheim":13016,"Ġlyfta":13017,"ĠkÃ¦ft":13018,"ĠGrÃ³":13019,"ĠWind":13020,"ĠÃ¾risvar":13021,"hyl":13022,"astÃ¶Ã°um":13023,"Ġtafar":13024,"Ġorgan":13025,"Ġmikilla":13026,"gerÃ°in":13027,"ĠLeifs":13028,"ĠTex":13029,"ĠvinsÃ¦ldum":13030,"MiÃ°vikudaginn":13031,"irkom":13032,"Ġfersk":13033,"ĠGetur":13034,"ĠmÃ¡lsmeÃ°ferÃ°":13035,"Ġkynntar":13036,"ĠverÃ°bÃ³lgum":13037,"ĠlÃŃfvera":13038,"Ġrauninni":13039,"ljÃ³st":13040,"rannsÃ³kna":13041,"ĠAss":13042,"ĠSÃ¦var":13043,"Ã³pa":13044,"stundir":13045,"ĠSambands":13046,"ĠTryggvi":13047,"way":13048,"Ġstyrkur":13049,"ĠHÃ¡skÃ³lann":13050,"Ġbankar":13051,"ĠguÃ°s":13052,"ĠsÃ¶fnum":13053,"Ġeindreg":13054,"ĠÃģstral":13055,"ĠSamband":13056,"EM":13057,"ĠskipaÃ°ur":13058,"Ġskalt":13059,"ĠSaman":13060,"Ġhandverk":13061,"ĠvÃ¡trygginga":13062,"Ġkennileitum":13063,"FD":13064,"vinir":13065,"drÃ¡":13066,"Ø§":13067,"Ġbikar":13068,"ĠÃŀjÃ³r":13069,"andic":13070,"ĠÃ¾Ã½ska":13071,"ĠhÃºsnÃ¦Ã°islÃ¡na":13072,"flÃ¦Ã°i":13073,"ise":13074,"Ġsafnast":13075,"ĠDonald":13076,"ĠkjÃºkling":13077,"KR":13078,"fulltrÃºi":13079,"Ġskilvirk":13080,"ĠbÃŃll":13081,"ĠhagrÃ¦Ã°":13082,"irkomulag":13083,"ĠsÃ¶kk":13084,"ĠBor":13085,"Ġfley":13086,"ĠmannrÃ©ttindi":13087,"angan":13088,"Ġsamningsins":13089,"ĠHildur":13090,"ĠsjÃ¡i":13091,"ĠnÃ¦sti":13092,"ĠGrafar":13093,"kaffi":13094,"Ġkorn":13095,"ĠÃ¾eira":13096,"tÃŃnu":13097,"hÃ¦kkanir":13098,"ĠKFUK":13099,"ĠInstagram":13100,"ĠGÃŃslason":13101,"ĠrÃŃkjandi":13102,"hlutum":13103,"Ġorsak":13104,"ĠEyrarb":13105,"ĠÃŃhuga":13106,"Ġskjald":13107,"ĠhefÃ°um":13108,"ĠNÃ³":13109,"Ã¶flun":13110,"Ġ160":13111,"ĠÃ³gn":13112,"arki":13113,"Ġmorguninn":13114,"ĠtÃ¦kifÃ¦riÃ°":13115,"Ġkennsla":13116,"ĠICE":13117,"Ġgamans":13118,"ĠmÃ³tor":13119,"ĠGuÃ°mundar":13120,"breytinga":13121,"Ãŀessar":13122,"veitingar":13123,"Ġmengun":13124,"Ġverkinu":13125,"Ġspennt":13126,"YrÃ°i":13127,"ĠrÃ¸":13128,"ĠBollu":13129,"bÃºinn":13130,"ĠskipulÃ¶g":13131,"ĠÃĵlymp":13132,"burÃ°a":13133,"ĠflÃ³knar":13134,"frÃ¦gir":13135,"ĠÃ³met":13136,"Ġmissir":13137,"Ġuppfyllir":13138,"Ġdeiliskipulag":13139,"ĠBlÃ¶ndu":13140,"ningja":13141,"Ġpabbi":13142,"ĠhjÃ³lastÃ³l":13143,"inganna":13144,"framleiÃ°sla":13145,"rÃ¡Ã°uneytisins":13146,"Ġflutninga":13147,"retta":13148,"ĠsÃ©rsniÃ°":13149,"ĠgjaldeyrismÃ¡l":13150,"ĠleiÃ°toga":13151,"ĠLyf":13152,"ĠHÃ¶ddi":13153,"Ã°uÃ°u":13154,"ĠafsÃ¶kunar":13155,"ming":13156,"Ġhugar":13157,"ĠumrÃ¦dd":13158,"ĠÃ¾rÃ³aÃ°":13159,"ĠEKK":13160,"freÃ°":13161,"ĠhorfÃ°i":13162,"vitund":13163,"herbergjum":13164,"brjÃ³sta":13165,"ĠNA":13166,"Ġalvarlegar":13167,"ĠMinjasafn":13168,"Ġengir":13169,"ĠklÃ¡rlega":13170,"ĠVÃŃkur":13171,"tÃŃmar":13172,"Ġeinstaklingi":13173,"Ġku":13174,"Ġbirtust":13175,"ĠVegagerÃ°":13176,"ĠJÃ³la":13177,"Ġleikja":13178,"ĠKristins":13179,"ĠLandssam":13180,"Ġhrygg":13181,"ĠskrÃ½":13182,"ĠSkinka":13183,"ĠJÃ³nssonar":13184,"ĠleiÃ°ar":13185,"ĠfÃ¸":13186,"alinn":13187,"Ġbat":13188,"garÃ°i":13189,"ĠrÃ¶kstuÃ°":13190,"ĠnjÃ³ti":13191,"ĠvÃ¶kva":13192,"ĠSey":13193,"snÃº":13194,"Raf":13195,"konur":13196,"ĠupptÃ¶ku":13197,"vÃ¶run":13198,"bakka":13199,"ĠÃ¡minn":13200,"ĠheilsugÃ¦slu":13201,"Eg":13202,"Ġfyrirliggjandi":13203,"imskip":13204,"Ġnefndinni":13205,"ĠrÃŃÃ°a":13206,"ĠsumarfrÃŃ":13207,"Ġaum":13208,"ĠskjÃ³lstÃ¦Ã°":13209,"ĠhÃ¶fÃ°ing":13210,"Ġunglingar":13211,"Ġbey":13212,"exÃŃk":13213,"Ġungmenni":13214,"ĠsveitarstjÃ³r":13215,"Ġgeisl":13216,"ĠÃ³Ã¾ol":13217,"ĠManchester":13218,"urÃ°ar":13219,"rÃºnar":13220,"ĠForeldrar":13221,"ĠAtla":13222,"jendum":13223,"ĠWest":13224,"Ġdi":13225,"ĠMÃ¡lvÃŃsindi":13226,"Ġdollara":13227,"600":13228,"ĠHalldÃ³rsson":13229,"Ġbotninn":13230,"astjÃ³rn":13231,"Ã¶ndin":13232,"ĠFÃ¸roya":13233,"Mennta":13234,"entur":13235,"ĠÃ¸Ã°rum":13236,"ĠinnviÃ°a":13237,"ĠverÃ°bÃ³lgumarkmiÃ°":13238,"ĠstrÃ¡karnir":13239,"ĠvÃŃÃ°s":13240,"skyldan":13241,"ĠgrÃ¡Ã°ur":13242,"ĠÃįR":13243,"Ġbindi":13244,"Ġtilnefningar":13245,"hugmynd":13246,"Ġfagn":13247,"ĠStaÃ°a":13248,"mennska":13249,"Ġfresta":13250,"ĠUmhverfismÃ¡l":13251,"ĠverslaÃ°":13252,"ĠÃ¾Ã¦gilegt":13253,"Ã¡kv":13254,"ĠDar":13255,"fulltrÃºa":13256,"ĠaugljÃ³slega":13257,"we":13258,"ĠTÃ¶lv":13259,"smÃ¡":13260,"Ġlistamanna":13261,"ĠÃ¡nÃ¦gÃ°ir":13262,"ĠAthugiÃ°":13263,"Vit":13264,"bifreiÃ°":13265,"ĠmiÃ°ri":13266,"ĠÃ¾orp":13267,"ĠendurskoÃ°unar":13268,"ĠFinnb":13269,"Ġverksins":13270,"ĠsÃ¦tum":13271,"ĠGarÃ°":13272,"ustan":13273,"Ġfrumvarpinu":13274,"fÃ³lks":13275,"Ums":13276,"gunar":13277,"ĠÃ¡hÃ¶fn":13278,"ĠslÃ¦r":13279,"SigurÃ°ur":13280,"ĠNem":13281,"vegur":13282,"Ġsetu":13283,"ĠaÃ°alfundar":13284,"ĠHÃ©raÃ°sdÃ³m":13285,"Ġhandtek":13286,"ĠsÃ¦tiÃ°":13287,"ĠGrÃŃm":13288,"ĠTom":13289,"afÃ©laginu":13290,"ĠÃ¾urrk":13291,"ĠeinfÃ¶ldum":13292,"ĠÃ¾ingmanna":13293,"ĠÃ¾ykja":13294,"ĠBolungar":13295,"Ġframleitt":13296,"ĠsÃ¦tta":13297,"sveitir":13298,"ĠHÃ³lma":13299,"Ġframtak":13300,"ĠLÃį":13301,"ĠstrÃŃÃ°s":13302,"ĠsÃ³kn":13303,"stirÃ©ttur":13304,"ĠfjÃ¶lmÃ¶rgu":13305,"ĠmannrÃ©ttind":13306,"Ġ163":13307,"ĠLandeyja":13308,"ĠfjÃ¡rhags":13309,"ĠÃ¾akklÃ¡t":13310,"ĠlÃ¡gmarks":13311,"ĠleiÃ°i":13312,"axta":13313,"ĠbÃ¶n":13314,"Ġskrifum":13315,"Ġforsenda":13316,"64":13317,"Ġkasta":13318,"Ġafgreidd":13319,"ĠendurbÃ³ta":13320,"Ġmillj":13321,"ĠkjÃ¶rtÃŃmabil":13322,"ier":13323,"Ġslysa":13324,"Ġgjalddaga":13325,"samningsins":13326,"Ġatvinnurekstur":13327,"ĠLeiÃ°bein":13328,"lÃ¡na":13329,"Ġupptek":13330,"Ġdagurinn":13331,"ĠnÃ¡iÃ°":13332,"ĠGrÃ¦nlands":13333,"TÃ³n":13334,"Ġhluthafa":13335,"ĠgagnrÃ½na":13336,"ĠklÃŃn":13337,"ĠMon":13338,"Ġvanalega":13339,"skÃ¶punar":13340,"Mig":13341,"unnur":13342,"ĠbÃŃlskÃºr":13343,"Ġbull":13344,"ĠmannrÃ©ttinda":13345,"ĠÃ¾jÃ³Ã°fÃ©laginu":13346,"ingastarfsemi":13347,"Ġfluttu":13348,"IM":13349,"Ġ91":13350,"Ġheimilanna":13351,"Hin":13352,"ĠHraun":13353,"ningarnar":13354,"Ġlyfjum":13355,"ĠfÃ¦rÃ°i":13356,"0000":13357,"ĠKaffi":13358,"strey":13359,"Ġbrygg":13360,"Ġverkfall":13361,"Ġbekkjar":13362,"ĠupptÃ¶k":13363,"ĠvantaÃ°i":13364,"ĠAnnarsvegar":13365,"hlutverki":13366,"ĠÃ¡vÃ¶xtun":13367,"ĠskÃŃÃ°a":13368,"ĠFrum":13369,"ĠSkaft":13370,"ĠÃ¡tÃ¶k":13371,"Ġtengi":13372,"ĠdjÃºpt":13373,"Ġfasta":13374,"ĠEgils":13375,"ĠÃºtlanda":13376,"BÃº":13377,"ĠBill":13378,"ĠÃ¶nn":13379,"ĠlÃŃkar":13380,"ĠÃ¡skrift":13381,"ĠgjaldskrÃ¡":13382,"ĠstaÃ°settur":13383,"ĠÃ¾Ã¡tttakenda":13384,"rasil":13385,"ĠvaramaÃ°ur":13386,"ĠÃºtrÃ½":13387,"skurÃ°":13388,"lana":13389,"ĠÃ¶kutÃ¦ki":13390,"ynni":13391,"ĠSkÃ³":13392,"ĠvaraformaÃ°ur":13393,"ĠklÃ³":13394,"Ġhringdu":13395,"Ġ1975":13396,"ĠhÃ³telinu":13397,"ĠfyrirsjÃ¡":13398,"jÃ¶rnum":13399,"ĠÃ¾urftu":13400,"Ãŀing":13401,"ÃŃuleik":13402,"ĠkrÃ³nan":13403,"ĠfrÃŃstund":13404,"ĠBla":13405,"Ġskemmtilegum":13406,"ĠfÃ¦rast":13407,"iÃ°naÃ°":13408,"oles":13409,"fjÃ¶l":13410,"ĠFS":13411,"ĠÃ¾arfnast":13412,"Ã°unar":13413,"Ġhik":13414,"Ġmerkingar":13415,"astarf":13416,"Ġofl":13417,"ĠveÃ°urfar":13418,"ĠÃŀÃ½skaland":13419,"Ġprenta":13420,"ĠFiskistof":13421,"sÃ¡Ã¦tlunar":13422,"ĠDavid":13423,"mandi":13424,"Ġumb":13425,"enu":13426,"98":13427,"ĠmyndbÃ¶ndum":13428,"Ġlosunar":13429,"ĠhÃ¶fund":13430,"ĠlÃŃkaminn":13431,"GuÃ°mundur":13432,"ĠfÃ©laganna":13433,"ĠMennt":13434,"ĠmÃ³ttÃ¶kust":13435,"ĠmorÃ°":13436,"ĠFyrstu":13437,"Ġhvol":13438,"Ġgista":13439,"ĠsÃ½ndar":13440,"Ġennfremur":13441,"ĠkÃ¦li":13442,"Ġhneyk":13443,"ĠEndurvinnslukort":13444,"ĠHon":13445,"Ã¾yr":13446,"Ġlistaverk":13447,"Ġkak":13448,"ĠDÃ¦mi":13449,"Ġleggi":13450,"ĠfiÃ°":13451,"Ġumgengni":13452,"Ġumsagnar":13453,"Ġhapp":13454,"ĠfÃ³tum":13455,"ĠvinsÃ¦ll":13456,"ĠParÃŃsar":13457,"Dr":13458,"ake":13459,"Ġfallegar":13460,"Ġvissum":13461,"ĠBerbrjÃ³sta":13462,"Ġfellt":13463,"Ãįslenska":13464,"SÃ¶gufrÃ¦gir":13465,"ĠpÃŃtsastaÃ°ir":13466,"varf":13467,"ater":13468,"Ġkrem":13469,"ĠÃŀessu":13470,"ĠHallgrÃŃm":13471,"Ãĵlaf":13472,"gagna":13473,"Ġneg":13474,"ĠÃŀekk":13475,"ĠsniÃ°i":13476,"Ġalmennra":13477,"ĠKristi":13478,"Ġveidd":13479,"Ġeinkennum":13480,"ĠljÃºff":13481,"ĠskÃ³lastarfi":13482,"ĠÃ¾rÃŃfa":13483,"Ġvottun":13484,"ĠMarkaÃ°":13485,"Ġbandalag":13486,"ĠCre":13487,"Ġvitna":13488,"Ġhun":13489,"Ġmerkjum":13490,"ĠkortiÃ°":13491,"ĠumsÃ¦kjandi":13492,"bit":13493,"Ġbakter":13494,"Ġnotandi":13495,"Minn":13496,"Ġbyggjast":13497,"ssvÃ¦Ã°i":13498,"Ġag":13499,"ĠÃ³hjÃ¡":13500,"Ġtilgangur":13501,"Ġtileink":13502,"ĠsjÃ¡lv":13503,"ĠSmÃ¡ri":13504,"ĠfjÃ¶lbreytni":13505,"ĠÃ¡hÃ¦tta":13506,"ĠÃŀarf":13507,"angir":13508,"lausar":13509,"Ġatvinnuleysis":13510,"ĠNAT":13511,"borÃ°s":13512,"ĠkÃ½r":13513,"ĠSjÃ³nar":13514,"Ġtengil":13515,"ĠstaÃ°festir":13516,"ĠSteingrÃŃmur":13517,"bÃ¦k":13518,"alengd":13519,"Ġsamtaka":13520,"ĠStuÃ°":13521,"Ġ1978":13522,"Ġburtur":13523,"ĠMeistara":13524,"ĠSparis":13525,"Ġstakk":13526,"Ġdo":13527,"ĠCa":13528,"ĠmikilvÃ¦ga":13529,"ĠsÃ³larhr":13530,"ĠdÃ½rum":13531,"ĠmarkaÃ°ssetningar":13532,"ĠPÃ©tursson":13533,"Gyl":13534,"ĠauglÃ½sing":13535,"ĠheimsÃ³tti":13536,"Ġminnar":13537,"ĠatburÃ°i":13538,"veginn":13539,"ĠMor":13540,"ĠDu":13541,"jarnt":13542,"ĠSteinar":13543,"ĠÃºtlÃ¶nd":13544,"ĠÃºtrÃ¡s":13545,"pakka":13546,"ĠfÃ¦kk":13547,"EIN":13548,"ĠaÃ°gengilegar":13549,"Ġsameinast":13550,"onan":13551,"ĠÃ¦skulÃ½Ã°s":13552,"SmÃ¡":13553,"Ġnefndi":13554,"ĠaÃ°stoÃ°aÃ°":13555,"Ġspurningunni":13556,"autsb":13557,"Ġumsvif":13558,"vita":13559,"ĠBÃ¦kur":13560,"ĠhÃ©raÃ°sdÃ³m":13561,"Ġsamningnum":13562,"aster":13563,"rÃŃr":13564,"Ġvirkir":13565,"93":13566,"ĠAb":13567,"araÃ¾on":13568,"Ġsemsagt":13569,"lÃ¡tur":13570,"ĠfjÃ¶lbreytta":13571,"ĠhÃ¸vdu":13572,"Ġbirtingu":13573,"Ġflokknum":13574,"ĠkynferÃ°isbrot":13575,"ongu":13576,"ĠLÃ½Ã°":13577,"trans":13578,"ĠBÃŃÃ³":13579,"ĠdrÃ³st":13580,"bÃºsins":13581,"ĠritstjÃ³ra":13582,"ĠstjÃ¶rnur":13583,"Ġeinhverri":13584,"ĠhvÃŃta":13585,"ĠÃ¡ratuga":13586,"ĠheiÃ°urs":13587,"Ġstillingar":13588,"mynstur":13589,"ĠBÃ¶rnin":13590,"lip":13591,"ĠsveitarfÃ©laginu":13592,"verndarsamtÃ¶k":13593,"Ġuppfylli":13594,"slÃ¡n":13595,"ĠflugvÃ¶ll":13596,"ĠkjÃ¶rinn":13597,"ritum":13598,"Ġnokkurt":13599,"ĠRek":13600,"ĠnorrÃ¦na":13601,"Eyjar":13602,"smeÃ°":13603,"ĠleiÃ°rÃ©tta":13604,"ĠÃ³hjÃ¡kvÃ¦m":13605,"Ġmyndarinnar":13606,"Ġskel":13607,"ĠbÃ¡Ã°a":13608,"Ġstelpan":13609,"ĠEgilsstÃ¶Ã°um":13610,"ĠvoÃ°a":13611,"Ġrof":13612,"ĠBragi":13613,"Ġsvefnherbergi":13614,"ĠKKÃį":13615,"ĠsÃ¶gÃ°":13616,"iskos":13617,"Ġlitir":13618,"ĠsjÃ¡lfbÃ¦rni":13619,"Ġlam":13620,"ĠstrÃ¦tÃ³":13621,"Ġinnilega":13622,"arfÃ©laga":13623,"ĠHaukur":13624,"unty":13625,"Ġgall":13626,"Ġsambands":13627,"ĠNafn":13628,"stÃ¶Ã°ina":13629,"bÃºum":13630,"ĠHermann":13631,"ĠbÃ¦tist":13632,"ĠKi":13633,"ĠundirritaÃ°ur":13634,"ĠfÃ¦Ã°a":13635,"Ġungra":13636,"ĠsvÃ¦Ã°a":13637,"ĠMars":13638,"Annars":13639,"Ġtvennskonar":13640,"ĠFjÃ¶ldi":13641,"Ġsterkt":13642,"ĠGrÃ¦na":13643,"Ġhelsti":13644,"ĠsendiÃ°":13645,"ĠÃ¡ferÃ°":13646,"ĠDanÃŃel":13647,"ĠhÃ¶fuÃ°iÃ°":13648,"ĠleiÃ°um":13649,"Ġfylk":13650,"ĠbÃŃlar":13651,"ĠAtvinn":13652,"pÃŃ":13653,"ĠbÃºum":13654,"ĠvÃŃsindamenn":13655,"banda":13656,"kal":13657,"slÃ³":13658,"Gylfi":13659,"Ġstyr":13660,"ĠrÃ¡Ã°gefandi":13661,"snÃºmer":13662,"ĠsjÃ¡varÃºtvegi":13663,"hÃ¶ld":13664,"skiptin":13665,"Ġhagkerfinu":13666,"Ã¾jÃ³nustan":13667,"Ġpottinn":13668,"&#":13669,"ON":13670,"Ġhall":13671,"endar":13672,"Ã¾urr":13673,"Takk":13674,"etriÃ°":13675,"Ã°uÃ°um":13676,"ansinn":13677,"Ġsigra":13678,"Ġrekinn":13679,"ĠSÃ¶l":13680,"Ġformlegt":13681,"ĠfÃ¦Ã°i":13682,"Ġpress":13683,"Ġhanna":13684,"Ġflotta":13685,"aÃ°ferÃ°ir":13686,"ĠÃ¾ekkjum":13687,"ĠtilboÃ°i":13688,"seg":13689,"vaÃ°i":13690,"ĠJÃºnÃŃ":13691,"ykt":13692,"ĠinnsÃ½n":13693,"ĠfrestaÃ°":13694,"sbotn":13695,"deÃ³":13696,"ĠsÃ³ma":13697,"Ġ97":13698,"ĠbÃ¦jarstjÃ³ri":13699,"ĠsÃ©rstakri":13700,"ĠrÃ¦ktuÃ°":13701,"ĠHilmar":13702,"ĠstuÃ°lar":13703,"ĠtÃ¦pum":13704,"ĠvefsÃŃÃ°an":13705,"ĠHit":13706,"ĠDom":13707,"ĠbÃŃÃ³":13708,"Ġfran":13709,"ĠhÃ©raÃ°i":13710,"ĠtÃŃÃ°kast":13711,"ĠvelkomiÃ°":13712,"ĠDrottins":13713,"Ã¶gnuÃ°":13714,"ĠGagnrÃ½ni":13715,"ĠumboÃ°smann":13716,"ĠritgerÃ°":13717,"Ġsamhl":13718,"lynd":13719,"Ġvatna":13720,"Ã¡liÃ°":13721,"lasir":13722,"ael":13723,"ankanum":13724,"Ġdrauma":13725,"NorÃ°ur":13726,"Ġmaga":13727,"skja":13728,"NÃºna":13729,"ĠÃŀaÃ°an":13730,"Ġskyndilega":13731,"bann":13732,"ĠskrÃ¡ning":13733,"ĠÃ¡liti":13734,"Ġgamlar":13735,"ĠjÃ¶rÃ°ina":13736,"ĠmeÃ°hÃ¶ndla":13737,"ĠÃ¡skorun":13738,"hal":13739,"ĠgerÃ°inni":13740,"Ġheilsa":13741,"ĠsjÃ¶unda":13742,"ĠSnÃ¦fells":13743,"het":13744,"ĠÃ¾okk":13745,"Ġgegnir":13746,"ĠverkalÃ½Ã°":13747,"amanns":13748,"Ġdey":13749,"Ġytra":13750,"ĠlÃ¡tinn":13751,"ĠÃįslandsmÃ³t":13752,"ĠHagstofan":13753,"ĠFrankfurt":13754,"Å¥":13755,"ĠLyr":13756,"Ġ94":13757,"lukkan":13758,"aÃ°sÃ³kn":13759,"Ġhlust":13760,"deildarinnar":13761,"frÃ¦Ã°innar":13762,"Ġlung":13763,"ĠsamÃ¾ykkis":13764,"ĠsauÃ°fjÃ¡r":13765,"ĠhrÃŃÃ°":13766,"Ġsvonefnd":13767,"ĠferÃ°amÃ¶nnum":13768,"ĠskÃ½rslur":13769,"Ġlistamann":13770,"ĠhefÃ°bundna":13771,"NÃ¦stkomandi":13772,"Ġgreindi":13773,"skipiÃ°":13774,"hÃ¦fingu":13775,"ĠrafrÃ¦n":13776,"ĠskuldabrÃ©fa":13777,"gÃ¦ti":13778,"Ġformanni":13779,"ĠumhverfismÃ¡l":13780,"unarfrÃ¦Ã°i":13781,"Ġtaug":13782,"inf":13783,"ÃŃÃ°ur":13784,"leÃ°i":13785,
[...]
